<pad>	0
<unk>	0
<bos>	0
<eos>	0
<en>	0
<as>	0
<bn>	0
<gu>	0
<hi>	0
<kn>	0
<ml>	0
<mr>	0
<or>	0
<pa>	0
<ta>	0
<te>	0
<0x00>	0
<0x01>	0
<0x02>	0
<0x03>	0
<0x04>	0
<0x05>	0
<0x06>	0
<0x07>	0
<0x08>	0
<0x09>	0
<0x0A>	0
<0x0B>	0
<0x0C>	0
<0x0D>	0
<0x0E>	0
<0x0F>	0
<0x10>	0
<0x11>	0
<0x12>	0
<0x13>	0
<0x14>	0
<0x15>	0
<0x16>	0
<0x17>	0
<0x18>	0
<0x19>	0
<0x1A>	0
<0x1B>	0
<0x1C>	0
<0x1D>	0
<0x1E>	0
<0x1F>	0
<0x20>	0
<0x21>	0
<0x22>	0
<0x23>	0
<0x24>	0
<0x25>	0
<0x26>	0
<0x27>	0
<0x28>	0
<0x29>	0
<0x2A>	0
<0x2B>	0
<0x2C>	0
<0x2D>	0
<0x2E>	0
<0x2F>	0
<0x30>	0
<0x31>	0
<0x32>	0
<0x33>	0
<0x34>	0
<0x35>	0
<0x36>	0
<0x37>	0
<0x38>	0
<0x39>	0
<0x3A>	0
<0x3B>	0
<0x3C>	0
<0x3D>	0
<0x3E>	0
<0x3F>	0
<0x40>	0
<0x41>	0
<0x42>	0
<0x43>	0
<0x44>	0
<0x45>	0
<0x46>	0
<0x47>	0
<0x48>	0
<0x49>	0
<0x4A>	0
<0x4B>	0
<0x4C>	0
<0x4D>	0
<0x4E>	0
<0x4F>	0
<0x50>	0
<0x51>	0
<0x52>	0
<0x53>	0
<0x54>	0
<0x55>	0
<0x56>	0
<0x57>	0
<0x58>	0
<0x59>	0
<0x5A>	0
<0x5B>	0
<0x5C>	0
<0x5D>	0
<0x5E>	0
<0x5F>	0
<0x60>	0
<0x61>	0
<0x62>	0
<0x63>	0
<0x64>	0
<0x65>	0
<0x66>	0
<0x67>	0
<0x68>	0
<0x69>	0
<0x6A>	0
<0x6B>	0
<0x6C>	0
<0x6D>	0
<0x6E>	0
<0x6F>	0
<0x70>	0
<0x71>	0
<0x72>	0
<0x73>	0
<0x74>	0
<0x75>	0
<0x76>	0
<0x77>	0
<0x78>	0
<0x79>	0
<0x7A>	0
<0x7B>	0
<0x7C>	0
<0x7D>	0
<0x7E>	0
<0x7F>	0
<0x80>	0
<0x81>	0
<0x82>	0
<0x83>	0
<0x84>	0
<0x85>	0
<0x86>	0
<0x87>	0
<0x88>	0
<0x89>	0
<0x8A>	0
<0x8B>	0
<0x8C>	0
<0x8D>	0
<0x8E>	0
<0x8F>	0
<0x90>	0
<0x91>	0
<0x92>	0
<0x93>	0
<0x94>	0
<0x95>	0
<0x96>	0
<0x97>	0
<0x98>	0
<0x99>	0
<0x9A>	0
<0x9B>	0
<0x9C>	0
<0x9D>	0
<0x9E>	0
<0x9F>	0
<0xA0>	0
<0xA1>	0
<0xA2>	0
<0xA3>	0
<0xA4>	0
<0xA5>	0
<0xA6>	0
<0xA7>	0
<0xA8>	0
<0xA9>	0
<0xAA>	0
<0xAB>	0
<0xAC>	0
<0xAD>	0
<0xAE>	0
<0xAF>	0
<0xB0>	0
<0xB1>	0
<0xB2>	0
<0xB3>	0
<0xB4>	0
<0xB5>	0
<0xB6>	0
<0xB7>	0
<0xB8>	0
<0xB9>	0
<0xBA>	0
<0xBB>	0
<0xBC>	0
<0xBD>	0
<0xBE>	0
<0xBF>	0
<0xC0>	0
<0xC1>	0
<0xC2>	0
<0xC3>	0
<0xC4>	0
<0xC5>	0
<0xC6>	0
<0xC7>	0
<0xC8>	0
<0xC9>	0
<0xCA>	0
<0xCB>	0
<0xCC>	0
<0xCD>	0
<0xCE>	0
<0xCF>	0
<0xD0>	0
<0xD1>	0
<0xD2>	0
<0xD3>	0
<0xD4>	0
<0xD5>	0
<0xD6>	0
<0xD7>	0
<0xD8>	0
<0xD9>	0
<0xDA>	0
<0xDB>	0
<0xDC>	0
<0xDD>	0
<0xDE>	0
<0xDF>	0
<0xE0>	0
<0xE1>	0
<0xE2>	0
<0xE3>	0
<0xE4>	0
<0xE5>	0
<0xE6>	0
<0xE7>	0
<0xE8>	0
<0xE9>	0
<0xEA>	0
<0xEB>	0
<0xEC>	0
<0xED>	0
<0xEE>	0
<0xEF>	0
<0xF0>	0
<0xF1>	0
<0xF2>	0
<0xF3>	0
<0xF4>	0
<0xF5>	0
<0xF6>	0
<0xF7>	0
<0xF8>	0
<0xF9>	0
<0xFA>	0
<0xFB>	0
<0xFC>	0
<0xFD>	0
<0xFE>	0
<0xFF>	0
▁क	-0
▁t	-1
he	-2
▁a	-3
in	-4
▁स	-5
▁ह	-6
▁म	-7
▁प	-8
re	-9
▁the	-10
on	-11
er	-12
्र	-13
nd	-14
▁के	-15
ार	-16
▁s	-17
at	-18
ें	-19
▁o	-20
is	-21
ने	-22
▁w	-23
▁है	-24
en	-25
या	-26
▁c	-27
ed	-28
▁ब	-29
▁ज	-30
an	-31
or	-32
ar	-33
it	-34
es	-35
▁अ	-36
ों	-37
▁p	-38
▁व	-39
▁f	-40
▁में	-41
▁द	-42
▁of	-43
▁in	-44
▁b	-45
al	-46
▁र	-47
ing	-48
▁ल	-49
as	-50
▁की	-51
▁न	-52
▁to	-53
▁and	-54
▁h	-55
र्	-56
ou	-57
ion	-58
ान	-59
▁उ	-60
ic	-61
▁को	-62
▁औ	-63
▁d	-64
▁m	-65
▁और	-66
▁कि	-67
ता	-68
il	-69
▁S	-70
ent	-71
▁कर	-72
▁आ	-73
▁T	-74
▁इ	-75
▁ग	-76
्य	-77
▁त	-78
▁भ	-79
िक	-80
▁से	-81
ro	-82
▁का	-83
▁प्र	-84
▁A	-85
▁I	-86
le	-87
ना	-88
▁ने	-89
▁th	-90
▁पर	-91
id	-92
▁M	-93
स्	-94
▁ए	-95
▁re	-96
▁be	-97
ve	-98
ाल	-99
▁श	-100
▁C	-101
ct	-102
िल	-103
ad	-104
st	-105
▁P	-106
क्	-107
▁n	-108
om	-109
ित	-110
▁is	-111
▁(	-112
▁य	-113
▁च	-114
▁e	-115
▁इस	-116
▁l	-117
▁The	-118
हा	-119
am	-120
ur	-121
ही	-122
िए	-123
▁हैं	-124
▁g	-125
ol	-126
▁for	-127
ation	-128
▁B	-129
ay	-130
ot	-131
िय	-132
न्	-133
▁on	-134
ver	-135
ter	-136
त्र	-137
im	-138
िया	-139
ir	-140
▁R	-141
▁हो	-142
""	-143
वा	-144
el	-145
et	-146
▁वि	-147
ut	-148
ाम	-149
▁H	-150
▁थ	-151
▁फ	-152
ce	-153
ति	-154
ेश	-155
▁जा	-156
▁सं	-157
▁स्	-158
के	-159
ते	-160
ड़	-161
▁D	-162
▁ख	-163
us	-164
ra	-165
ill	-166
▁लिए	-167
▁st	-168
ly	-169
ment	-170
ाज	-171
ig	-172
▁एक	-173
ch	-174
▁al	-175
ow	-176
ती	-177
▁he	-178
ला	-179
▁that	-180
से	-181
ंग	-182
हीं	-183
▁भी	-184
▁N	-185
▁G	-186
ले	-187
ak	-188
res	-189
▁K	-190
ith	-191
्या	-192
री	-193
ोग	-194
ri	-195
ist	-196
ul	-197
od	-198
▁सम	-199
रा	-200
सी	-201
▁wh	-202
un	-203
▁सा	-204
▁किया	-205
▁Ind	-206
▁नहीं	-207
▁बा	-208
ia	-209
and	-210
त्	-211
क्ष	-212
ers	-213
िस	-214
्ट	-215
▁y	-216
▁with	-217
▁as	-218
▁has	-219
▁अप	-220
नी	-221
▁was	-222
▁con	-223
▁pro	-224
▁de	-225
कार	-226
ate	-227
hi	-228
▁मु	-229
▁W	-230
▁ha	-231
▁an	-232
▁कहा	-233
कि	-234
का	-235
गा	-236
os	-237
ere	-238
▁यह	-239
▁are	-240
est	-241
▁नि	-242
▁ट	-243
▁at	-244
ंत्र	-245
her	-246
▁it	-247
th	-248
▁sa	-249
ab	-250
▁हु	-251
▁by	-252
▁will	-253
▁भार	-254
op	-255
▁se	-256
▁J	-257
▁हम	-258
ld	-259
्व	-260
कर	-261
ली	-262
ag	-263
ain	-264
्री	-265
ाय	-266
our	-267
्म	-268
▁ड	-269
▁v	-270
▁दे	-271
▁have	-272
ुल	-273
ुर	-274
art	-275
न्ह	-276
um	-277
▁करने	-278
ंद	-279
▁com	-280
pp	-281
rom	-282
if	-283
▁F	-284
ियों	-285
ice	-286
▁said	-287
▁उन	-288
▁गया	-289
ां	-290
की	-291
▁from	-292
ाह	-293
▁अध	-294
▁not	-295
ort	-296
▁कार	-297
ity	-298
ies	-299
▁ले	-300
▁L	-301
▁उन्ह	-302
nt	-303
▁राज	-304
ारी	-305
ha	-306
em	-307
▁पह	-308
ess	-309
▁था	-310
▁अन	-311
▁रह	-312
ास	-313
ैं	-314
so	-315
ac	-316
▁जो	-317
▁उस	-318
▁साथ	-319
▁su	-320
▁India	-321
▁ही	-322
▁E	-323
▁ex	-324
pe	-325
iv	-326
ud	-327
▁this	-328
▁""	-329
दी	-330
मा	-331
▁u	-332
ant	-333
्‍	-334
ht	-335
रे	-336
▁O	-337
▁U	-338
▁सि	-339
▁ne	-340
ive	-341
सा	-342
िन	-343
ष्ट	-344
▁r	-345
ction	-346
ong	-347
दा	-348
se	-349
▁घ	-350
▁तो	-351
ore	-352
ister	-353
ारा	-354
देश	-355
har	-356
ंत्री	-357
▁or	-358
ial	-359
▁या	-360
ुम	-361
qu	-362
▁also	-363
ure	-364
भा	-365
▁लोग	-366
▁Min	-367
ल्	-368
▁been	-369
ंड	-370
▁पू	-371
▁le	-372
ोंने	-373
▁go	-374
िव	-375
▁भारत	-376
द्	-377
ard	-378
cc	-379
िला	-380
▁you	-381
▁सु	-382
िर	-383
ओं	-384
्ष	-385
▁दो	-386
स्त	-387
▁his	-388
्रे	-389
तर	-390
गी	-391
ust	-392
ry	-393
था	-394
▁k	-395
▁सक	-396
गे	-397
पी	-398
▁sh	-399
all	-400
▁He	-401
▁In	-402
ian	-403
ould	-404
▁दिया	-405
▁वाल	-406
भी	-407
han	-408
में	-409
▁सर	-410
oc	-411
▁सी	-412
▁रा	-413
्त	-414
स्ट	-415
▁उप	-416
ress	-417
वि	-418
▁उन्होंने	-419
▁।	-420
▁were	-421
ोज	-422
च्	-423
ther	-424
ढ़	-425
▁wor	-426
▁-	-427
▁pol	-428
धान	-429
ेल	-430
▁अपने	-431
टी	-432
are	-433
▁वह	-434
ap	-435
▁ध	-436
vern	-437
▁V	-438
▁ag	-439
▁all	-440
ारे	-441
ast	-442
ated	-443
जी	-444
▁we	-445
ident	-446
▁'	-447
▁मह	-448
ंच	-449
ef	-450
▁Th	-451
▁Minister	-452
ric	-453
▁inc	-454
ime	-455
▁बाद	-456
ok	-457
रो	-458
▁सरकार	-459
▁आप	-460
▁छ	-461
ary	-462
वी	-463
ep	-464
▁pl	-465
▁अधिक	-466
▁तक	-467
▁रहे	-468
▁पा	-469
▁ला	-470
पा	-471
ंध	-472
▁कु	-473
ire	-474
▁बी	-475
नों	-476
ge	-477
▁had	-478
िश	-479
ous	-480
▁दी	-481
ff	-482
▁हुए	-483
▁पुल	-484
▁their	-485
ind	-486
▁प्रति	-487
▁Ra	-488
vernment	-489
ight	-490
ich	-491
ेट	-492
ome	-493
ूप	-494
▁ऐ	-495
ount	-496
ost	-497
जा	-498
rou	-499
ase	-500
▁पुलिस	-501
▁ad	-502
▁res	-503
▁गई	-504
ार्	-505
▁per	-506
▁थी	-507
▁चु	-508
ये	-509
▁Pr	-510
▁थे	-511
ौर	-512
▁j	-513
li	-514
▁me	-515
ear	-516
▁"	-517
▁वे	-518
▁मो	-519
गर	-520
nder	-521
▁ab	-522
▁comp	-523
▁who	-524
▁माम	-525
▁which	-526
▁जिस	-527
age	-528
▁मे	-529
▁part	-530
ीन	-531
te	-532
ik	-533
▁मा	-534
one	-535
port	-536
ew	-537
▁pe	-538
▁Ch	-539
▁मौ	-540
▁off	-541
र्व	-542
▁मिल	-543
▁चाह	-544
मंत्री	-545
▁लोगों	-546
av	-547
▁विश	-548
▁जी	-549
▁they	-550
▁निर्	-551
▁क्ष	-552
▁बना	-553
▁देश	-554
ूर	-555
टर	-556
▁द्व	-557
▁them	-558
."	-559
▁St	-560
▁रहा	-561
▁im	-562
out	-563
ाना	-564
ानी	-565
▁can	-566
खा	-567
▁जाए	-568
ru	-569
▁जब	-570
ide	-571
ber	-572
ुप	-573
▁राज्य	-574
िम	-575
▁do	-576
ah	-577
तीय	-578
ell	-579
▁स्थ	-580
ect	-581
▁रूप	-582
▁कुछ	-583
ations	-584
ult	-585
ople	-586
▁up	-587
बंध	-588
▁‘	-589
को	-590
wo	-591
▁It	-592
क्र	-593
orm	-594
▁रही	-595
▁इन	-596
▁कोई	-597
▁करते	-598
ence	-599
og	-600
द्ध	-601
्रीय	-602
▁वर्	-603
▁Y	-604
ord	-605
बी	-606
du	-607
▁acc	-608
fter	-609
▁en	-610
ans	-611
▁मैं	-612
▁us	-613
एस	-614
▁whe	-615
▁un	-616
▁कार्य	-617
ition	-618
▁कम	-619
▁बात	-620
▁उत्	-621
▁सब	-622
▁अं	-623
vel	-624
▁फिल	-625
क्षा	-626
▁dis	-627
ance	-628
▁तर	-629
ue	-630
▁app	-631
▁other	-632
वर	-633
स्थ	-634
▁गए	-635
कों	-636
▁पी	-637
▁तुम	-638
वं	-639
ंह	-640
द्र	-641
▁बह	-642
बर	-643
ctor	-644
▁Al	-645
▁द्वारा	-646
ov	-647
ake	-648
▁Sing	-649
ile	-650
आई	-651
ical	-652
▁Indian	-653
मान	-654
ाइ	-655
per	-656
▁under	-657
▁people	-658
pl	-659
ूल	-660
क्त	-661
▁cont	-662
शन	-663
▁int	-664
pt	-665
▁अनु	-666
),	-667
ach	-668
▁विक	-669
▁man	-670
gh	-671
▁again	-672
▁इसके	-673
ाई	-674
▁उनके	-675
ays	-676
ational	-677
▁Singh	-678
very	-679
▁police	-680
▁out	-681
ेत्र	-682
र्ट	-683
▁its	-684
▁भारतीय	-685
योग	-686
▁हि	-687
ine	-688
▁पहले	-689
▁Rs	-690
▁सिंह	-691
िंग	-692
▁ar	-693
र्म	-694
▁sp	-695
▁मुख	-696
▁reg	-697
िका	-698
ank	-699
ish	-700
ंप	-701
hed	-702
्स	-703
ame	-704
▁राष्ट	-705
▁बता	-706
▁क्षेत्र	-707
▁श्री	-708
▁दिल	-709
ree	-710
किन	-711
ose	-712
▁te	-713
▁"""	-714
ack	-715
▁Sh	-716
▁किसी	-717
▁As	-718
▁one	-719
▁over	-720
ates	-721
च्च	-722
▁ऑ	-723
▁government	-724
▁साम	-725
धार	-726
चार	-727
ail	-728
▁This	-729
▁अपनी	-730
िप	-731
ूस	-732
ign	-733
डी	-734
ath	-735
ोक	-736
▁cl	-737
▁count	-738
हां	-739
iz	-740
▁बढ़	-741
▁अम	-742
ub	-743
▁ओ	-744
▁लेकिन	-745
ज़	-746
▁ये	-747
▁वाले	-748
▁तथा	-749
JP	-750
ब्	-751
mit	-752
ass	-753
me	-754
ाप	-755
ade	-756
▁रुप	-757
red	-758
ions	-759
▁so	-760
ang	-761
▁sc	-762
ुत	-763
िट	-764
able	-765
▁व्य	-766
▁फिल्म	-767
▁We	-768
ace	-769
▁state	-770
हर	-771
esh	-772
▁there	-773
ड़ी	-774
▁बे	-775
▁काम	-776
day	-777
▁एवं	-778
ड़ा	-779
▁जान	-780
▁against	-781
▁लगा	-782
ेंगे	-783
ater	-784
्यों	-785
▁work	-786
▁but	-787
▁ch	-788
▁fil	-789
▁होने	-790
ार्ट	-791
ens	-792
▁कै	-793
hief	-794
▁two	-795
ोट	-796
▁rec	-797
ोल	-798
्रेस	-799
एम	-800
form	-801
▁टी	-802
▁भा	-803
▁fir	-804
▁pres	-805
▁BJP	-806
▁am	-807
▁Del	-808
ib	-809
▁Go	-810
▁क्या	-811
▁कह	-812
▁tr	-813
वे	-814
▁after	-815
▁सभी	-816
▁any	-817
▁मंत्री	-818
▁हाल	-819
▁him	-820
्यू	-821
▁करना	-822
द्य	-823
▁about	-824
िज	-825
▁उन्हें	-826
erv	-827
▁Delhi	-828
▁प्रधान	-829
ious	-830
▁would	-831
▁Mod	-832
ted	-833
र्थ	-834
सर	-835
ुन	-836
ेर	-837
▁हुई	-838
▁रख	-839
▁खिला	-840
▁मामले	-841
बा	-842
▁new	-843
▁year	-844
▁सह	-845
्ली	-846
ष्	-847
con	-848
▁हुआ	-849
▁मुख्य	-850
▁no	-851
▁तरह	-852
ered	-853
▁अव	-854
▁qu	-855
वाल	-856
▁शाम	-857
ash	-858
ip	-859
now	-860
▁सू	-861
जे	-862
▁जै	-863
aw	-864
uring	-865
▁शुर	-866
▁सो	-867
old	-868
▁मोदी	-869
▁her	-870
iss	-871
च्छ	-872
we	-873
ings	-874
▁Un	-875
म्म	-876
▁lead	-877
▁अभ	-878
▁ev	-879
र्ज	-880
ourt	-881
▁मै	-882
ever	-883
▁case	-884
▁ro	-885
▁our	-886
ities	-887
▁inv	-888
▁समय	-889
▁dec	-890
ोड़	-891
ove	-892
▁Modi	-893
▁देख	-894
▁first	-895
oin	-896
erson	-897
▁बै	-898
▁दिन	-899
▁Wh	-900
lic	-901
्ल	-902
ंट	-903
वार	-904
▁min	-905
▁होगा	-906
▁लिया	-907
ket	-908
ूर्	-909
▁दिल्ली	-910
mer	-911
▁Cong	-912
्ञ	-913
▁time	-914
▁शामिल	-915
दान	-916
▁स्ट	-917
▁हर	-918
ृत	-919
▁Com	-920
यर	-921
ces	-922
▁your	-923
lud	-924
▁De	-925
▁All	-926
▁पहु	-927
▁कांग	-928
ual	-929
▁आई	-930
लों	-931
गत	-932
▁cent	-933
ड़े	-934
▁सकता	-935
▁प्रधानमंत्री	-936
▁दौर	-937
श्	-938
▁Congress	-939
▁चाहिए	-940
igh	-941
ild	-942
cted	-943
rit	-944
▁मान	-945
▁आय	-946
▁Raj	-947
ोजना	-948
मी	-949
tern	-950
aj	-951
धी	-952
▁कांग्रेस	-953
▁कई	-954
▁And	-955
▁pre	-956
न्न	-957
चा	-958
ंस	-959
..	-960
▁बहुत	-961
▁अन्य	-962
▁आरो	-963
▁spe	-964
oy	-965
ून	-966
ob	-967
▁ई	-968
▁किए	-969
▁फिर	-970
▁film	-971
▁offic	-972
▁बार	-973
▁बीच	-974
▁ना	-975
▁bet	-976
▁संबंध	-977
▁उसके	-978
▁country	-979
▁केंद	-980
▁रुपये	-981
▁दोनों	-982
▁ra	-983
ुख	-984
▁Se	-985
▁पि	-986
ook	-987
▁हू	-988
▁जाता	-989
istan	-990
दि	-991
velop	-992
ital	-993
ियम	-994
▁बताया	-995
▁cro	-996
▁An	-997
oll	-998
▁गु	-999
ced	-1000
ied	-1001
▁दौरान	-1002
▁lik	-1003
ents	-1004
man	-1005
▁prov	-1006
ालय	-1007
▁पूर्व	-1008
▁pr	-1009
एं	-1010
▁includ	-1011
▁dist	-1012
जू	-1013
ise	-1014
▁जन	-1015
दार	-1016
▁पास	-1017
▁वर्ष	-1018
▁जाने	-1019
ased	-1020
▁add	-1021
reat	-1022
▁क्र	-1023
▁should	-1024
▁दूस	-1025
▁खु	-1026
▁शिक	-1027
ite	-1028
जन	-1029
▁करता	-1030
▁being	-1031
▁more	-1032
▁सकते	-1033
▁मंत्र	-1034
▁ind	-1035
झे	-1036
rict	-1037
लय	-1038
ंक	-1039
▁bec	-1040
नाव	-1041
ren	-1042
▁बारे	-1043
cial	-1044
▁ता	-1045
hip	-1046
oun	-1047
ely	-1048
▁उनकी	-1049
ward	-1050
स्प	-1051
▁पहुंच	-1052
भाव	-1053
ram	-1054
amil	-1055
ged	-1056
vers	-1057
stit	-1058
▁कप	-1059
▁प्रदेश	-1060
▁पै	-1061
दर्	-1062
स्तान	-1063
ory	-1064
▁वा	-1065
्‍य	-1066
▁खिलाफ	-1067
▁know	-1068
▁Ar	-1069
ोर	-1070
क्ति	-1071
▁क्यों	-1072
ie	-1073
वन	-1074
णा	-1075
्यक्ष	-1076
▁नाम	-1077
▁tak	-1078
"""	-1079
▁बि	-1080
▁विकास	-1081
क्रम	-1082
ndra	-1083
ks	-1084
aus	-1085
▁न्या	-1086
▁शुरू	-1087
▁when	-1088
▁लग	-1089
▁Pak	-1090
ject	-1091
ai	-1092
फी	-1093
ग्र	-1094
ya	-1095
▁इं	-1096
tain	-1097
ोन	-1098
ife	-1099
▁On	-1100
▁into	-1101
act	-1102
▁राष्ट्र	-1103
▁Prime	-1104
स्‍	-1105
▁tra	-1106
▁सबसे	-1107
▁ele	-1108
▁rel	-1109
▁Pol	-1110
▁Su	-1111
▁made	-1112
▁person	-1113
▁सुर	-1114
ीड	-1115
ज्ञ	-1116
▁उसे	-1117
▁imp	-1118
पर	-1119
ood	-1120
िति	-1121
▁परिव	-1122
शी	-1123
र्स	-1124
emb	-1125
▁लि	-1126
पति	-1127
ाने	-1128
▁दि	-1129
दे	-1130
टना	-1131
▁जारी	-1132
ments	-1133
हत	-1134
▁such	-1135
▁mar	-1136
▁फै	-1137
ताओं	-1138
▁rem	-1139
oth	-1140
ma	-1141
प्र	-1142
▁जु	-1143
आर	-1144
म्	-1145
चित	-1146
cy	-1147
▁लेकर	-1148
त्व	-1149
चना	-1150
rib	-1151
▁नी	-1152
▁ज़	-1153
ound	-1154
arn	-1155
▁जर	-1156
▁mat	-1157
वाद	-1158
रण	-1159
eng	-1160
ाजपा	-1161
▁what	-1162
▁Man	-1163
▁जि	-1164
▁iss	-1165
▁these	-1166
क्स	-1167
urn	-1168
▁some	-1169
▁my	-1170
ूम	-1171
▁Pakistan	-1172
ेष	-1173
▁med	-1174
क्ट	-1175
▁चल	-1176
▁पाकि	-1177
▁स्व	-1178
▁comm	-1179
▁पार्ट	-1180
कारी	-1181
▁How	-1182
▁हा	-1183
▁होता	-1184
▁But	-1185
▁co	-1186
ral	-1187
▁गां	-1188
adesh	-1189
▁ठ	-1190
ution	-1191
ंब	-1192
▁कंप	-1193
▁टीम	-1194
▁इंड	-1195
▁बन	-1196
▁ac	-1197
ोध	-1198
▁cons	-1199
▁act	-1200
▁ass	-1201
▁att	-1202
oh	-1203
▁आज	-1204
▁कारण	-1205
ानों	-1206
▁परि	-1207
▁देने	-1208
▁Re	-1209
▁पु	-1210
▁जांच	-1211
ating	-1212
ana	-1213
der	-1214
▁only	-1215
सार	-1216
▁during	-1217
▁Chief	-1218
▁meet	-1219
ci	-1220
▁दर्ज	-1221
resident	-1222
▁भाजपा	-1223
वाई	-1224
ons	-1225
▁Shri	-1226
hen	-1227
eral	-1228
own	-1229
▁जाएगा	-1230
▁करें	-1231
्ड	-1232
amp	-1233
▁God	-1234
ission	-1235
ेड	-1236
ुक	-1237
▁There	-1238
med	-1239
्रा	-1240
ower	-1241
ctions	-1242
▁get	-1243
▁यु	-1244
▁Government	-1245
▁ter	-1246
▁चुनाव	-1247
▁बैं	-1248
ict	-1249
ेज	-1250
ween	-1251
▁Pro	-1252
fere	-1253
वास	-1254
▁झ	-1255
र्ड	-1256
▁report	-1257
▁if	-1258
rough	-1259
▁महिला	-1260
▁“	-1261
ोष	-1262
▁Police	-1263
▁between	-1264
used	-1265
▁सद	-1266
▁like	-1267
▁हूं	-1268
ोर्ट	-1269
▁New	-1270
ision	-1271
led	-1272
▁इससे	-1273
▁ph	-1274
▁They	-1275
▁need	-1276
fore	-1277
सभा	-1278
gan	-1279
▁वाली	-1280
्ह	-1281
▁invest	-1282
▁President	-1283
िये	-1284
▁करोड़	-1285
▁मंत्रालय	-1286
स्था	-1287
▁निक	-1288
ug	-1289
ting	-1290
▁than	-1291
▁supp	-1292
ised	-1293
▁अधिकार	-1294
नि	-1295
▁पार्टी	-1296
akh	-1297
les	-1298
▁ग्र	-1299
▁those	-1300
▁बद	-1301
▁far	-1302
ked	-1303
जर	-1304
▁अब	-1305
▁stud	-1306
▁three	-1307
▁आरोप	-1308
way	-1309
ध्य	-1310
▁डॉ	-1311
▁play	-1312
elf	-1313
शत	-1314
न्‍	-1315
▁fe	-1316
ैन	-1317
ोह	-1318
▁करे	-1319
alth	-1320
▁तीन	-1321
▁through	-1322
▁बैठ	-1323
ाली	-1324
▁ऐसा	-1325
▁अध्यक्ष	-1326
▁then	-1327
▁प्रा	-1328
ियां	-1329
▁स्वा	-1330
▁मुझे	-1331
istry	-1332
▁sub	-1333
▁अच्छ	-1334
ited	-1335
▁ट्र	-1336
▁develop	-1337
▁ent	-1338
▁while	-1339
▁साल	-1340
row	-1341
▁इसमें	-1342
त्म	-1343
ally	-1344
ured	-1345
माण	-1346
▁तै	-1347
करण	-1348
▁विध	-1349
ful	-1350
▁day	-1351
मत	-1352
▁State	-1353
ेंद्र	-1354
ors	-1355
▁हमारे	-1356
▁कॉ	-1357
ax	-1358
ific	-1359
▁एस	-1360
ont	-1361
▁अल	-1362
▁Ad	-1363
पूर्	-1364
umb	-1365
▁she	-1366
ret	-1367
▁यू	-1368
द्योग	-1369
ीस	-1370
▁वै	-1371
▁आधार	-1372
ats	-1373
ures	-1374
ck	-1375
umar	-1376
▁present	-1377
▁world	-1378
▁wom	-1379
्यादा	-1380
eh	-1381
▁हों	-1382
ीर	-1383
ुक्त	-1384
▁very	-1385
▁district	-1386
ved	-1387
मुख	-1388
तिक	-1389
▁em	-1390
▁योजना	-1391
▁पाकिस्तान	-1392
▁बच्च	-1393
▁बो	-1394
get	-1395
▁did	-1396
osp	-1397
ause	-1398
olog	-1399
▁mon	-1400
ेशन	-1401
▁giv	-1402
▁अपना	-1403
▁Khan	-1404
धिक	-1405
▁जिन	-1406
ष्ठ	-1407
▁सेवा	-1408
▁मुख्यमंत्री	-1409
▁किस	-1410
▁लोक	-1411
ases	-1412
▁crore	-1413
ची	-1414
vi	-1415
▁Pradesh	-1416
▁pos	-1417
ness	-1418
ियो	-1419
िकी	-1420
▁प्रतिशत	-1421
▁bl	-1422
ars	-1423
▁cap	-1424
ंत	-1425
▁fl	-1426
▁गिर	-1427
ुमार	-1428
▁समझ	-1429
▁dire	-1430
▁serv	-1431
▁official	-1432
दन	-1433
als	-1434
oor	-1435
cess	-1436
▁विश्व	-1437
ublic	-1438
▁विशेष	-1439
▁produ	-1440
भाग	-1441
▁ओर	-1442
ata	-1443
▁वित	-1444
▁तुम्ह	-1445
▁last	-1446
▁fin	-1447
ters	-1448
▁ऐसे	-1449
▁sec	-1450
▁जैसे	-1451
arli	-1452
▁hel	-1453
पूर्ण	-1454
▁set	-1455
▁मन	-1456
other	-1457
round	-1458
िता	-1459
▁how	-1460
▁Ma	-1461
▁famil	-1462
▁इसे	-1463
▁गो	-1464
end	-1465
पुर	-1466
▁प्रश	-1467
,""	-1468
pect	-1469
हम	-1470
▁So	-1471
ूत	-1472
ph	-1473
▁बु	-1474
दों	-1475
▁एन	-1476
टा	-1477
▁take	-1478
hes	-1479
ollow	-1480
▁लाख	-1481
ative	-1482
▁where	-1483
ft	-1484
▁पिछ	-1485
▁अमेर	-1486
▁यहां	-1487
ix	-1488
▁घटना	-1489
▁मौत	-1490
ible	-1491
▁इस्	-1492
▁Kumar	-1493
▁inform	-1494
▁minister	-1495
arendra	-1496
▁En	-1497
▁ऊ	-1498
यी	-1499
▁हमें	-1500
▁Gand	-1501
▁आर	-1502
▁good	-1503
▁here	-1504
धा	-1505
ाप्त	-1506
▁well	-1507
▁:	-1508
▁today	-1509
▁accused	-1510
▁टे	-1511
ati	-1512
▁ली	-1513
एल	-1514
▁Narendra	-1515
▁होगी	-1516
वल	-1517
▁मार्	-1518
लाह	-1519
ीय	-1520
▁dif	-1521
ran	-1522
▁Bh	-1523
▁ऑफ	-1524
स्ता	-1525
▁अग	-1526
▁call	-1527
▁soc	-1528
▁अभी	-1529
▁अंतर	-1530
▁start	-1531
ांकि	-1532
▁say	-1533
oint	-1534
ility	-1535
▁Allah	-1536
▁every	-1537
ues	-1538
rest	-1539
सं	-1540
▁Cent	-1541
▁राष्ट्रीय	-1542
up	-1543
▁जबकि	-1544
ुनिया	-1545
▁taken	-1546
und	-1547
म्मी	-1548
त्रा	-1549
▁सच	-1550
).	-1551
▁&	-1552
▁see	-1553
▁राह	-1554
▁eff	-1555
wn	-1556
▁court	-1557
▁many	-1558
ices	-1559
ble	-1560
▁सुरक्षा	-1561
▁”	-1562
वर्	-1563
▁हालांकि	-1564
▁years	-1565
ैंड	-1566
▁सुन	-1567
▁For	-1568
uth	-1569
xt	-1570
▁पं	-1571
ospital	-1572
▁अला	-1573
▁राष्ट्रपति	-1574
ink	-1575
air	-1576
▁दा	-1577
ss	-1578
▁dem	-1579
ven	-1580
▁आए	-1581
▁inj	-1582
ody	-1583
ural	-1584
▁क्योंकि	-1585
▁उम्मी	-1586
▁विभ	-1587
▁उठ	-1588
▁help	-1589
▁अगर	-1590
▁team	-1591
ries	-1592
▁chan	-1593
श्य	-1594
ool	-1595
▁प्रमुख	-1596
▁Comm	-1597
ख्या	-1598
▁काफी	-1599
▁may	-1600
▁loc	-1601
▁party	-1602
uk	-1603
▁US	-1604
▁Gandhi	-1605
▁कुमार	-1606
▁Shar	-1607
▁incident	-1608
▁exp	-1609
min	-1610
▁शिक्ष	-1611
▁जिसमें	-1612
▁post	-1613
▁She	-1614
▁उम्मीद	-1615
eep	-1616
▁Court	-1617
▁अलावा	-1618
ey	-1619
▁नई	-1620
ants	-1621
▁des	-1622
एन	-1623
ism	-1624
▁Ministry	-1625
▁मद	-1626
▁trans	-1627
▁बैंक	-1628
▁num	-1629
▁child	-1630
ताल	-1631
▁la	-1632
▁You	-1633
▁Gu	-1634
▁खान	-1635
यन	-1636
tend	-1637
ियन	-1638
▁before	-1639
▁Sha	-1640
▁ser	-1641
हार	-1642
ather	-1643
."""	-1644
ided	-1645
लिए	-1646
फ्त	-1647
▁ann	-1648
▁ख़	-1649
▁National	-1650
▁तैय	-1651
▁पद	-1652
▁केंद्र	-1653
धि	-1654
▁मौजू	-1655
▁var	-1656
ning	-1657
क्षण	-1658
▁गांधी	-1659
▁Ex	-1660
▁ज्यादा	-1661
▁could	-1662
cond	-1663
▁घर	-1664
▁ची	-1665
ared	-1666
▁life	-1667
ांच	-1668
ायर	-1669
ives	-1670
▁right	-1671
न्द	-1672
▁छा	-1673
एफ	-1674
▁स्प	-1675
▁महा	-1676
▁कार्यक्रम	-1677
श्म	-1678
▁दु	-1679
्यालय	-1680
▁जानकारी	-1681
▁rep	-1682
▁shall	-1683
▁Is	-1684
▁होती	-1685
▁मांग	-1686
वेश	-1687
ond	-1688
लो	-1689
▁कृ	-1690
▁तहत	-1691
The	-1692
ेंट	-1693
chn	-1694
▁डी	-1695
▁Union	-1696
इन	-1697
▁occ	-1698
aking	-1699
बाज	-1700
▁make	-1701
▁just	-1702
▁sy	-1703
▁न्याया	-1704
uss	-1705
▁सदस	-1706
▁vis	-1707
▁फैस	-1708
its	-1709
▁पिछले	-1710
क्‍	-1711
▁ब्र	-1712
▁PM	-1713
▁उसकी	-1714
▁arrest	-1715
▁करेंगे	-1716
▁vi	-1717
▁chief	-1718
ty	-1719
▁आगे	-1720
▁.	-1721
ुदा	-1722
▁व्या	-1723
▁cur	-1724
ular	-1725
▁उपल	-1726
▁वहीं	-1727
▁नेता	-1728
▁follow	-1729
िले	-1730
▁def	-1731
▁ob	-1732
▁number	-1733
mir	-1734
▁Pun	-1735
▁प्रदर्	-1736
▁मदद	-1737
▁बैठक	-1738
▁cor	-1739
▁However	-1740
▁meeting	-1741
तों	-1742
ght	-1743
▁परिवार	-1744
▁हिस्	-1745
ms	-1746
▁बल्	-1747
▁डि	-1748
▁दर	-1749
rol	-1750
▁पुर	-1751
▁खा	-1752
▁पूरी	-1753
ार्थ	-1754
▁happ	-1755
िन्न	-1756
▁hand	-1757
र्ष	-1758
▁स्क	-1759
▁चे	-1760
▁high	-1761
▁कान	-1762
conom	-1763
ivers	-1764
att	-1765
त्य	-1766
▁regist	-1767
▁col	-1768
▁रो	-1769
kar	-1770
▁disc	-1771
ics	-1772
▁बनाने	-1773
▁come	-1774
ाया	-1775
ouse	-1776
▁including	-1777
णी	-1778
▁अनुसार	-1779
ंबर	-1780
▁family	-1781
▁sha	-1782
uc	-1783
▁four	-1784
पाल	-1785
▁मूल	-1786
▁Ram	-1787
▁भाग	-1788
▁car	-1789
▁पर्	-1790
▁खेल	-1791
ember	-1792
▁even	-1793
▁अस्प	-1794
▁अधिकारी	-1795
▁incre	-1796
▁सम्म	-1797
▁prog	-1798
▁Act	-1799
▁Sec	-1800
बाद	-1801
▁इंडिया	-1802
▁नर	-1803
▁Mar	-1804
▁av	-1805
read	-1806
▁आयोज	-1807
त्या	-1808
▁sm	-1809
▁Tr	-1810
▁most	-1811
cer	-1812
ाला	-1813
▁उत्तर	-1814
्ला	-1815
pur	-1816
ines	-1817
ताब	-1818
▁lakh	-1819
ेन	-1820
▁back	-1821
▁विभाग	-1822
▁pass	-1823
▁इसका	-1824
▁निय	-1825
▁कंपनी	-1826
▁हमने	-1827
▁अस	-1828
▁घोष	-1829
तम	-1830
ave	-1831
▁बॉ	-1832
रि	-1833
▁import	-1834
▁भूम	-1835
▁चौ	-1836
eneral	-1837
कृत	-1838
▁इसलिए	-1839
इट	-1840
क्टर	-1841
▁उनका	-1842
cept	-1843
▁तब	-1844
ior	-1845
▁given	-1846
▁मैच	-1847
▁compan	-1848
amm	-1849
▁एम	-1850
▁br	-1851
तन	-1852
▁month	-1853
▁char	-1854
▁op	-1855
▁योग	-1856
rent	-1857
▁Kap	-1858
stem	-1859
▁Kash	-1860
▁sit	-1861
▁rele	-1862
लि	-1863
▁परी	-1864
▁both	-1865
▁चार	-1866
▁support	-1867
▁Am	-1868
▁व्यक्ति	-1869
तार	-1870
ee	-1871
▁आव	-1872
तु	-1873
▁inter	-1874
▁सीट	-1875
▁Sab	-1876
▁दूसरे	-1877
▁kill	-1878
▁law	-1879
▁स्‍	-1880
फ़	-1881
▁अर	-1882
▁सकती	-1883
riv	-1884
▁शर्	-1885
▁down	-1886
▁bu	-1887
ute	-1888
▁विचार	-1889
com	-1890
ियर	-1891
▁cases	-1892
ists	-1893
▁बेह	-1894
ूट	-1895
▁प्रो	-1896
▁प्राप्त	-1897
▁among	-1898
▁inf	-1899
▁ret	-1900
न्द्र	-1901
।"	-1902
▁fac	-1903
फल	-1904
ides	-1905
ush	-1906
ways	-1907
urity	-1908
▁gu	-1909
▁शु	-1910
▁उपलब्	-1911
▁केंद्रीय	-1912
ेंस	-1913
▁Me	-1914
▁मत	-1915
ploy	-1916
ror	-1917
ording	-1918
▁मिले	-1919
▁तैयार	-1920
▁कुल	-1921
▁What	-1922
यान	-1923
शल	-1924
▁Kashmir	-1925
▁रिप	-1926
▁Te	-1927
▁appro	-1928
BI	-1929
श्च	-1930
▁opp	-1931
प्	-1932
ple	-1933
▁मेरे	-1934
र्क	-1935
दारी	-1936
शा	-1937
▁अभि	-1938
ince	-1939
▁ben	-1940
▁गिरफ्त	-1941
▁sent	-1942
roup	-1943
ामी	-1944
▁तौर	-1945
▁सूचना	-1946
▁दिखा	-1947
▁hospital	-1948
▁run	-1949
chool	-1950
▁संग	-1951
▁ढ	-1952
▁कल	-1953
▁अल्	-1954
जब	-1955
▁जीत	-1956
▁विदेश	-1957
िकेट	-1958
▁Shah	-1959
▁जहां	-1960
▁स्थिति	-1961
▁show	-1962
jab	-1963
▁उसने	-1964
▁polit	-1965
▁registered	-1966
ंगे	-1967
asht	-1968
▁investig	-1969
▁करी	-1970
श्मीर	-1971
▁contin	-1972
▁रेल	-1973
टन	-1974
ges	-1975
▁आत	-1976
tt	-1977
▁दुनिया	-1978
▁resp	-1979
▁conf	-1980
यास	-1981
▁जीवन	-1982
▁place	-1983
▁पत्र	-1984
▁आने	-1985
na	-1986
▁लड़	-1987
▁water	-1988
ament	-1989
▁requ	-1990
▁संख्या	-1991
▁मामला	-1992
ोवा	-1993
▁Ass	-1994
▁dep	-1995
ूरत	-1996
retary	-1997
बल	-1998
▁partic	-1999
▁उत्पा	-2000
▁दिए	-2001
▁beli	-2002
pend	-2003
▁former	-2004
umbai	-2005
▁संय	-2006
▁मीड	-2007
▁याद	-2008
मेश	-2009
iness	-2010
चे	-2011
ency	-2012
▁पहली	-2013
▁end	-2014
▁अस्पताल	-2015
▁Con	-2016
▁उच्च	-2017
▁प्रभाव	-2018
ina	-2019
▁differe	-2020
ins	-2021
uch	-2022
ज्ञान	-2023
▁Res	-2024
ternational	-2025
▁अवसर	-2026
▁सर्व	-2027
▁लिये	-2028
▁death	-2029
▁शाह	-2030
▁ref	-2031
▁organ	-2032
▁राम	-2033
andid	-2034
स्थ्य	-2035
िश्	-2036
दम	-2037
▁शा	-2038
▁Punjab	-2039
▁पो	-2040
▁rece	-2041
▁विभिन्न	-2042
▁Hind	-2043
▁second	-2044
▁Bank	-2045
▁अलग	-2046
embers	-2047
▁bus	-2048
▁मीडिया	-2049
king	-2050
गार	-2051
▁उपयोग	-2052
धन	-2053
▁नए	-2054
▁शे	-2055
▁lar	-2056
रिक	-2057
▁Sabha	-2058
▁attack	-2059
▁प्रदान	-2060
oard	-2061
ired	-2062
▁सामने	-2063
ified	-2064
...	-2065
▁मौके	-2066
▁आम	-2067
▁लॉ	-2068
▁पार	-2069
▁उपलब्ध	-2070
▁held	-2071
▁way	-2072
▁cr	-2073
▁प्रकार	-2074
▁पूरा	-2075
वान	-2076
▁result	-2077
▁sign	-2078
▁ed	-2079
▁आस	-2080
▁Wor	-2081
rong	-2082
ासन	-2083
▁ins	-2084
▁Mumbai	-2085
▁power	-2086
▁each	-2087
osed	-2088
▁होंगे	-2089
▁form	-2090
ale	-2091
▁पेश	-2092
▁रिपोर्ट	-2093
▁स्वास्थ्य	-2094
▁जल	-2095
▁बंद	-2096
ंबई	-2097
▁sur	-2098
▁व्यव	-2099
▁देशों	-2100
▁पंजा	-2101
▁laun	-2102
ायल	-2103
war	-2104
हाय	-2105
▁development	-2106
्वी	-2107
▁सहयोग	-2108
▁want	-2109
ued	-2110
ology	-2111
▁Z	-2112
▁जाना	-2113
▁women	-2114
pr	-2115
ूह	-2116
▁वाला	-2117
▁इसी	-2118
▁cre	-2119
रल	-2120
▁कीमत	-2121
▁बड़ी	-2122
▁Sharma	-2123
श्यक	-2124
urther	-2125
▁leaders	-2126
▁look	-2127
▁arrested	-2128
▁project	-2129
स्थान	-2130
मेंट	-2131
▁आपको	-2132
▁does	-2133
▁health	-2134
▁mov	-2135
▁फीस	-2136
wal	-2137
ेक	-2138
▁शिक्षा	-2139
▁महत्व	-2140
▁injured	-2141
ched	-2142
▁spot	-2143
ष्ट्र	-2144
▁now	-2145
▁same	-2146
▁इसकी	-2147
▁No	-2148
▁जग	-2149
▁Ab	-2150
▁केवल	-2151
▁प्रदर्शन	-2152
▁students	-2153
▁social	-2154
▁निर्माण	-2155
▁grow	-2156
▁पता	-2157
gest	-2158
▁कोर्ट	-2159
▁करती	-2160
▁cle	-2161
जय	-2162
▁alle	-2163
▁श्र	-2164
श्व	-2165
▁क्रिकेट	-2166
▁air	-2167
▁gl	-2168
▁[	-2169
▁prom	-2170
काश	-2171
▁public	-2172
▁यहोवा	-2173
▁हे	-2174
ention	-2175
▁avail	-2176
▁पांच	-2177
▁leader	-2178
▁media	-2179
त्रों	-2180
ashtra	-2181
▁Dep	-2182
ough	-2183
ull	-2184
▁शर्मा	-2185
aim	-2186
jay	-2187
ently	-2188
▁स्थित	-2189
▁president	-2190
वाह	-2191
ani	-2192
▁ear	-2193
▁अधिकारियों	-2194
माल	-2195
▁bro	-2196
▁आवश्यक	-2197
▁नरेंद्र	-2198
▁नजर	-2199
▁comple	-2200
▁econom	-2201
pre	-2202
▁Rah	-2203
▁aff	-2204
▁मौजूद	-2205
stru	-2206
▁found	-2207
जेपी	-2208
tal	-2209
र्फ	-2210
GB	-2211
क्रिया	-2212
▁यदि	-2213
▁जाती	-2214
▁exam	-2215
▁कभी	-2216
ाइल	-2217
▁long	-2218
ायत	-2219
au	-2220
ten	-2221
▁सौ	-2222
ेस	-2223
▁सहाय	-2224
▁विधान	-2225
▁‘‘	-2226
▁पंजाब	-2227
▁because	-2228
ages	-2229
▁matter	-2230
land	-2231
▁due	-2232
भव	-2233
▁भर	-2234
▁cond	-2235
▁occas	-2236
ल्ड	-2237
▁निर्देश	-2238
▁बाज	-2239
▁होते	-2240
▁His	-2241
▁days	-2242
az	-2243
ctors	-2244
▁गै	-2245
कृ	-2246
▁मुंबई	-2247
▁oper	-2248
artment	-2249
▁फ़	-2250
यू	-2251
हाँ	-2252
▁शहर	-2253
टक	-2254
outh	-2255
abad	-2256
जार	-2257
▁members	-2258
▁took	-2259
ne	-2260
iet	-2261
ts	-2262
ross	-2263
ote	-2264
पित	-2265
▁कर्म	-2266
▁Jeh	-2267
नाथ	-2268
▁स्तर	-2269
त्री	-2270
▁vill	-2271
▁own	-2272
mers	-2273
▁commit	-2274
▁आया	-2275
▁ते	-2276
▁अनुम	-2277
▁regard	-2278
eration	-2279
ock	-2280
▁सचिव	-2281
▁वो	-2282
ुद	-2283
▁various	-2284
▁children	-2285
▁’	-2286
▁system	-2287
▁सेना	-2288
▁समर्थ	-2289
ized	-2290
▁नौ	-2291
▁open	-2292
डा	-2293
लर	-2294
▁used	-2295
▁mod	-2296
ving	-2297
ling	-2298
▁अंत	-2299
▁डे	-2300
▁राजनी	-2301
्यान	-2302
▁process	-2303
▁उद्	-2304
▁Kapoor	-2305
ovah	-2306
▁मिला	-2307
▁सके	-2308
▁लाभ	-2309
▁व्याप	-2310
काल	-2311
▁आग	-2312
▁says	-2313
क़	-2314
वरी	-2315
▁current	-2316
हन	-2317
भार	-2318
ुट	-2319
▁Jehovah	-2320
▁बस	-2321
▁main	-2322
lim	-2323
ID	-2324
▁अद	-2325
▁चि	-2326
▁Bi	-2327
षा	-2328
ner	-2329
▁next	-2330
▁ऐसी	-2331
▁राहुल	-2332
▁along	-2333
▁अमेरिका	-2334
▁गिरफ्तार	-2335
कर्	-2336
ियोजना	-2337
▁नागर	-2338
▁adv	-2339
▁Mahar	-2340
▁कौ	-2341
▁मुद्	-2342
▁स्म	-2343
ration	-2344
▁order	-2345
▁दक्ष	-2346
wards	-2347
▁करो	-2348
▁बीजेपी	-2349
षण	-2350
▁प्रयास	-2351
▁कपूर	-2352
▁परियोजना	-2353
▁स्थान	-2354
▁told	-2355
▁If	-2356
▁Ag	-2357
ठन	-2358
imes	-2359
▁candid	-2360
▁Lord	-2361
▁occasion	-2362
▁tal	-2363
▁जवा	-2364
▁न्यायालय	-2365
▁शी	-2366
▁Dr	-2367
▁Pat	-2368
▁announ	-2369
▁अफ	-2370
बंधन	-2371
षि	-2372
▁दर्	-2373
ination	-2374
▁हमारी	-2375
▁Commission	-2376
enior	-2377
▁दिव	-2378
▁remain	-2379
ंगा	-2380
ves	-2381
यों	-2382
ष्‍	-2383
तंत्र	-2384
▁others	-2385
eth	-2386
मता	-2387
uation	-2388
▁won	-2389
▁पढ़	-2390
ature	-2391
डे	-2392
els	-2393
▁जाएगी	-2394
ived	-2395
▁too	-2396
ृह	-2397
▁fore	-2398
▁must	-2399
▁different	-2400
▁quest	-2401
▁माल	-2402
▁land	-2403
▁great	-2404
ग्रह	-2405
▁/	-2406
uthor	-2407
▁ve	-2408
rat	-2409
▁पड़	-2410
▁Acc	-2411
द्धि	-2412
▁मही	-2413
इस	-2414
जह	-2415
gy	-2416
oot	-2417
▁जल्	-2418
▁भे	-2419
▁मध्य	-2420
ajor	-2421
embly	-2422
ूरी	-2423
ished	-2424
▁बाहर	-2425
▁going	-2426
▁Rahul	-2427
▁bank	-2428
ायक	-2429
भग	-2430
▁न्यू	-2431
▁सदस्य	-2432
▁मामलों	-2433
▁writ	-2434
▁पूछ	-2435
▁sl	-2436
▁बर	-2437
▁बढ़ा	-2438
▁information	-2439
हरा	-2440
▁,	-2441
▁head	-2442
▁After	-2443
▁फोन	-2444
▁पत्	-2445
▁बड़ा	-2446
arat	-2447
riend	-2448
ुष	-2449
▁करके	-2450
वीर	-2451
mend	-2452
▁देते	-2453
▁न्याय	-2454
▁प्रक्रिया	-2455
▁गा	-2456
्ले	-2457
▁Cha	-2458
▁नागरिक	-2459
ality	-2460
▁क्षेत्रों	-2461
▁परमेश	-2462
ष्ट्रीय	-2463
▁Sa	-2464
▁उसका	-2465
▁terror	-2466
लिया	-2467
ालन	-2468
▁वीड	-2469
erest	-2470
▁जिसके	-2471
▁win	-2472
eld	-2473
▁बयान	-2474
▁वृ	-2475
ंका	-2476
▁अति	-2477
ias	-2478
ys	-2479
▁added	-2480
▁करेगा	-2481
▁det	-2482
▁चर्	-2483
▁चला	-2484
▁ताकि	-2485
▁कैसे	-2486
▁further	-2487
▁program	-2488
▁countries	-2489
ricket	-2490
ason	-2491
▁five	-2492
ttar	-2493
▁stand	-2494
ेंद	-2495
▁techn	-2496
▁High	-2497
श्चिम	-2498
nce	-2499
नल	-2500
▁around	-2501
▁est	-2502
ract	-2503
▁विरो	-2504
▁val	-2505
▁मैंने	-2506
तेमाल	-2507
▁ध्यान	-2508
▁आतंक	-2509
ffic	-2510
▁Le	-2511
ुआ	-2512
▁commun	-2513
▁गं	-2514
▁issue	-2515
▁At	-2516
▁started	-2517
▁Shi	-2518
illion	-2519
र्थिक	-2520
▁वजह	-2521
▁tem	-2522
▁जे	-2523
▁तरफ	-2524
▁संप	-2525
▁belie	-2526
▁रहने	-2527
ried	-2528
▁national	-2529
ात	-2530
▁Q	-2531
▁Eng	-2532
▁killed	-2533
CC	-2534
▁Jan	-2535
tee	-2536
▁Lok	-2537
▁pur	-2538
सम	-2539
▁राज्यों	-2540
▁Air	-2541
▁called	-2542
▁del	-2543
▁गयी	-2544
▁दक्षि	-2545
ांत	-2546
io	-2547
गू	-2548
▁पीएम	-2549
▁करीब	-2550
▁लगभग	-2551
▁लेने	-2552
ंदी	-2553
▁account	-2554
्‍वर	-2555
ned	-2556
▁security	-2557
▁Uttar	-2558
▁Chand	-2559
▁चीन	-2560
▁prev	-2561
▁फैसला	-2562
ec	-2563
▁संबंधित	-2564
▁प्रण	-2565
्प	-2566
▁vide	-2567
▁Part	-2568
▁जिले	-2569
▁important	-2570
▁अल्लाह	-2571
▁भूमिका	-2572
▁स्कूल	-2573
▁वीडियो	-2574
▁level	-2575
▁Cor	-2576
arh	-2577
mber	-2578
▁claim	-2579
▁उम्मीदवार	-2580
engal	-2581
ैल	-2582
ump	-2583
▁test	-2584
▁कार्र	-2585
▁fa	-2586
▁तेल	-2587
▁धारा	-2588
▁let	-2589
▁विधानसभा	-2590
मिक	-2591
ering	-2592
ached	-2593
▁होना	-2594
▁Maharashtra	-2595
▁market	-2596
▁seen	-2597
▁रोक	-2598
▁area	-2599
▁visit	-2600
िशा	-2601
oss	-2602
▁sever	-2603
रात	-2604
ilit	-2605
▁across	-2606
▁poss	-2607
▁रे	-2608
▁दूर	-2609
▁फर	-2610
▁body	-2611
तना	-2612
▁परीक्षा	-2613
▁आयोग	-2614
▁gr	-2615
por	-2616
बार	-2617
▁colle	-2618
▁संघ	-2619
▁group	-2620
▁निवेश	-2621
▁जगह	-2622
▁नियम	-2623
▁लिख	-2624
व्य	-2625
िक्ष	-2626
▁शेयर	-2627
▁reported	-2628
uman	-2629
▁स्था	-2630
ke	-2631
▁मिली	-2632
▁World	-2633
LA	-2634
▁सहित	-2635
▁give	-2636
ulture	-2637
arlier	-2638
▁आदेश	-2639
विड	-2640
▁much	-2641
▁action	-2642
my	-2643
▁महत्वपूर्ण	-2644
▁कार्रवाई	-2645
▁prop	-2646
▁Par	-2647
▁मं	-2648
▁बड़े	-2649
ल्प	-2650
▁respect	-2651
▁सीमा	-2652
ek	-2653
▁benef	-2654
iod	-2655
▁Mad	-2656
ield	-2657
▁आर्थिक	-2658
▁Bengal	-2659
▁पानी	-2660
▁decl	-2661
▁several	-2662
▁plan	-2663
to	-2664
▁इस्तेमाल	-2665
▁school	-2666
▁sche	-2667
▁दिनों	-2668
▁रखा	-2669
▁another	-2670
▁equ	-2671
ird	-2672
▁रक्षा	-2673
ele	-2674
▁कृषि	-2675
mi	-2676
▁आरोपी	-2677
ick	-2678
▁फीसदी	-2679
▁ख़	-2680
भीर	-2681
ुड	-2682
▁मिश	-2683
▁जिसे	-2684
▁कानून	-2685
ising	-2686
▁Guj	-2687
▁कोश	-2688
फा	-2689
▁पूर्	-2690
▁मृत	-2691
iversity	-2692
▁jud	-2693
▁Fin	-2694
ressed	-2695
म्मू	-2696
ll	-2697
arch	-2698
▁indust	-2699
▁available	-2700
▁सफल	-2701
▁home	-2702
▁succ	-2703
▁घायल	-2704
▁मजब	-2705
▁states	-2706
▁माध्य	-2707
▁use	-2708
द्यालय	-2709
▁demand	-2710
▁चुके	-2711
▁इला	-2712
▁interest	-2713
▁compl	-2714
▁Just	-2715
चान	-2716
agar	-2717
▁special	-2718
▁वरि	-2719
▁decision	-2720
▁आद	-2721
ala	-2722
▁read	-2723
▁major	-2724
▁San	-2725
▁जवाब	-2726
▁शिव	-2727
▁वित्त	-2728
▁अर्थ	-2729
शि	-2730
▁total	-2731
aid	-2732
ours	-2733
ammu	-2734
iti	-2735
▁सुवि	-2736
▁महारा	-2737
stitution	-2738
त्‍	-2739
ought	-2740
▁Secretary	-2741
▁उद्योग	-2742
▁रन	-2743
▁Mus	-2744
orth	-2745
िक्स	-2746
▁तरी	-2747
ंदर	-2748
ित्र	-2749
ession	-2750
▁yet	-2751
▁educ	-2752
▁che	-2753
▁दल	-2754
▁ext	-2755
▁बाजार	-2756
▁done	-2757
▁came	-2758
▁खे	-2759
▁टेस्ट	-2760
▁गति	-2761
▁One	-2762
▁पश्चिम	-2763
▁अहम	-2764
▁मुताब	-2765
▁condu	-2766
▁proble	-2767
▁रखने	-2768
▁हिस्सा	-2769
▁Central	-2770
▁छोड़	-2771
त्ता	-2772
▁हाथ	-2773
arliament	-2774
▁Pe	-2775
▁अदाल	-2776
्टी	-2777
▁कर्	-2778
▁खुद	-2779
ena	-2780
▁सिर्फ	-2781
▁बनाए	-2782
▁समूह	-2783
िनियम	-2784
airs	-2785
▁near	-2786
▁Jammu	-2787
▁विष	-2788
▁pay	-2789
▁Chr	-2790
▁जम्मू	-2791
▁जनता	-2792
▁asked	-2793
▁CO	-2794
▁बनाया	-2795
न्होंने	-2796
▁कश्मीर	-2797
▁मुताबिक	-2798
era	-2799
chan	-2800
▁lit	-2801
▁बच्चों	-2802
गढ़	-2803
▁house	-2804
र्च	-2805
तियों	-2806
icket	-2807
▁persons	-2808
▁period	-2809
ोस	-2810
▁लगाया	-2811
▁वहां	-2812
▁leg	-2813
▁अभिने	-2814
▁जिससे	-2815
▁परमेश्‍वर	-2816
त्मक	-2817
▁farmers	-2818
जों	-2819
सेना	-2820
▁Af	-2821
aryana	-2822
▁डाल	-2823
▁situation	-2824
▁बेट	-2825
▁away	-2826
▁हास	-2827
क्षित	-2828
▁बोर्ड	-2829
▁गृह	-2830
▁prot	-2831
बीआई	-2832
▁चाहते	-2833
ग्	-2834
▁गंभीर	-2835
▁Bihar	-2836
▁सामान	-2837
▁सुधार	-2838
▁खरी	-2839
▁Day	-2840
▁आयोजित	-2841
▁road	-2842
▁एज	-2843
▁रुपए	-2844
सल	-2845
▁exper	-2846
▁जाते	-2847
शु	-2848
▁areas	-2849
▁चर्चा	-2850
▁चुन	-2851
▁समा	-2852
हरी	-2853
atch	-2854
▁यात्रा	-2855
▁consid	-2856
▁States	-2857
▁पूरे	-2858
▁जरूरत	-2859
▁समिति	-2860
ॉल	-2861
▁Haryana	-2862
▁best	-2863
▁बिल	-2864
रों	-2865
▁अधिनियम	-2866
bs	-2867
स्थित	-2868
▁मेरी	-2869
▁ट्रे	-2870
▁role	-2871
िस्ट	-2872
▁big	-2873
▁सार	-2874
▁धन	-2875
▁बंग	-2876
▁political	-2877
rate	-2878
▁मार	-2879
▁bas	-2880
▁later	-2881
▁When	-2882
▁train	-2883
▁संयुक्त	-2884
oney	-2885
ept	-2886
▁discuss	-2887
▁MP	-2888
▁देता	-2889
िरा	-2890
िटी	-2891
▁officials	-2892
हास	-2893
▁सुविधा	-2894
▁समर्थन	-2895
▁complain	-2896
▁थीं	-2897
झा	-2898
मे	-2899
▁sk	-2900
irl	-2901
uty	-2902
ील	-2903
▁गुज	-2904
ष्‍ट	-2905
▁वरिष्ठ	-2906
▁son	-2907
▁list	-2908
▁think	-2909
▁हासिल	-2910
▁Gujarat	-2911
▁एयर	-2912
▁अच्छा	-2913
▁West	-2914
▁since	-2915
▁शिकायत	-2916
▁ens	-2917
▁point	-2918
▁elections	-2919
▁पक्ष	-2920
▁महाराष्ट्र	-2921
▁become	-2922
स्या	-2923
ेट्र	-2924
ready	-2925
ंभ	-2926
▁वाप	-2927
ience	-2928
▁सांस	-2929
▁कदम	-2930
▁लिखा	-2931
▁company	-2932
वरण	-2933
हाल	-2934
▁hig	-2935
▁दौ	-2936
▁क़	-2937
▁रस	-2938
▁लागू	-2939
▁city	-2940
ames	-2941
▁return	-2942
भर	-2943
▁allow	-2944
▁तुम्हारे	-2945
▁अदालत	-2946
वादी	-2947
▁स्वी	-2948
▁Spe	-2949
stand	-2950
▁दक्षिण	-2951
र्जी	-2952
ानि	-2953
lement	-2954
▁कहना	-2955
▁संस	-2956
ption	-2957
▁वायर	-2958
itiz	-2959
▁बल्कि	-2960
▁पोस्ट	-2961
▁लक्ष	-2962
▁Test	-2963
उन	-2964
▁धर्म	-2965
soci	-2966
cl	-2967
िम्म	-2968
प्री	-2969
▁डा	-2970
preme	-2971
▁success	-2972
cent	-2973
▁concer	-2974
ियान	-2975
▁जल्द	-2976
▁employ	-2977
▁जिला	-2978
ually	-2979
▁happen	-2980
▁दृ	-2981
ST	-2982
▁attend	-2983
▁name	-2984
▁Dire	-2985
▁top	-2986
▁Develop	-2987
▁बज	-2988
ियाणा	-2989
▁particip	-2990
▁fr	-2991
▁संभाव	-2992
▁already	-2993
▁record	-2994
कट	-2995
सत	-2996
▁दें	-2997
▁book	-2998
ांस	-2999
ources	-3000
▁put	-3001
▁किसानों	-3002
ीक	-3003
▁Sc	-3004
▁never	-3005
्तान	-3006
▁Amit	-3007
▁रोज	-3008
▁ident	-3009
▁Im	-3010
wood	-3011
धिकार	-3012
टे	-3013
▁फ्र	-3014
▁met	-3015
▁keep	-3016
▁things	-3017
▁लोकसभा	-3018
▁इंटर	-3019
▁घोषणा	-3020
ports	-3021
िवार	-3022
▁China	-3023
▁IP	-3024
▁These	-3025
ण्ड	-3026
▁soon	-3027
▁नीति	-3028
view	-3029
self	-3030
▁Pl	-3031
▁vict	-3032
▁रण	-3033
not	-3034
▁cer	-3035
▁activ	-3036
▁सरकारी	-3037
▁got	-3038
icle	-3039
▁seats	-3040
ging	-3041
▁कोशिश	-3042
▁sector	-3043
▁सहायता	-3044
क्ता	-3045
▁समस्या	-3046
▁sim	-3047
▁price	-3048
▁महीने	-3049
▁rest	-3050
▁माध्यम	-3051
▁अप्र	-3052
तिम	-3053
▁turn	-3054
▁build	-3055
र्गत	-3056
▁हत्या	-3057
ortun	-3058
▁six	-3059
▁view	-3060
oad	-3061
▁effect	-3062
▁few	-3063
ंडी	-3064
र्जा	-3065
▁May	-3066
मु	-3067
▁Aust	-3068
▁प्रकाश	-3069
▁friend	-3070
तरी	-3071
▁प्रौ	-3072
▁हरियाणा	-3073
▁heav	-3074
्क	-3075
rid	-3076
ष्टि	-3077
वुड	-3078
ruct	-3079
▁हजार	-3080
ॉन	-3081
▁video	-3082
line	-3083
▁ख़ुदा	-3084
▁बेहतर	-3085
राज	-3086
▁व्यक्त	-3087
cing	-3088
▁पिता	-3089
ets	-3090
देशक	-3091
▁pop	-3092
▁men	-3093
olly	-3094
▁Rail	-3095
▁condition	-3096
itness	-3097
stitut	-3098
बू	-3099
▁According	-3100
than	-3101
▁Development	-3102
्‍या	-3103
▁inde	-3104
▁gen	-3105
तिहास	-3106
▁senior	-3107
▁camp	-3108
▁alleged	-3109
icy	-3110
त्ति	-3111
ient	-3112
▁business	-3113
▁hold	-3114
▁सवाल	-3115
iving	-3116
▁अन्	-3117
▁cost	-3118
लाई	-3119
▁Supreme	-3120
▁बल	-3121
VID	-3122
▁कैम	-3123
बे	-3124
▁gre	-3125
▁पैदा	-3126
▁fun	-3127
▁tru	-3128
▁उल्	-3129
स्ताव	-3130
▁संब	-3131
augh	-3132
▁eng	-3133
▁Him	-3134
orts	-3135
मन	-3136
▁General	-3137
▁प्रौद्योग	-3138
▁X	-3139
wh	-3140
ांति	-3141
▁तम	-3142
▁Bhar	-3143
▁viol	-3144
▁Son	-3145
वेदन	-3146
lish	-3147
िश्चित	-3148
aug	-3149
▁बदल	-3150
▁समाज	-3151
obal	-3152
▁बिहार	-3153
▁move	-3154
▁यही	-3155
▁Sam	-3156
▁father	-3157
▁सड़	-3158
▁बचा	-3159
eal	-3160
▁provide	-3161
▁तीस	-3162
▁देखा	-3163
णाम	-3164
sel	-3165
▁spok	-3166
▁प्रस्ताव	-3167
▁Austral	-3168
काब	-3169
▁दूसरी	-3170
▁भेज	-3171
ately	-3172
▁To	-3173
▁गेंद	-3174
▁लगे	-3175
ेम	-3176
▁विरोध	-3177
▁पहचान	-3178
minist	-3179
▁गुजरात	-3180
▁तस्	-3181
▁सें	-3182
▁आपके	-3183
कल	-3184
▁event	-3185
▁wife	-3186
▁announced	-3187
▁village	-3188
▁news	-3189
र्ग	-3190
angu	-3191
▁कोविड	-3192
agement	-3193
▁Christ	-3194
ल्स	-3195
ense	-3196
▁बदला	-3197
▁South	-3198
▁चुकी	-3199
▁upon	-3200
▁युवा	-3201
▁pric	-3202
▁care	-3203
▁निर्ण	-3204
▁MLA	-3205
ंद्र	-3206
अप	-3207
▁perform	-3208
▁Indias	-3209
ference	-3210
नीय	-3211
▁statement	-3212
विद्यालय	-3213
urs	-3214
▁कहते	-3215
▁fire	-3216
वीं	-3217
▁based	-3218
▁क्षमता	-3219
ancial	-3220
▁treat	-3221
▁poll	-3222
कृति	-3223
▁उठा	-3224
एच	-3225
idence	-3226
▁सै	-3227
reng	-3228
▁cam	-3229
गल	-3230
▁region	-3231
▁without	-3232
▁मंद	-3233
cil	-3234
▁series	-3235
ंडल	-3236
▁died	-3237
▁COVID	-3238
▁Mal	-3239
eleb	-3240
▁एंड	-3241
▁गये	-3242
▁services	-3243
be	-3244
▁making	-3245
▁Shiv	-3246
ोप	-3247
▁यून	-3248
mitted	-3249
▁सम्मान	-3250
pected	-3251
▁संर	-3252
लीवुड	-3253
kh	-3254
ises	-3255
▁Ran	-3256
▁गल	-3257
▁toget	-3258
▁together	-3259
ांड	-3260
▁investigation	-3261
▁उनसे	-3262
▁pet	-3263
▁Med	-3264
▁author	-3265
▁sol	-3266
ury	-3267
▁Home	-3268
▁question	-3269
विष	-3270
▁मार्ग	-3271
ily	-3272
▁विप	-3273
▁प्रयोग	-3274
▁reached	-3275
▁भाई	-3276
itional	-3277
स्ट्रे	-3278
▁परिणाम	-3279
न्हें	-3280
ollywood	-3281
स्तव	-3282
ूर्ति	-3283
▁launched	-3284
▁bel	-3285
स्कार	-3286
▁bring	-3287
िकल	-3288
aka	-3289
asthan	-3290
▁ट्वी	-3291
▁अच्छी	-3292
ined	-3293
तरा	-3294
iety	-3295
▁सोशल	-3296
▁मी	-3297
▁ठीक	-3298
▁वृद्धि	-3299
ेशा	-3300
ger	-3301
▁पुन	-3302
▁inst	-3303
▁पर्या	-3304
शोध	-3305
mon	-3306
▁कंपन	-3307
▁पीछ	-3308
▁शुरुआ	-3309
पन	-3310
▁clear	-3311
▁impro	-3312
▁गांव	-3313
मर	-3314
irus	-3315
▁भारी	-3316
ivil	-3317
▁सैन	-3318
▁hist	-3319
▁सही	-3320
▁prof	-3321
चन	-3322
▁Department	-3323
▁earth	-3324
inder	-3325
▁art	-3326
ग्री	-3327
▁वेब	-3328
▁अमेरिकी	-3329
ork	-3330
▁देना	-3331
here	-3332
लू	-3333
hya	-3334
ेद	-3335
▁ur	-3336
itive	-3337
▁applic	-3338
▁relations	-3339
▁पट	-3340
▁Party	-3341
▁वाय	-3342
▁पे	-3343
▁एक्स	-3344
▁Ja	-3345
inal	-3346
▁रै	-3347
▁issued	-3348
▁भु	-3349
▁अतिरिक	-3350
▁streng	-3351
▁working	-3352
ners	-3353
▁गुर	-3354
▁वी	-3355
▁महिलाओं	-3356
▁बिना	-3357
▁आदि	-3358
ब्द	-3359
तृ	-3360
▁मुकाब	-3361
▁ट्वीट	-3362
▁priv	-3363
▁रि	-3364
▁received	-3365
ium	-3366
▁growth	-3367
▁व्यवस्था	-3368
ानीय	-3369
▁par	-3370
▁word	-3371
िम्मे	-3372
▁international	-3373
▁Col	-3374
▁सार्व	-3375
ones	-3376
thing	-3377
▁लगता	-3378
▁हूँ	-3379
▁heart	-3380
स्ट्रेलिया	-3381
▁cha	-3382
▁initi	-3383
▁better	-3384
ायी	-3385
▁tax	-3386
▁प्रशासन	-3387
▁उद	-3388
▁पत्नी	-3389
▁Sat	-3390
▁कोरो	-3391
SE	-3392
▁love	-3393
▁strong	-3394
une	-3395
▁रिक	-3396
सीसी	-3397
▁gra	-3398
▁हमले	-3399
▁मंदिर	-3400
▁known	-3401
▁fund	-3402
adav	-3403
वाले	-3404
▁निश	-3405
▁जय	-3406
▁Justice	-3407
▁dri	-3408
▁chall	-3409
ंसा	-3410
▁Rajasthan	-3411
▁भविष	-3412
arent	-3413
▁वन	-3414
ected	-3415
▁issues	-3416
▁field	-3417
iron	-3418
▁relig	-3419
▁एल	-3420
▁हमेशा	-3421
▁girl	-3422
▁still	-3423
▁bo	-3424
▁Do	-3425
▁find	-3426
▁चुका	-3427
cies	-3428
▁प्रौद्योगिकी	-3429
▁beg	-3430
ergy	-3431
par	-3432
▁Aff	-3433
शिया	-3434
▁बंगाल	-3435
▁कमी	-3436
▁खबर	-3437
चीत	-3438
▁उससे	-3439
▁उसी	-3440
नेट	-3441
▁plac	-3442
▁राजनीतिक	-3443
less	-3444
▁address	-3445
▁भाषा	-3446
ाजिक	-3447
gr	-3448
▁लगातार	-3449
▁stor	-3450
▁चिक	-3451
▁Sal	-3452
ches	-3453
▁Karn	-3454
▁That	-3455
▁celeb	-3456
ouncil	-3457
▁dev	-3458
▁Ele	-3459
खंड	-3460
▁सल	-3461
▁बने	-3462
app	-3463
▁अर्	-3464
▁Mr	-3465
▁cricket	-3466
▁पहला	-3467
सान	-3468
▁My	-3469
▁phone	-3470
रिया	-3471
▁informed	-3472
▁सिद्ध	-3473
▁respons	-3474
IC	-3475
मो	-3476
▁Red	-3477
▁include	-3478
ification	-3479
▁money	-3480
▁दिशा	-3481
▁times	-3482
एँ	-3483
शनल	-3484
▁Parliament	-3485
▁ईमान	-3486
▁बातचीत	-3487
▁अवधि	-3488
▁बिज	-3489
ari	-3490
▁cannot	-3491
▁sing	-3492
किंग	-3493
▁Mah	-3494
▁नियंत्र	-3495
▁ple	-3496
▁स्पष्ट	-3497
ंगल	-3498
▁food	-3499
ps	-3500
▁अगले	-3501
चल	-3502
▁वाह	-3503
साह	-3504
▁सुनिश्चित	-3505
▁third	-3506
▁Board	-3507
nel	-3508
▁Yadav	-3509
anka	-3510
▁ऊर्जा	-3511
▁war	-3512
▁प्रत्य	-3513
▁संगठन	-3514
ुओं	-3515
iance	-3516
ारोह	-3517
▁बाइ	-3518
िली	-3519
isation	-3520
चिका	-3521
▁हाई	-3522
▁रेलवे	-3523
▁समुद	-3524
▁CBI	-3525
ron	-3526
जनिक	-3527
▁भाव	-3528
▁मॉ	-3529
▁local	-3530
▁इनमें	-3531
▁large	-3532
▁towards	-3533
अल	-3534
▁नोट	-3535
▁woman	-3536
▁Or	-3537
▁human	-3538
▁Bang	-3539
▁education	-3540
▁beh	-3541
▁trad	-3542
▁implement	-3543
▁कोह	-3544
▁however	-3545
▁विषय	-3546
▁कोरोना	-3547
▁following	-3548
▁मजबूत	-3549
▁विमान	-3550
▁समारोह	-3551
▁prote	-3552
▁till	-3553
बाजी	-3554
र्ती	-3555
ential	-3556
▁rul	-3557
▁currently	-3558
उस	-3559
▁लाल	-3560
▁आधारित	-3561
ूब	-3562
▁सलाह	-3563
▁ज्ञ	-3564
▁किये	-3565
▁बल्ले	-3566
ali	-3567
▁Rep	-3568
सित	-3569
ार्म	-3570
amb	-3571
▁Director	-3572
SP	-3573
We	-3574
idd	-3575
▁brother	-3576
▁बॉलीवुड	-3577
▁शि	-3578
▁Centre	-3579
▁सामाजिक	-3580
▁भू	-3581
▁daugh	-3582
▁Bollywood	-3583
लब	-3584
▁तेज	-3585
▁join	-3586
▁Affairs	-3587
of	-3588
▁भविष्य	-3589
ences	-3590
ulation	-3591
▁आख	-3592
▁real	-3593
▁चाल	-3594
resent	-3595
▁lot	-3596
▁runs	-3597
▁cust	-3598
▁Health	-3599
MP	-3600
ार्ड	-3601
▁बच	-3602
ेलन	-3603
▁control	-3604
ically	-3605
तमान	-3606
▁चाहता	-3607
▁निजी	-3608
▁tre	-3609
▁विधायक	-3610
ाब	-3611
▁छोट	-3612
▁University	-3613
▁डॉलर	-3614
▁वास्तव	-3615
▁match	-3616
▁बाल	-3617
▁filed	-3618
फोन	-3619
ternal	-3620
ेंड	-3621
▁protest	-3622
न्म	-3623
राब	-3624
ेत	-3625
लाइन	-3626
और	-3627
▁निर्णय	-3628
▁स्थानीय	-3629
▁उद्देश	-3630
▁प्रतिनि	-3631
▁अंतिम	-3632
▁यादव	-3633
▁क्ल	-3634
▁movie	-3635
▁Mo	-3636
▁सार्वजनिक	-3637
▁saying	-3638
▁नगर	-3639
▁With	-3640
chie	-3641
▁छात्रों	-3642
चर	-3643
क्शन	-3644
▁ती	-3645
▁लौ	-3646
मैं	-3647
sh	-3648
reed	-3649
▁विस्त	-3650
▁deb	-3651
▁खास	-3652
▁div	-3653
▁कराया	-3654
▁याचिका	-3655
नर	-3656
▁हाद	-3657
▁week	-3658
▁comes	-3659
▁अभियान	-3660
▁data	-3661
▁वालों	-3662
▁taking	-3663
रीज	-3664
▁Koh	-3665
▁detail	-3666
▁Vi	-3667
▁class	-3668
ards	-3669
TI	-3670
▁प्रणाली	-3671
▁विद्य	-3672
rought	-3673
ructure	-3674
▁fut	-3675
▁Co	-3676
▁सुप्री	-3677
निर्	-3678
DI	-3679
▁actor	-3680
▁शव	-3681
विध	-3682
घा	-3683
▁dead	-3684
▁nation	-3685
पू	-3686
▁समझौ	-3687
▁Muslim	-3688
▁चुनौ	-3689
▁CM	-3690
▁saf	-3691
▁candidates	-3692
▁प्रभावित	-3693
ively	-3694
्ब	-3695
▁Dh	-3696
overed	-3697
▁Assembly	-3698
▁एफ	-3699
ians	-3700
▁संभावना	-3701
▁released	-3702
▁संस्	-3703
go	-3704
▁सामान्य	-3705
▁expl	-3706
ंख	-3707
कृतिक	-3708
▁व्यापार	-3709
▁भर्ती	-3710
▁तस्वीर	-3711
▁विश्वविद्यालय	-3712
▁product	-3713
▁समान	-3714
rying	-3715
▁Kh	-3716
▁within	-3717
▁Its	-3718
mar	-3719
पट	-3720
▁change	-3721
▁अतिरिक्त	-3722
ify	-3723
▁चिकित	-3724
▁Ph	-3725
▁increase	-3726
ilities	-3727
है	-3728
▁step	-3729
▁एड	-3730
▁हिंद	-3731
▁मना	-3732
▁केस	-3733
▁गठ	-3734
esus	-3735
▁पीछे	-3736
medi	-3737
▁veh	-3738
osition	-3739
▁विरा	-3740
▁peace	-3741
मित	-3742
rab	-3743
फ्	-3744
ड्ड	-3745
▁अपरा	-3746
▁तुल	-3747
ither	-3748
itizens	-3749
▁believe	-3750
▁opportun	-3751
▁राजस्थान	-3752
ibility	-3753
hav	-3754
▁करा	-3755
▁Vir	-3756
▁always	-3757
irit	-3758
ामीण	-3759
inet	-3760
फर	-3761
वें	-3762
मीन	-3763
▁service	-3764
▁ज़र	-3765
ourn	-3766
डल	-3767
▁विकेट	-3768
atives	-3769
▁कार्ड	-3770
ataka	-3771
सि	-3772
▁full	-3773
▁shared	-3774
▁small	-3775
adu	-3776
▁दुर्	-3777
▁general	-3778
सू	-3779
ara	-3780
aff	-3781
iqu	-3782
weet	-3783
▁मेरा	-3784
▁चरण	-3785
▁youn	-3786
▁invol	-3787
▁पस	-3788
शील	-3789
▁fight	-3790
▁विज्ञान	-3791
▁ru	-3792
▁वर्तमान	-3793
▁final	-3794
rial	-3795
oura	-3796
ब्ल	-3797
▁प्रशिक्ष	-3798
mes	-3799
▁मिलने	-3800
▁तला	-3801
▁पुरस्कार	-3802
▁साह	-3803
▁accident	-3804
put	-3805
▁Commit	-3806
▁achie	-3807
▁vot	-3808
aged	-3809
▁Kohli	-3810
▁Jesus	-3811
दीप	-3812
iding	-3813
ॉय	-3814
while	-3815
ained	-3816
▁कप्तान	-3817
ung	-3818
जल	-3819
▁वर्ग	-3820
तक	-3821
▁चा	-3822
part	-3823
▁तेजी	-3824
▁रसूल	-3825
▁proper	-3826
ौल	-3827
iver	-3828
तः	-3829
▁कोहली	-3830
▁मुला	-3831
pril	-3832
band	-3833
▁Ah	-3834
▁स्मार्ट	-3835
▁सित	-3836
किल	-3837
▁entire	-3838
▁नेताओं	-3839
▁office	-3840
▁शरी	-3841
▁deal	-3842
ड़ा	-3843
aring	-3844
▁बच्चे	-3845
▁फोट	-3846
▁संबोध	-3847
▁inn	-3848
▁वापस	-3849
IR	-3850
▁mother	-3851
ances	-3852
▁Karnataka	-3853
▁निभा	-3854
the	-3855
▁ग्रामीण	-3856
ples	-3857
over	-3858
▁provided	-3859
▁sus	-3860
ंज	-3861
selves	-3862
▁feat	-3863
▁सुप्रीम	-3864
ware	-3865
▁अंग	-3866
साइट	-3867
▁es	-3868
▁फिलहाल	-3869
orn	-3870
▁estab	-3871
▁पर्य	-3872
ोजन	-3873
▁complaint	-3874
▁प्रबंधन	-3875
▁Army	-3876
▁कौन	-3877
▁जिसका	-3878
▁गण	-3879
pan	-3880
▁उनमें	-3881
न्‍ह	-3882
ड़ी	-3883
▁मानव	-3884
▁earlier	-3885
▁crit	-3886
▁अमित	-3887
▁नया	-3888
▁left	-3889
▁redu	-3890
▁ज़	-3891
▁उत्पादन	-3892
मार	-3893
▁why	-3894
म्प	-3895
▁परिवर्	-3896
▁मोह	-3897
▁मि	-3898
▁financial	-3899
ka	-3900
▁Australia	-3901
बह	-3902
▁धो	-3903
▁वक्त	-3904
ियल	-3905
▁सांसद	-3906
▁camera	-3907
सन	-3908
irman	-3909
ट्ट	-3910
II	-3911
▁Kar	-3912
▁enc	-3913
▁संशोध	-3914
jee	-3915
▁एक्ट	-3916
ilar	-3917
पना	-3918
लैंड	-3919
▁constru	-3920
ointed	-3921
करी	-3922
लेख	-3923
▁नेतृ	-3924
राष्ट्रीय	-3925
▁मर	-3926
▁हमला	-3927
▁pati	-3928
pped	-3929
▁Cl	-3930
▁देव	-3931
meric	-3932
▁शै	-3933
▁ord	-3934
abinet	-3935
▁rate	-3936
▁आवश्यकता	-3937
rug	-3938
▁serious	-3939
▁certain	-3940
eb	-3941
▁मगर	-3942
▁मंजू	-3943
stitute	-3944
वासी	-3945
▁went	-3946
raft	-3947
▁श्रे	-3948
▁पेट्र	-3949
ultural	-3950
rast	-3951
नाटक	-3952
▁mess	-3953
▁brought	-3954
▁International	-3955
▁इल	-3956
wit	-3957
▁Our	-3958
▁decided	-3959
▁आध	-3960
▁बोल	-3961
▁मल	-3962
irth	-3963
▁spec	-3964
▁et	-3965
▁लॉन्	-3966
fic	-3967
▁वार	-3968
▁App	-3969
""."	-3970
▁sug	-3971
▁April	-3972
▁प्रत्येक	-3973
▁UP	-3974
▁ख़ुदा	-3975
▁date	-3976
men	-3977
aries	-3978
▁शीर्ष	-3979
गम	-3980
▁अप्रैल	-3981
▁जून	-3982
▁live	-3983
▁राय	-3984
▁परिष	-3985
▁""""	-3986
▁treatment	-3987
ंगी	-3988
▁free	-3989
▁accept	-3990
▁press	-3991
ope	-3992
▁Def	-3993
यह	-3994
▁जमा	-3995
▁Trump	-3996
▁दिवस	-3997
▁Council	-3998
▁तकनी	-3999
▁सूची	-4000
▁सड़क	-4001
▁मार्च	-4002
▁ri	-4003
resh	-4004
▁वही	-4005
यक	-4006
▁elect	-4007
▁पृ	-4008
र्न	-4009
▁front	-4010
aram	-4011
▁economic	-4012
त्त	-4013
▁i	-4014
▁Tamil	-4015
▁छो	-4016
▁bre	-4017
▁ब्ल	-4018
▁शांति	-4019
ability	-4020
▁contrib	-4021
▁election	-4022
ley	-4023
▁तुलना	-4024
▁गिरा	-4025
▁अली	-4026
▁Serv	-4027
बद्ध	-4028
▁understand	-4029
▁future	-4030
▁continue	-4031
▁som	-4032
▁prin	-4033
▁कारो	-4034
▁Ash	-4035
▁million	-4036
▁पाया	-4037
ेंसी	-4038
▁pri	-4039
▁global	-4040
uf	-4041
viron	-4042
▁तू	-4043
▁months	-4044
▁प्रव	-4045
▁आन	-4046
राह	-4047
▁संस्था	-4048
▁सामना	-4049
▁Committee	-4050
ॉप	-4051
▁feel	-4052
िद	-4053
amed	-4054
न्स	-4055
ban	-4056
▁आयोजन	-4057
▁ensure	-4058
▁विश्	-4059
▁देखते	-4060
क्‍त	-4061
▁त्र	-4062
esides	-4063
▁spirit	-4064
▁दावा	-4065
ti	-4066
▁langu	-4067
wan	-4068
▁Mon	-4069
rah	-4070
anwhile	-4071
▁विवाद	-4072
▁policy	-4073
▁मंजूरी	-4074
▁scheme	-4075
▁राशि	-4076
▁रिज	-4077
▁played	-4078
▁एच	-4079
ंदा	-4080
▁विकसित	-4081
▁सात	-4082
▁storage	-4083
▁निर्धार	-4084
AN	-4085
AM	-4086
▁गुण	-4087
▁शुरुआत	-4088
▁दिख	-4089
▁कंपनियों	-4090
▁Finance	-4091
▁कर्नाटक	-4092
▁dont	-4093
▁directed	-4094
▁old	-4095
alf	-4096
कात	-4097
▁विन	-4098
र्य	-4099
ize	-4100
▁Sm	-4101
ॉर्ड	-4102
▁करेगी	-4103
▁प्रत	-4104
vironment	-4105
ude	-4106
erala	-4107
▁अंक	-4108
ित्य	-4109
▁आरोपियों	-4110
▁Reg	-4111
rain	-4112
▁etc	-4113
▁might	-4114
▁शो	-4115
▁prices	-4116
▁सोच	-4117
▁स्वीकार	-4118
यात	-4119
▁administ	-4120
▁wicket	-4121
▁immedi	-4122
isions	-4123
la	-4124
▁आवेदन	-4125
▁Ali	-4126
▁संबंधी	-4127
▁जिम्मे	-4128
▁कला	-4129
▁विश्वास	-4130
ब्र	-4131
▁संच	-4132
▁पेट्रोल	-4133
cell	-4134
▁March	-4135
▁Pre	-4136
▁शादी	-4137
▁सदस्यों	-4138
▁United	-4139
ship	-4140
▁नेतृत्व	-4141
▁Nav	-4142
ober	-4143
▁खरीद	-4144
▁industry	-4145
▁People	-4146
▁यी	-4147
▁workers	-4148
▁Sub	-4149
फ्ट	-4150
▁नुक	-4151
वधान	-4152
▁past	-4153
खिल	-4154
ored	-4155
▁जाएंगे	-4156
क्षी	-4157
▁तुम्हें	-4158
ंतर	-4159
▁Both	-4160
lished	-4161
▁तय	-4162
▁meas	-4163
ियाँ	-4164
▁parties	-4165
ोरे	-4166
▁आतंकवाद	-4167
▁पक	-4168
▁efforts	-4169
lam	-4170
his	-4171
ees	-4172
▁ड्र	-4173
▁बेटे	-4174
्यु	-4175
▁eas	-4176
▁तरीके	-4177
▁har	-4178
वाला	-4179
▁amount	-4180
▁जता	-4181
▁youth	-4182
▁mis	-4183
reen	-4184
मारी	-4185
▁Pri	-4186
duc	-4187
▁वेबसाइट	-4188
ton	-4189
▁faith	-4190
▁फैसले	-4191
irc	-4192
▁अध्य	-4193
▁tar	-4194
side	-4195
▁Two	-4196
▁doing	-4197
▁Kerala	-4198
▁घोषित	-4199
▁जरिए	-4200
वस्था	-4201
erred	-4202
▁अनुमति	-4203
▁ति	-4204
leg	-4205
▁short	-4206
ization	-4207
▁देखने	-4208
▁सीटों	-4209
▁निदेशक	-4210
▁बढ़ाने	-4211
▁lo	-4212
▁fact	-4213
▁Gur	-4214
▁function	-4215
न्तु	-4216
▁expected	-4217
▁milit	-4218
▁stat	-4219
uary	-4220
hold	-4221
▁tweet	-4222
▁सम्मेलन	-4223
▁ide	-4224
ुस	-4225
oj	-4226
▁North	-4227
▁results	-4228
hu	-4229
▁having	-4230
▁संसा	-4231
▁राज्‍य	-4232
▁बनी	-4233
▁बदलाव	-4234
▁संसद	-4235
▁kind	-4236
▁छात्र	-4237
▁समी	-4238
▁bat	-4239
imum	-4240
nes	-4241
▁तमिल	-4242
▁संवि	-4243
▁यीशु	-4244
▁रहते	-4245
▁learn	-4246
▁लेख	-4247
▁बारिश	-4248
▁projects	-4249
▁मां	-4250
▁job	-4251
▁फाइ	-4252
▁self	-4253
▁phot	-4254
तान	-4255
operation	-4256
स्ल	-4257
▁घंट	-4258
▁recently	-4259
▁Why	-4260
▁नंबर	-4261
ड़ों	-4262
▁pict	-4263
▁अने	-4264
▁ऊपर	-4265
ert	-4266
ैक	-4267
▁अपराध	-4268
▁शान	-4269
▁समेत	-4270
▁उन्‍ह	-4271
ित्व	-4272
crib	-4273
ड़े	-4274
▁Har	-4275
ठी	-4276
▁represent	-4277
▁हमारा	-4278
▁less	-4279
▁programme	-4280
▁लॉन्च	-4281
कर्ता	-4282
साथ	-4283
▁During	-4284
▁non	-4285
▁Dist	-4286
▁face	-4287
hra	-4288
▁सीबीआई	-4289
▁private	-4290
▁fail	-4291
▁officers	-4292
▁आत्म	-4293
▁स्वतंत्र	-4294
▁स्थापित	-4295
▁नरे	-4296
ension	-4297
लेज	-4298
uly	-4299
▁शक्ति	-4300
▁यहाँ	-4301
▁dom	-4302
▁Hy	-4303
▁daughter	-4304
▁dest	-4305
▁mind	-4306
▁विदेशी	-4307
डु	-4308
▁Sy	-4309
▁अच्छे	-4310
श्विक	-4311
▁छह	-4312
▁den	-4313
hers	-4314
▁hon	-4315
▁रात	-4316
▁लगाने	-4317
▁अथ	-4318
▁ver	-4319
धीश	-4320
▁percent	-4321
रु	-4322
▁Ne	-4323
ights	-4324
▁Then	-4325
ator	-4326
▁Form	-4327
▁Educ	-4328
▁नुकसान	-4329
ledge	-4330
▁अनुर	-4331
▁smart	-4332
▁share	-4333
▁mur	-4334
▁जन्म	-4335
▁likely	-4336
▁Moh	-4337
ipal	-4338
▁आंक	-4339
रीब	-4340
▁लो	-4341
▁dou	-4342
▁means	-4343
▁अंतर्गत	-4344
▁निकाल	-4345
▁मूल्य	-4346
▁capital	-4347
▁gave	-4348
Ind	-4349
▁कार्यालय	-4350
ॉक	-4351
isl	-4352
person	-4353
संधान	-4354
▁Pan	-4355
▁मुक	-4356
▁celebr	-4357
▁किलो	-4358
▁Add	-4359
ample	-4360
स्क	-4361
▁प्राथ	-4362
ika	-4363
▁कैमरा	-4364
riculture	-4365
▁foreign	-4366
▁section	-4367
▁tour	-4368
▁रंग	-4369
कत	-4370
▁जिनमें	-4371
▁rese	-4372
▁webs	-4373
▁possible	-4374
▁port	-4375
▁reason	-4376
▁Sw	-4377
▁suff	-4378
▁फॉ	-4379
▁विश्‍	-4380
ोत्	-4381
▁ब्रिट	-4382
▁award	-4383
▁इंग	-4384
कर्म	-4385
▁conne	-4386
▁Muk	-4387
erc	-4388
फे	-4389
▁समुदाय	-4390
ceed	-4391
▁उनको	-4392
▁सच्च	-4393
▁Hindi	-4394
▁Meanwhile	-4395
itor	-4396
▁वैश्विक	-4397
tle	-4398
▁While	-4399
▁पहल	-4400
ream	-4401
▁कराने	-4402
dom	-4403
▁जेल	-4404
wa	-4405
▁रखते	-4406
▁अनुसंधान	-4407
▁लक्ष्य	-4408
▁मसी	-4409
SS	-4410
▁रोह	-4411
▁station	-4412
▁release	-4413
▁युद्ध	-4414
▁अंतर्रा	-4415
▁प्रेर	-4416
▁रेड	-4417
▁ट्रंप	-4418
▁दोष	-4419
▁केन्द्र	-4420
▁direct	-4421
िमिट	-4422
usband	-4423
ains	-4424
वै	-4425
ode	-4426
▁मुलाकात	-4427
ूबर	-4428
▁ऑन	-4429
▁written	-4430
▁अरब	-4431
rodu	-4432
▁compet	-4433
avirus	-4434
▁pract	-4435
ॉट	-4436
▁भेजा	-4437
▁पाए	-4438
▁Americ	-4439
▁कोल	-4440
▁इतिहास	-4441
▁परिषद	-4442
▁ऑस्ट्रेलिया	-4443
िकों	-4444
▁माना	-4445
▁बेहद	-4446
▁अनेक	-4447
▁पहुंचे	-4448
aster	-4449
▁technology	-4450
▁Madhya	-4451
▁उपस्थित	-4452
▁lost	-4453
▁संक्रम	-4454
▁basis	-4455
▁जैसी	-4456
AR	-4457
्‍त	-4458
▁associ	-4459
ट्र	-4460
वट	-4461
ev	-4462
▁Indust	-4463
▁side	-4464
▁lim	-4465
▁पूर्ण	-4466
▁victim	-4467
ूं	-4468
▁led	-4469
▁राष्‍ट	-4470
▁companies	-4471
▁rev	-4472
▁हादसे	-4473
▁truth	-4474
स्त्र	-4475
▁mult	-4476
्यता	-4477
▁लाने	-4478
▁medical	-4479
एक	-4480
▁Be	-4481
▁mor	-4482
▁नीचे	-4483
iting	-4484
icles	-4485
cember	-4486
onavirus	-4487
asing	-4488
sw	-4489
▁Oct	-4490
▁एशिया	-4491
▁don	-4492
ival	-4493
▁अधीन	-4494
▁भुगत	-4495
▁बध	-4496
यं	-4497
eptember	-4498
▁production	-4499
aker	-4500
▁दिस	-4501
stitu	-4502
ring	-4503
▁जैसा	-4504
▁able	-4505
▁जनवरी	-4506
otion	-4507
▁according	-4508
▁contest	-4509
▁cause	-4510
af	-4511
▁el	-4512
▁fall	-4513
▁संस्थान	-4514
akes	-4515
▁Techn	-4516
तनी	-4517
▁position	-4518
ामा	-4519
aign	-4520
▁जानते	-4521
न्व	-4522
पोर्ट	-4523
▁needs	-4524
▁नियंत्रण	-4525
▁pan	-4526
स्ते	-4527
mp	-4528
एसटी	-4529
ाहरण	-4530
ern	-4531
ंघ	-4532
▁higher	-4533
ada	-4534
▁sele	-4535
▁net	-4536
▁जुड़े	-4537
▁प्रार	-4538
▁rain	-4539
▁became	-4540
▁मुद्दे	-4541
IT	-4542
▁अंतरराष्ट्रीय	-4543
▁बेटी	-4544
▁resol	-4545
▁birth	-4546
▁हार	-4547
▁पड़ा	-4548
hest	-4549
ूक	-4550
head	-4551
▁बिजली	-4552
▁किताब	-4553
▁ful	-4554
▁केरल	-4555
▁June	-4556
, 	-4557
adi	-4558
▁रोग	-4559
▁gold	-4560
िमिटेड	-4561
▁bow	-4562
ogn	-4563
ama	-4564
▁Bl	-4565
▁Far	-4566
ufact	-4567
▁stop	-4568
▁होकर	-4569
▁cong	-4570
order	-4571
▁मेगा	-4572
▁किसान	-4573
▁उम	-4574
▁mob	-4575
▁Govern	-4576
▁टै	-4577
्वर	-4578
▁parent	-4579
र्श	-4580
acity	-4581
▁Fore	-4582
▁क्व	-4583
▁वर्षों	-4584
▁hard	-4585
▁पंच	-4586
▁design	-4587
▁Afric	-4588
▁मिलेगा	-4589
▁संविधान	-4590
▁चलते	-4591
▁oil	-4592
▁प्ल	-4593
▁साइ	-4594
कारा	-4595
▁सभा	-4596
▁close	-4597
▁तारी	-4598
coming	-4599
▁Sri	-4600
▁fear	-4601
जो	-4602
▁Sun	-4603
engers	-4604
्तीय	-4605
▁विराट	-4606
▁captain	-4607
CP	-4608
▁coun	-4609
uge	-4610
uro	-4611
▁संबोधित	-4612
▁Virat	-4613
▁मौजूदा	-4614
पक	-4615
▁अध्ययन	-4616
िटल	-4617
ovember	-4618
▁foc	-4619
▁इंस्ट	-4620
▁caus	-4621
▁journ	-4622
▁travel	-4623
▁इले	-4624
▁अक्ष	-4625
▁हित	-4626
▁Roh	-4627
ताह	-4628
▁सोन	-4629
▁England	-4630
▁study	-4631
▁previous	-4632
▁sal	-4633
▁वायरस	-4634
▁claimed	-4635
▁young	-4636
▁कहीं	-4637
▁parts	-4638
▁IPL	-4639
▁माह	-4640
▁बधाई	-4641
▁उत्पाद	-4642
▁Sur	-4643
rastructure	-4644
कर्ताओं	-4645
मार्	-4646
पूर्व	-4647
▁दूसरा	-4648
▁energy	-4649
▁योगदान	-4650
▁पति	-4651
In	-4652
▁इलाज	-4653
▁lives	-4654
व्यवस्था	-4655
▁रज	-4656
then	-4657
▁sw	-4658
म्मद	-4659
▁Sci	-4660
▁extend	-4661
बाइल	-4662
aut	-4663
▁community	-4664
▁lab	-4665
▁नव	-4666
ख़	-4667
▁कट	-4668
न्द्रीय	-4669
▁declared	-4670
▁getting	-4671
▁related	-4672
come	-4673
▁Offic	-4674
▁ठा	-4675
▁गैर	-4676
▁वायु	-4677
▁conv	-4678
▁sens	-4679
▁न्यायाधीश	-4680
▁officer	-4681
▁प्य	-4682
▁फोटो	-4683
▁sure	-4684
▁Defence	-4685
▁wrong	-4686
▁districts	-4687
मीटर	-4688
▁लंब	-4689
garh	-4690
▁उद्देश्य	-4691
▁प्रशिक्षण	-4692
▁conn	-4693
▁प्रवेश	-4694
▁करवा	-4695
▁star	-4696
▁जोर	-4697
▁उदाहरण	-4698
▁सर्	-4699
▁increased	-4700
AP	-4701
oses	-4702
▁using	-4703
▁मू	-4704
▁aut	-4705
▁सफलता	-4706
ourse	-4707
▁फाय	-4708
▁सलमान	-4709
▁लगी	-4710
▁society	-4711
▁forces	-4712
▁उसमें	-4713
▁छोटे	-4714
▁निकल	-4715
▁stated	-4716
▁प्रतिक	-4717
जूद	-4718
▁बिक	-4719
▁प्रिय	-4720
aya	-4721
▁reve	-4722
▁मई	-4723
▁खिलाड़ी	-4724
▁युव	-4725
▁ever	-4726
स्व	-4727
▁तत्	-4728
▁target	-4729
atory	-4730
▁वित्तीय	-4731
▁आश	-4732
▁सत्र	-4733
aur	-4734
hing	-4735
▁गौर	-4736
ष्ण	-4737
▁मिस	-4738
▁coming	-4739
▁अभिनेता	-4740
विंद	-4741
empt	-4742
▁केन्द्रीय	-4743
▁प्रचार	-4744
सों	-4745
▁इंग्ल	-4746
uted	-4747
▁अपील	-4748
▁trib	-4749
▁Some	-4750
▁December	-4751
by	-4752
▁problem	-4753
▁points	-4754
udd	-4755
▁कठ	-4756
▁परेश	-4757
▁चयन	-4758
▁रु	-4759
चारियों	-4760
▁website	-4761
encies	-4762
दू	-4763
▁उत्‍	-4764
▁बढ़ावा	-4765
काम	-4766
▁witness	-4767
▁light	-4768
▁Cup	-4769
▁अग्र	-4770
▁Sp	-4771
▁exist	-4772
udget	-4773
▁Education	-4774
▁परिवर्तन	-4775
▁Mu	-4776
▁ty	-4777
ivid	-4778
▁प्रतिनिध	-4779
▁Andhra	-4780
ipur	-4781
▁Aug	-4782
▁institut	-4783
mission	-4784
▁फी	-4785
िड	-4786
▁whom	-4787
▁Ke	-4788
▁भुगतान	-4789
▁भूमि	-4790
▁प्रस्त	-4791
▁obs	-4792
▁husband	-4793
▁Bible	-4794
▁डेट	-4795
▁September	-4796
SC	-4797
▁coll	-4798
▁prep	-4799
▁conducted	-4800
ource	-4801
▁वोट	-4802
▁assist	-4803
▁Tel	-4804
▁sold	-4805
▁Vice	-4806
aks	-4807
ोद	-4808
▁member	-4809
▁example	-4810
फ्र	-4811
▁citizens	-4812
▁director	-4813
play	-4814
▁सां	-4815
भाल	-4816
▁July	-4817
▁सुना	-4818
▁key	-4819
▁अनुभव	-4820
▁प्रभ	-4821
▁दू	-4822
itation	-4823
▁पहुँ	-4824
▁unt	-4825
▁Salman	-4826
▁activities	-4827
▁created	-4828
▁जुलाई	-4829
▁January	-4830
▁least	-4831
▁संपर्क	-4832
ison	-4833
ery	-4834
▁card	-4835
▁निर	-4836
▁loss	-4837
▁पहुंची	-4838
▁disp	-4839
▁circ	-4840
▁साफ	-4841
▁night	-4842
ficult	-4843
▁नम	-4844
▁places	-4845
▁संदेश	-4846
▁common	-4847
▁building	-4848
▁सीरीज	-4849
▁vir	-4850
▁campaign	-4851
▁संभव	-4852
ाइम	-4853
▁गलत	-4854
▁Former	-4855
कश्मीर	-4856
बि	-4857
▁features	-4858
▁Isra	-4859
▁details	-4860
ogra	-4861
टल	-4862
म्बर	-4863
▁necess	-4864
ething	-4865
rote	-4866
▁Corpor	-4867
▁connection	-4868
▁November	-4869
ushed	-4870
▁मिलकर	-4871
▁progress	-4872
▁constitu	-4873
▁problems	-4874
▁Inde	-4875
गो	-4876
▁recom	-4877
▁जरूरी	-4878
▁stri	-4879
▁Can	-4880
▁House	-4881
▁जिन्होंने	-4882
जीत	-4883
▁Bharat	-4884
▁particular	-4885
नियर	-4886
▁trade	-4887
phone	-4888
▁appear	-4889
▁वस्त	-4890
▁सुनवाई	-4891
बीर	-4892
▁खुश	-4893
bel	-4894
जरी	-4895
▁difficult	-4896
▁जित	-4897
▁central	-4898
▁कथ	-4899
▁rail	-4900
▁लिमिटेड	-4901
▁October	-4902
▁enter	-4903
ateg	-4904
emic	-4905
▁इनकार	-4906
bed	-4907
▁above	-4908
▁बाइबल	-4909
▁चिं	-4910
▁Russ	-4911
▁भ्र	-4912
▁Hindu	-4913
hib	-4914
▁घा	-4915
▁economy	-4916
▁review	-4917
▁knowledge	-4918
▁निपट	-4919
्याण	-4920
▁बाव	-4921
▁seven	-4922
ami	-4923
▁reports	-4924
▁अनुमान	-4925
▁अफ्री	-4926
▁stars	-4927
▁forward	-4928
aled	-4929
olk	-4930
▁pray	-4931
▁रिली	-4932
▁true	-4933
▁असम	-4934
▁इन्	-4935
धिकारिक	-4936
▁हवाई	-4937
▁Bangl	-4938
कम	-4939
क्ट्र	-4940
▁temple	-4941
कारों	-4942
▁capacity	-4943
▁Bill	-4944
▁विजय	-4945
▁पड़े	-4946
▁attended	-4947
nding	-4948
प्ताह	-4949
▁launch	-4950
vest	-4951
rs	-4952
▁नेट	-4953
▁Cabinet	-4954
▁Kan	-4955
▁host	-4956
▁expressed	-4957
▁बांग	-4958
▁hours	-4959
साय	-4960
▁nor	-4961
▁hit	-4962
▁Dis	-4963
क्षक	-4964
witter	-4965
▁हिस्से	-4966
ication	-4967
▁कर्मचारियों	-4968
AT	-4969
▁Sush	-4970
▁उपाय	-4971
▁जाये	-4972
▁maintain	-4973
▁benefit	-4974
▁डाय	-4975
▁प्ले	-4976
▁behind	-4977
elfare	-4978
▁जस्ट	-4979
▁Israel	-4980
ops	-4981
▁Public	-4982
▁super	-4983
▁राजनीति	-4984
▁प्रवक्ता	-4985
▁स्मार्टफोन	-4986
▁सत	-4987
for	-4988
▁suggest	-4989
इड	-4990
ler	-4991
▁Pand	-4992
▁मोबाइल	-4993
▁District	-4994
कु	-4995
▁Art	-4996
▁history	-4997
▁purp	-4998
▁Pra	-4999
▁आधिकारिक	-5000
स्लिम	-5001
▁Also	-5002
▁spread	-5003
▁tell	-5004
▁प्रग	-5005
▁सुरक्षित	-5006
▁himself	-5007
ier	-5008
▁nothing	-5009
यल	-5010
▁बजट	-5011
▁प्राथमिक	-5012
▁Des	-5013
▁कल्याण	-5014
ividual	-5015
▁Feb	-5016
▁Wom	-5017
▁sil	-5018
▁strengthen	-5019
त्मा	-5020
▁training	-5021
▁mus	-5022
▁Deep	-5023
▁King	-5024
▁Lal	-5025
केट	-5026
।"""	-5027
▁san	-5028
▁low	-5029
▁Islam	-5030
▁ground	-5031
uck	-5032
ंकी	-5033
▁जिसने	-5034
▁Dev	-5035
▁Rel	-5036
राबाद	-5037
▁मिशन	-5038
▁धर	-5039
▁महान	-5040
िरी	-5041
▁Vijay	-5042
▁sum	-5043
▁डर	-5044
▁इका	-5045
erve	-5046
▁इलाके	-5047
▁विधे	-5048
▁poor	-5049
तने	-5050
▁reach	-5051
▁आठ	-5052
▁लागत	-5053
ँव	-5054
▁town	-5055
▁Bal	-5056
▁vac	-5057
▁परिज	-5058
▁शुभ	-5059
aul	-5060
▁really	-5061
▁अर्थव्यवस्था	-5062
▁आईपी	-5063
▁single	-5064
▁civil	-5065
▁विल	-5066
▁रोजगार	-5067
▁answ	-5068
DA	-5069
▁उल्लेख	-5070
रेलू	-5071
▁बावजूद	-5072
ped	-5073
थम	-5074
साद	-5075
▁board	-5076
abh	-5077
ोम	-5078
▁विस्तार	-5079
char	-5080
▁ट्रेन	-5081
दर्भ	-5082
▁अथवा	-5083
▁शानदार	-5084
▁Sena	-5085
ख्त	-5086
irm	-5087
ators	-5088
त्रियों	-5089
▁पसंद	-5090
▁August	-5091
▁dies	-5092
▁जिन्हें	-5093
▁सुबह	-5094
▁सीएम	-5095
ांक	-5096
▁प्रेम	-5097
▁मुकाबले	-5098
▁quality	-5099
▁emer	-5100
▁Institute	-5101
▁Adv	-5102
▁request	-5103
▁spokes	-5104
▁Many	-5105
▁बल्लेबाज	-5106
▁मेड	-5107
▁लें	-5108
▁inaug	-5109
▁रहेगा	-5110
▁infl	-5111
वत	-5112
jit	-5113
▁check	-5114
ाज़	-5115
ियार	-5116
▁राजा	-5117
▁parents	-5118
▁relationship	-5119
rish	-5120
▁परीक्षण	-5121
ots	-5122
▁कारोबार	-5123
▁Ay	-5124
jan	-5125
▁films	-5126
▁निर्धारित	-5127
▁murder	-5128
ousand	-5129
▁दिखाई	-5130
▁dra	-5131
▁Under	-5132
▁identified	-5133
▁happened	-5134
IM	-5135
▁चुनौती	-5136
vey	-5137
▁परवर	-5138
▁हालत	-5139
ार्ज	-5140
▁candidate	-5141
▁चिकित्	-5142
▁जनरल	-5143
▁Stud	-5144
गन	-5145
्रिय	-5146
त्ती	-5147
▁घरेलू	-5148
▁required	-5149
▁रू	-5150
▁बजे	-5151
▁Bangladesh	-5152
▁स्वयं	-5153
▁mer	-5154
▁इंग्लैंड	-5155
▁management	-5156
▁research	-5157
ji	-5158
ियोग	-5159
▁बनने	-5160
▁हिंसा	-5161
ख्	-5162
▁pun	-5163
▁committee	-5164
▁टा	-5165
▁something	-5166
▁recovered	-5167
ruary	-5168
▁assembly	-5169
▁largest	-5170
उट	-5171
nath	-5172
ike	-5173
हान	-5174
सूस	-5175
▁wrote	-5176
▁agree	-5177
▁miss	-5178
▁Yog	-5179
पान	-5180
▁successful	-5181
▁whether	-5182
ायद	-5183
▁manufact	-5184
▁पीड़	-5185
▁क़	-5186
▁cred	-5187
▁संग्रह	-5188
ection	-5189
▁डॉक्टर	-5190
▁online	-5191
▁vs	-5192
▁समीक्षा	-5193
न्ध	-5194
▁positive	-5195
▁संजय	-5196
▁खो	-5197
ilt	-5198
▁पुरुष	-5199
घाटन	-5200
▁age	-5201
▁fav	-5202
▁stay	-5203
▁साझा	-5204
▁happy	-5205
▁Sar	-5206
ॉम	-5207
क्षर	-5208
▁गैस	-5209
▁पाठ	-5210
दु	-5211
▁abs	-5212
▁भवन	-5213
▁उन्‍होंने	-5214
बित	-5215
▁सुपर	-5216
▁improve	-5217
▁income	-5218
▁अंतर्राष्ट्रीय	-5219
achal	-5220
खर	-5221
▁pot	-5222
▁संशोधन	-5223
थि	-5224
▁individual	-5225
▁सारे	-5226
▁po	-5227
्रिया	-5228
मैन	-5229
▁हैद	-5230
ुल्क	-5231
▁threat	-5232
▁जस्टिस	-5233
▁once	-5234
▁शब्द	-5235
▁dam	-5236
ग्राम	-5237
▁गठबंधन	-5238
▁Constitution	-5239
▁यूरो	-5240
▁खर्च	-5241
▁गतिविध	-5242
▁cast	-5243
ead	-5244
▁विधि	-5245
▁तु	-5246
रान	-5247
▁norm	-5248
िको	-5249
▁Colle	-5250
uries	-5251
▁violence	-5252
▁petition	-5253
धे	-5254
▁though	-5255
▁ज्ञान	-5256
▁अश	-5257
▁fast	-5258
earch	-5259
▁फरवरी	-5260
स्तानी	-5261
▁समाधान	-5262
▁dise	-5263
▁sources	-5264
▁आता	-5265
DP	-5266
ocu	-5267
▁प्यार	-5268
▁राहत	-5269
यु	-5270
sc	-5271
rop	-5272
▁Nadu	-5273
बारी	-5274
▁ऑनलाइन	-5275
▁नदी	-5276
कर्ष	-5277
▁signific	-5278
▁भावना	-5279
▁मिलेगी	-5280
igarh	-5281
▁मुस्लिम	-5282
▁रहेंगे	-5283
▁dr	-5284
▁thought	-5285
ज़ा	-5286
पु	-5287
▁दोस्त	-5288
▁Who	-5289
ta	-5290
rand	-5291
reg	-5292
जु	-5293
▁अका	-5294
ंजी	-5295
▁Inst	-5296
▁सप्ताह	-5297
acy	-5298
add	-5299
▁कानू	-5300
▁विधेयक	-5301
▁passed	-5302
▁mater	-5303
ga	-5304
▁''	-5305
pir	-5306
▁application	-5307
▁secretary	-5308
ड़ने	-5309
▁Cont	-5310
▁खत्म	-5311
▁Gods	-5312
▁except	-5313
▁Jud	-5314
▁Hospital	-5315
ns	-5316
▁मश	-5317
dra	-5318
year	-5319
▁themselves	-5320
sequ	-5321
verage	-5322
प्त	-5323
▁words	-5324
ark	-5325
▁Rohit	-5326
▁grant	-5327
रासत	-5328
टरी	-5329
MC	-5330
िलों	-5331
▁School	-5332
▁रोहित	-5333
दिगार	-5334
▁conduct	-5335
पे	-5336
▁किर	-5337
▁तलाश	-5338
▁पढ़ें	-5339
▁मौसम	-5340
derabad	-5341
▁आंध	-5342
▁works	-5343
▁Chh	-5344
उंट	-5345
▁whole	-5346
▁admitted	-5347
\\	-5348
▁वैज्ञान	-5349
formation	-5350
▁पटेल	-5351
▁early	-5352
▁प्रगति	-5353
▁हिरासत	-5354
▁टिप	-5355
▁personnel	-5356
िमंडल	-5357
▁चाहे	-5358
▁चीज़	-5359
▁गिरावट	-5360
▁Priy	-5361
▁Sanjay	-5362
▁mot	-5363
▁categ	-5364
▁Twitter	-5365
▁पर्यावरण	-5366
▁खूब	-5367
▁recommend	-5368
्लादेश	-5369
most	-5370
▁सक्रिय	-5371
▁begin	-5372
▁ap	-5373
िक्सल	-5374
▁IC	-5375
▁परवरदिगार	-5376
गु	-5377
राने	-5378
ापन	-5379
▁Ahmed	-5380
▁ban	-5381
▁cooperation	-5382
erman	-5383
स्ती	-5384
ज्	-5385
▁Var	-5386
वाही	-5387
▁Brit	-5388
▁अगस्त	-5389
▁game	-5390
▁कब्	-5391
▁hous	-5392
▁seat	-5393
▁Nar	-5394
▁चुना	-5395
▁driver	-5396
▁object	-5397
pecial	-5398
▁अन्त	-5399
▁खाद्य	-5400
▁चंद्र	-5401
▁personal	-5402
▁subject	-5403
्रो	-5404
uled	-5405
▁दिसंबर	-5406
▁माता	-5407
▁मुद्दों	-5408
▁मतलब	-5409
▁sat	-5410
उन्होंने	-5411
oon	-5412
▁environment	-5413
उंड	-5414
AI	-5415
▁पीठ	-5416
▁February	-5417
▁हॉ	-5418
▁allowed	-5419
▁परिवहन	-5420
▁ey	-5421
▁ye	-5422
▁consum	-5423
▁मारे	-5424
ills	-5425
▁नार	-5426
▁teams	-5427
▁बर्	-5428
ड़ियों	-5429
▁thing	-5430
▁ball	-5431
▁कॉलेज	-5432
▁उद्य	-5433
िफ	-5434
▁force	-5435
▁raised	-5436
▁उद्घाटन	-5437
onse	-5438
मार्ट	-5439
eds	-5440
▁Hyderabad	-5441
ार्थियों	-5442
नाडु	-5443
▁IN	-5444
▁किलोमीटर	-5445
▁प्रसार	-5446
▁opt	-5447
ivity	-5448
▁नेशनल	-5449
ेंज	-5450
▁माइ	-5451
het	-5452
oice	-5453
▁value	-5454
▁सेवाओं	-5455
ammad	-5456
▁z	-5457
estic	-5458
▁समाप्त	-5459
apan	-5460
▁access	-5461
▁tele	-5462
▁नवा	-5463
▁महसूस	-5464
▁व्यापक	-5465
omes	-5466
mony	-5467
atural	-5468
▁श्रद्ध	-5469
▁investment	-5470
▁नरेन्द्र	-5471
▁मतदान	-5472
▁करनी	-5473
▁players	-5474
▁पालन	-5475
द्द	-5476
▁Pras	-5477
ety	-5478
▁teac	-5479
▁Nit	-5480
ened	-5481
▁course	-5482
▁charge	-5483
्‍म	-5484
▁Chen	-5485
▁department	-5486
ंदगी	-5487
वंबर	-5488
down	-5489
▁Sche	-5490
▁संत	-5491
▁अभिनेत्री	-5492
िंट	-5493
▁Not	-5494
▁anything	-5495
▁Now	-5496
्रीन	-5497
▁Ak	-5498
▁प्रियंका	-5499
emor	-5500
▁रिकॉर्ड	-5501
▁भरो	-5502
▁products	-5503
जरीवाल	-5504
▁चिकित्सा	-5505
▁terms	-5506
icial	-5507
▁निष्	-5508
▁उम्मीदवारों	-5509
▁खुला	-5510
▁neg	-5511
▁recogn	-5512
▁Ministers	-5513
aly	-5514
▁डिज	-5515
ici	-5516
▁हट	-5517
odies	-5518
▁accom	-5519
▁निगम	-5520
▁banks	-5521
▁achieve	-5522
▁इस्ल	-5523
▁प्रस्तुत	-5524
▁तुर	-5525
ems	-5526
ामद	-5527
▁रव	-5528
▁Patel	-5529
▁सितंबर	-5530
▁Iran	-5531
▁देंगे	-5532
▁आपकी	-5533
▁infrastructure	-5534
▁फा	-5535
▁deep	-5536
▁joint	-5537
bit	-5538
angana	-5539
▁सुश	-5540
▁polls	-5541
MS	-5542
▁अध्यक्षता	-5543
▁FIR	-5544
▁संसाधन	-5545
दर्श	-5546
▁लै	-5547
ER	-5548
▁search	-5549
▁Railways	-5550
▁rights	-5551
▁हैदराबाद	-5552
▁Arun	-5553
▁partners	-5554
▁aim	-5555
▁immediately	-5556
▁चोट	-5557
स्‍थ	-5558
▁टन	-5559
▁प्रतिबंध	-5560
▁mean	-5561
▁शायद	-5562
▁परियोजनाओं	-5563
ार्क	-5564
▁Super	-5565
▁बातें	-5566
▁पॉ	-5567
▁अर्ज	-5568
▁introdu	-5569
▁shoot	-5570
▁included	-5571
▁Pad	-5572
▁थो	-5573
isha	-5574
▁इच्छ	-5575
▁language	-5576
▁इंडियन	-5577
▁देगा	-5578
▁Bar	-5579
▁एजेंसी	-5580
jri	-5581
▁Governor	-5582
▁संरक्षण	-5583
▁जिसकी	-5584
▁lat	-5585
ortem	-5586
▁followed	-5587
▁Lt	-5588
"",	-5589
▁संदर्भ	-5590
▁Jag	-5591
▁केजरीवाल	-5592
ying	-5593
▁री	-5594
▁चिंता	-5595
▁ten	-5596
▁often	-5597
▁प्रमाण	-5598
▁फ्ल	-5599
▁similar	-5600
▁Africa	-5601
▁patients	-5602
ids	-5603
ोरी	-5604
▁mag	-5605
▁तीसरे	-5606
ech	-5607
ज़र	-5608
▁lod	-5609
▁Bab	-5610
ulated	-5611
▁belong	-5612
▁खंड	-5613
▁तमिलनाडु	-5614
▁Roy	-5615
▁उपकरण	-5616
▁unto	-5617
▁deg	-5618
▁कैं	-5619
▁challeng	-5620
▁Jos	-5621
पात	-5622
▁टिक	-5623
ald	-5624
न्‍न	-5625
abor	-5626
▁खोज	-5627
पास	-5628
▁परिस	-5629
▁बांग्लादेश	-5630
▁अत्य	-5631
▁आदमी	-5632
▁गर्	-5633
▁सजा	-5634
▁letter	-5635
▁probe	-5636
▁resident	-5637
अलग	-5638
▁भागी	-5639
going	-5640
▁नो	-5641
▁भग	-5642
▁दबा	-5643
utive	-5644
igation	-5645
▁सूत्रों	-5646
▁tri	-5647
▁शहरी	-5648
▁गाँव	-5649
▁नवंबर	-5650
igital	-5651
▁Trans	-5652
▁GST	-5653
▁ODI	-5654
▁Az	-5655
▁आइ	-5656
▁ज़्यादा	-5657
▁Priyanka	-5658
atic	-5659
ja	-5660
▁रहता	-5661
▁friends	-5662
▁necessary	-5663
▁संगठ	-5664
▁heavy	-5665
त्साह	-5666
▁schools	-5667
▁Cap	-5668
▁उत्तरा	-5669
▁display	-5670
कोर्ट	-5671
▁sust	-5672
▁इस्ती	-5673
घटना	-5674
▁Law	-5675
He	-5676
भारत	-5677
▁command	-5678
ological	-5679
▁स्थापना	-5680
▁साबित	-5681
▁Rajya	-5682
▁चले	-5683
ograph	-5684
▁पुस्त	-5685
▁Jehovahs	-5686
▁भीतर	-5687
▁term	-5688
▁upcoming	-5689
▁docu	-5690
पि	-5691
▁हस्ता	-5692
ताव	-5693
िटर	-5694
▁वाहन	-5695
ूंगा	-5696
▁mom	-5697
▁shi	-5698
work	-5699
▁बरा	-5700
▁story	-5701
▁अफ्रीका	-5702
▁पर्यटन	-5703
▁Group	-5704
▁rushed	-5705
विल	-5706
vind	-5707
▁इंत	-5708
▁मृत्यु	-5709
ारिज	-5710
▁हथ	-5711
▁लगाए	-5712
▁Int	-5713
▁हेतु	-5714
▁examination	-5715
्रेट	-5716
▁construction	-5717
▁शास	-5718
▁जिलों	-5719
pecially	-5720
▁sister	-5721
गाह	-5722
▁democ	-5723
▁ट्व	-5724
▁quar	-5725
nai	-5726
▁उपभ	-5727
▁hands	-5728
ब्ल्यू	-5729
▁focus	-5730
gu	-5731
▁institutions	-5732
▁Euro	-5733
▁families	-5734
▁affected	-5735
▁material	-5736
दारों	-5737
▁fell	-5738
ध्यक्ष	-5739
val	-5740
▁Kejri	-5741
CCI	-5742
oul	-5743
▁reserv	-5744
▁km	-5745
▁Her	-5746
▁active	-5747
▁includes	-5748
▁began	-5749
▁अंदर	-5750
▁message	-5751
▁imm	-5752
▁gener	-5753
▁resign	-5754
▁cou	-5755
▁कथित	-5756
ukh	-5757
oms	-5758
▁clean	-5759
▁paid	-5760
▁Technology	-5761
▁उचित	-5762
फार	-5763
▁प्रावधान	-5764
▁प्रोत्साह	-5765
urance	-5766
चारी	-5767
▁लेते	-5768
▁Off	-5769
ilater	-5770
▁playing	-5771
▁thousand	-5772
▁करोड़	-5773
▁inaugur	-5774
▁UN	-5775
▁मज	-5776
▁mention	-5777
▁governments	-5778
evers	-5779
▁line	-5780
▁संवाद	-5781
▁create	-5782
▁Every	-5783
▁Of	-5784
▁अमरी	-5785
ghan	-5786
▁SP	-5787
▁recent	-5788
RC	-5789
▁मुश्	-5790
▁developed	-5791
vision	-5792
▁--	-5793
▁पृथ	-5794
▁प्रभा	-5795
जाम	-5796
▁शरीर	-5797
▁engine	-5798
iah	-5799
▁charges	-5800
▁highest	-5801
▁जर्म	-5802
ेप	-5803
ंटी	-5804
▁deter	-5805
▁खुशी	-5806
▁population	-5807
▁Assam	-5808
▁राजधान	-5809
▁coronavirus	-5810
▁transf	-5811
aper	-5812
▁सिल	-5813
▁नागरिकों	-5814
▁trying	-5815
च्‍	-5816
pper	-5817
▁तैना	-5818
▁prim	-5819
ूड	-5820
▁TV	-5821
क्सी	-5822
▁ताप	-5823
▁विकल्प	-5824
▁season	-5825
▁appointed	-5826
ठा	-5827
▁worth	-5828
▁प्रबंध	-5829
ुनिक	-5830
unic	-5831
▁प्री	-5832
▁Ban	-5833
▁cities	-5834
▁बिक्री	-5835
▁उत्प	-5836
▁परिजनों	-5837
▁inte	-5838
yal	-5839
omb	-5840
▁बरामद	-5841
▁प्रथम	-5842
▁Soc	-5843
▁strate	-5844
▁दश	-5845
▁आवा	-5846
▁पुष्टि	-5847
▁MLAs	-5848
▁appre	-5849
▁मेडिकल	-5850
▁बनाई	-5851
IS	-5852
▁offer	-5853
▁दुख	-5854
सीआई	-5855
धर	-5856
▁वार्	-5857
▁इतना	-5858
▁आंध्र	-5859
▁pow	-5860
▁दुर्घटना	-5861
▁जम	-5862
▁प्रदर्श	-5863
▁बढ़कर	-5864
▁guid	-5865
▁Gl	-5866
▁निर्यात	-5867
▁जीबी	-5868
▁लाइ	-5869
▁Cons	-5870
▁wickets	-5871
▁लौट	-5872
▁टिप्प	-5873
▁bench	-5874
quir	-5875
▁क्रम	-5876
uru	-5877
▁उपा	-5878
iber	-5879
▁दिला	-5880
णिज	-5881
▁पदक	-5882
▁aware	-5883
▁गुप	-5884
▁East	-5885
▁हल	-5886
▁रिलीज	-5887
▁नवी	-5888
▁Earlier	-5889
ories	-5890
▁स्वच्छ	-5891
ams	-5892
▁झू	-5893
▁wa	-5894
▁Japan	-5895
▁Corporation	-5896
▁Kejriwal	-5897
▁घट	-5898
▁ministry	-5899
▁सुल	-5900
▁डिग्री	-5901
▁named	-5902
arsh	-5903
▁living	-5904
िब	-5905
▁मस	-5906
▁defe	-5907
ED	-5908
▁Research	-5909
▁गोली	-5910
▁प्रतिक्रिया	-5911
▁Don	-5912
▁hope	-5913
joy	-5914
▁आपूर्ति	-5915
▁इलेक्ट्र	-5916
vere	-5917
▁instru	-5918
▁bad	-5919
▁राजधानी	-5920
▁little	-5921
▁यानी	-5922
▁leave	-5923
▁warn	-5924
▁पारी	-5925
▁doub	-5926
▁कौशल	-5927
clud	-5928
range	-5929
▁charact	-5930
▁खारिज	-5931
▁टीवी	-5932
▁reject	-5933
▁पाकिस्तानी	-5934
▁politics	-5935
▁असर	-5936
▁involved	-5937
▁बें	-5938
▁thank	-5939
▁Prasad	-5940
▁पल	-5941
▁legisl	-5942
▁smartphone	-5943
▁Dal	-5944
change	-5945
▁ris	-5946
oved	-5947
▁उद्यम	-5948
▁मैदान	-5949
▁pub	-5950
▁संगी	-5951
ैर	-5952
▁steps	-5953
▁Chennai	-5954
▁popular	-5955
▁मोहम्मद	-5956
inese	-5957
▁शिवसेना	-5958
शाला	-5959
▁तत्काल	-5960
▁huge	-5961
▁mass	-5962
मोह	-5963
▁More	-5964
▁शासन	-5965
▁experience	-5966
hood	-5967
▁exec	-5968
▁orig	-5969
▁मॉडल	-5970
pendent	-5971
▁produced	-5972
▁कोच	-5973
काता	-5974
्रेड	-5975
atform	-5976
rin	-5977
▁शोध	-5978
▁Ben	-5979
riday	-5980
▁German	-5981
▁निर्मा	-5982
▁निधन	-5983
िल्म	-5984
ोलन	-5985
ksh	-5986
ita	-5987
action	-5988
राष्ट्र	-5989
AS	-5990
ांश	-5991
दर	-5992
वर्क	-5993
▁सश	-5994
▁Deputy	-5995
▁outside	-5996
\""	-5997
▁ahead	-5998
ilateral	-5999
▁Rec	-6000
▁especially	-6001
▁session	-6002
▁निर्वा	-6003
It	-6004
▁गी	-6005
माने	-6006
कू	-6007
▁अरु	-6008
ंखला	-6009
▁स्वर	-6010
mo	-6011
▁हरा	-6012
▁Indians	-6013
▁measures	-6014
▁अनुप	-6015
let	-6016
aging	-6017
▁वकी	-6018
▁रखी	-6019
▁wind	-6020
fall	-6021
▁मुश्किल	-6022
▁Chairman	-6023
र्ण	-6024
rance	-6025
▁eight	-6026
▁Pal	-6027
▁actress	-6028
▁पोर्ट	-6029
ites	-6030
▁Section	-6031
▁यूपी	-6032
▁opportunity	-6033
▁responsibility	-6034
▁निगर	-6035
देन	-6036
द्दी	-6037
▁Force	-6038
iers	-6039
▁either	-6040
icro	-6041
igg	-6042
▁प्रसाद	-6043
▁Afghan	-6044
च्छेद	-6045
▁संबंधों	-6046
▁ded	-6047
enger	-6048
्ति	-6049
▁cut	-6050
श्न	-6051
वालों	-6052
▁तुरंत	-6053
▁Dav	-6054
olkata	-6055
oid	-6056
▁foot	-6057
▁फिल्मों	-6058
▁मक	-6059
▁नै	-6060
▁response	-6061
▁Europe	-6062
▁until	-6063
▁राज्यपाल	-6064
▁सीख	-6065
▁concerned	-6066
▁सोम	-6067
▁hearing	-6068
ikh	-6069
▁mobile	-6070
lect	-6071
▁Sund	-6072
▁tweeted	-6073
▁माँ	-6074
▁boy	-6075
▁regarding	-6076
eous	-6077
▁नती	-6078
khand	-6079
cri	-6080
▁HD	-6081
▁निम्	-6082
▁employees	-6083
▁require	-6084
▁दम	-6085
▁विशेषज्ञ	-6086
▁दस	-6087
▁vehicles	-6088
▁Chinese	-6089
ंडा	-6090
▁Besides	-6091
ंदन	-6092
▁tw	-6093
▁मेगाप	-6094
▁जानता	-6095
▁appeal	-6096
▁Road	-6097
▁चालक	-6098
▁rank	-6099
▁मात्रा	-6100
▁leading	-6101
▁cal	-6102
▁जेट	-6103
्राम	-6104
▁screen	-6105
gn	-6106
▁गुरु	-6107
▁providing	-6108
▁पाने	-6109
▁administration	-6110
▁आते	-6111
▁गठन	-6112
▁हटा	-6113
▁er	-6114
▁Joh	-6115
▁सहायक	-6116
▁गुणव	-6117
▁रहती	-6118
▁शुक्र	-6119
▁performance	-6120
▁SC	-6121
▁Em	-6122
▁ill	-6123
शिप	-6124
new	-6125
▁Cricket	-6126
▁उपचार	-6127
▁Commissioner	-6128
▁supply	-6129
▁निगरानी	-6130
▁अय	-6131
▁रूस	-6132
▁दर्श	-6133
▁देकर	-6134
ज्ञा	-6135
टो	-6136
▁उम्र	-6137
जिए	-6138
▁jail	-6139
▁IS	-6140
based	-6141
▁creat	-6142
oni	-6143
orters	-6144
estival	-6145
▁प्रेरित	-6146
▁significant	-6147
▁ones	-6148
▁ओवर	-6149
▁enhan	-6150
मण	-6151
▁वाणिज	-6152
पत्र	-6153
▁vol	-6154
▁घंटे	-6155
icated	-6156
▁रब	-6157
▁Mot	-6158
▁aud	-6159
▁committed	-6160
▁completed	-6161
▁song	-6162
श्चित	-6163
्ता	-6164
▁approved	-6165
dd	-6166
▁pain	-6167
▁observ	-6168
▁morning	-6169
▁Bach	-6170
▁पूछता	-6171
▁चंडी	-6172
ague	-6173
द्व	-6174
▁Associ	-6175
▁सुझा	-6176
▁lodged	-6177
ze	-6178
▁उड़	-6179
▁बुरा	-6180
थी	-6181
▁ministers	-6182
▁fel	-6183
▁संके	-6184
▁gone	-6185
▁bodies	-6186
▁Railway	-6187
▁considered	-6188
ेह	-6189
▁rural	-6190
लंका	-6191
▁Ste	-6192
▁religious	-6193
▁establish	-6194
aily	-6195
agram	-6196
▁शुल्क	-6197
▁मनो	-6198
ृंखला	-6199
ार्मिक	-6200
▁Special	-6201
▁संस्कृति	-6202
▁connect	-6203
▁भरोसा	-6204
▁blood	-6205
▁Fil	-6206
▁ग्राह	-6207
▁prior	-6208
ohar	-6209
▁Sim	-6210
▁बेश	-6211
▁स्वागत	-6212
▁Kolkata	-6213
▁स्टेशन	-6214
क्षीय	-6215
▁scient	-6216
मार्ग	-6217
▁विशि	-6218
▁आयु	-6219
▁कोलकाता	-6220
▁धार्मिक	-6221
श्‍	-6222
▁Nath	-6223
▁Monday	-6224
▁roles	-6225
▁सिक	-6226
▁Amb	-6227
▁कड़ी	-6228
▁indeed	-6229
स्टर	-6230
▁Will	-6231
चु	-6232
▁reli	-6233
▁निम्न	-6234
cle	-6235
▁express	-6236
णे	-6237
irst	-6238
iple	-6239
▁dece	-6240
▁हिंदू	-6241
▁लं	-6242
hips	-6243
▁Medical	-6244
▁मुद्र	-6245
▁Friday	-6246
▁बुनिया	-6247
▁ang	-6248
▁border	-6249
▁बैंकों	-6250
riage	-6251
▁authorities	-6252
aching	-6253
▁नाय	-6254
▁प्रती	-6255
cement	-6256
▁अंग्रे	-6257
▁प्राधिक	-6258
▁Met	-6259
▁comb	-6260
▁हालात	-6261
▁सेट	-6262
▁trust	-6263
▁इलाकों	-6264
PF	-6265
यम	-6266
▁space	-6267
क्षम	-6268
▁जाय	-6269
▁मैचों	-6270
▁चेन्न	-6271
▁प्रतियोग	-6272
▁चीनी	-6273
हो	-6274
▁pat	-6275
फारिश	-6276
▁तारीख	-6277
▁देखें	-6278
ras	-6279
▁बहु	-6280
orrow	-6281
▁आनंद	-6282
▁उसको	-6283
▁presented	-6284
▁मनुष	-6285
▁consider	-6286
▁English	-6287
▁Most	-6288
raj	-6289
▁Pet	-6290
▁punish	-6291
▁सकें	-6292
rog	-6293
▁phys	-6294
craft	-6295
▁तीनों	-6296
▁’’	-6297
▁राजनाथ	-6298
िवर्स	-6299
▁encoura	-6300
लेट	-6301
▁Chandigarh	-6302
▁govern	-6303
▁facilities	-6304
▁squ	-6305
imate	-6306
▁दौरे	-6307
▁कब	-6308
▁स्वतंत्रता	-6309
utes	-6310
हरे	-6311
▁nom	-6312
▁हाईकोर्ट	-6313
vent	-6314
म्ब	-6315
मार्टम	-6316
्डी	-6317
चीन	-6318
▁Other	-6319
▁complet	-6320
▁रोकने	-6321
दाताओं	-6322
anda	-6323
▁ut	-6324
▁आशा	-6325
▁मेगापिक्सल	-6326
▁Pakistani	-6327
स्टम	-6328
▁आंद	-6329
▁चीज	-6330
▁गतिविधियों	-6331
stant	-6332
▁challen	-6333
▁RAM	-6334
▁ess	-6335
▁बाकी	-6336
rem	-6337
▁Exp	-6338
▁उपभो	-6339
iful	-6340
▁अनुरोध	-6341
्याज	-6342
▁Mand	-6343
▁military	-6344
धारा	-6345
▁सिफारिश	-6346
नगर	-6347
▁distrib	-6348
dy	-6349
pite	-6350
▁निश्चित	-6351
▁उल	-6352
▁गेंदबाज	-6353
▁enjoy	-6354
▁गौ	-6355
illed	-6356
ris	-6357
शाली	-6358
▁questions	-6359
▁हिंदी	-6360
▁दस्ता	-6361
▁Security	-6362
reedom	-6363
▁movement	-6364
ंतु	-6365
▁groups	-6366
▁श्रीलंका	-6367
▁cash	-6368
FC	-6369
▁sought	-6370
▁पहुंचा	-6371
ming	-6372
ाचार	-6373
▁किरदार	-6374
tery	-6375
▁wanted	-6376
▁शहरों	-6377
ruption	-6378
▁स्थानों	-6379
▁regular	-6380
▁करार	-6381
▁Asia	-6382
▁judge	-6383
▁उठाए	-6384
▁मौका	-6385
▁आतंकी	-6386
▁नियुक्त	-6387
▁Ur	-6388
दिन	-6389
▁giving	-6390
▁Instagram	-6391
डि	-6392
▁सत्ता	-6393
▁platform	-6394
▁%	-6395
सिक	-6396
▁समझौता	-6397
एसपी	-6398
book	-6399
▁रखना	-6400
ably	-6401
▁खराब	-6402
▁सन्	-6403
▁Ter	-6404
▁attempt	-6405
road	-6406
▁Your	-6407
▁defence	-6408
▁IT	-6409
▁पोस्टमार्टम	-6410
▁देती	-6411
▁propos	-6412
▁ठहरा	-6413
▁जीव	-6414
▁प्रयासों	-6415
▁गरीब	-6416
▁बातों	-6417
▁डिजिटल	-6418
""""	-6419
▁डो	-6420
▁sex	-6421
▁religion	-6422
▁whose	-6423
▁lower	-6424
de	-6425
पथ	-6426
▁आसान	-6427
▁operation	-6428
▁recorded	-6429
▁समु	-6430
▁alleg	-6431
ग़	-6432
▁conference	-6433
▁exerc	-6434
▁औद्योग	-6435
मती	-6436
▁saw	-6437
ेगा	-6438
co	-6439
▁दवा	-6440
▁looking	-6441
▁सीटें	-6442
▁conditions	-6443
jun	-6444
दाता	-6445
▁electric	-6446
▁टिकट	-6447
RD	-6448
▁hy	-6449
▁cere	-6450
▁Here	-6451
▁temper	-6452
▁संकट	-6453
ंकर	-6454
ोरेज	-6455
▁फुट	-6456
▁domestic	-6457
▁क्षेत्रीय	-6458
्न	-6459
न्‍द्र	-6460
▁Rajnath	-6461
▁qual	-6462
adha	-6463
रिए	-6464
▁आवास	-6465
▁सुझाव	-6466
cast	-6467
▁जिनके	-6468
हित	-6469
▁additional	-6470
▁डेटा	-6471
▁जिम्मेदारी	-6472
▁वायरल	-6473
त्कार	-6474
▁tit	-6475
body	-6476
PC	-6477
▁By	-6478
स्थिति	-6479
▁पूछताछ	-6480
▁ready	-6481
load	-6482
hel	-6483
▁मिलता	-6484
▁addition	-6485
कारात्मक	-6486
▁प्रभावी	-6487
▁दीप	-6488
rief	-6489
▁doctors	-6490
आईटी	-6491
युक्त	-6492
▁apply	-6493
▁कहानी	-6494
▁सक्षम	-6495
▁prime	-6496
वाली	-6497
▁झार	-6498
EO	-6499
dict	-6500
▁घाय	-6501
▁रॉय	-6502
▁आपका	-6503
डू	-6504
▁transport	-6505
▁acqu	-6506
स्थानों	-6507
▁जीएसटी	-6508
▁खोल	-6509
▁इंजी	-6510
▁Ver	-6511
▁wis	-6512
▁जाति	-6513
▁हिमा	-6514
▁increasing	-6515
क्टूबर	-6516
▁पैसे	-6517
▁प्रारंभ	-6518
▁Redmi	-6519
▁Gang	-6520
त्तीस	-6521
वेद	-6522
▁earn	-6523
hy	-6524
▁मानना	-6525
वासियों	-6526
▁शूट	-6527
▁तकनीकी	-6528
▁anti	-6529
ira	-6530
ene	-6531
▁vers	-6532
▁कहने	-6533
▁cover	-6534
mortem	-6535
▁cross	-6536
ighb	-6537
▁custom	-6538
नतम	-6539
▁Invest	-6540
▁ran	-6541
icide	-6542
▁complete	-6543
▁प्रतिबद्ध	-6544
▁प्राकृतिक	-6545
▁compr	-6546
cribed	-6547
▁Jhar	-6548
▁legal	-6549
▁ऊंच	-6550
▁billion	-6551
▁कार्यों	-6552
▁clos	-6553
▁Wed	-6554
India	-6555
▁अफग	-6556
▁half	-6557
▁पाल	-6558
▁revealed	-6559
nam	-6560
▁बेशक	-6561
▁bar	-6562
irmed	-6563
▁therefore	-6564
attis	-6565
▁Anil	-6566
▁सुनी	-6567
▁घायलों	-6568
opal	-6569
▁बराबर	-6570
oday	-6571
▁compared	-6572
▁फरार	-6573
ray	-6574
न्ना	-6575
▁पर्याप्त	-6576
▁लेना	-6577
▁Od	-6578
▁पूर्वी	-6579
▁पव	-6580
▁दाय	-6581
खित	-6582
श्रे	-6583
▁cy	-6584
▁प्रकाशित	-6585
▁located	-6586
▁अनिल	-6587
▁दायर	-6588
▁needed	-6589
▁anyone	-6590
▁बुला	-6591
लम	-6592
▁मुझ	-6593
▁worked	-6594
▁sports	-6595
▁अक्	-6596
▁रणनी	-6597
प्ट	-6598
▁joined	-6599
▁होनी	-6600
▁Republic	-6601
▁इनके	-6602
▁दौरा	-6603
▁संस्थानों	-6604
▁नियमों	-6605
कल्प	-6606
▁shar	-6607
▁नेटवर्क	-6608
िनी	-6609
iab	-6610
miss	-6611
▁श्रेणी	-6612
सलमान	-6613
▁Three	-6614
▁रहें	-6615
bir	-6616
▁Tal	-6617
▁NE	-6618
▁अनुच्छेद	-6619
प्रदेश	-6620
▁evidence	-6621
▁ask	-6622
▁Tri	-6623
▁Adity	-6624
▁Tha	-6625
▁स्टोरेज	-6626
▁operations	-6627
▁Econom	-6628
ows	-6629
्यूट	-6630
ोषण	-6631
▁दस्तावे	-6632
▁makes	-6633
▁संगीत	-6634
▁अक्षय	-6635
▁opposition	-6636
▁impact	-6637
▁ग्राम	-6638
itude	-6639
lied	-6640
quiry	-6641
कता	-6642
▁व्यक्तियों	-6643
▁बुनियादी	-6644
▁Follow	-6645
▁मंगल	-6646
▁चेन्नई	-6647
chay	-6648
▁Real	-6649
iant	-6650
mendment	-6651
▁moment	-6652
▁Foreign	-6653
▁नये	-6654
▁राजी	-6655
▁expect	-6656
▁इज	-6657
▁स्टार	-6658
▁साझे	-6659
▁round	-6660
▁Krish	-6661
्यो	-6662
▁गुणवत्ता	-6663
स्कृतिक	-6664
▁potential	-6665
▁कॉन्	-6666
oted	-6667
▁हथियार	-6668
▁छत्तीस	-6669
बाल	-6670
▁agency	-6671
▁परन्तु	-6672
▁quite	-6673
▁औद्योगिक	-6674
aught	-6675
लंघ	-6676
▁purpose	-6677
▁वाणिज्य	-6678
▁bur	-6679
▁लंबे	-6680
▁Paul	-6681
▁ट्विटर	-6682
▁Opp	-6683
▁Those	-6684
light	-6685
▁itself	-6686
▁culture	-6687
▁सफ	-6688
▁कुर	-6689
▁अपे	-6690
▁अक्टूबर	-6691
▁Women	-6692
▁Muslims	-6693
▁pen	-6694
attle	-6695
▁)	-6696
▁संक्रमण	-6697
▁गुना	-6698
▁विधाय	-6699
धरी	-6700
▁separ	-6701
▁खुदा	-6702
▁मुखर्जी	-6703
lus	-6704
▁passengers	-6705
▁Sin	-6706
▁protect	-6707
▁स्टी	-6708
▁मिन	-6709
वां	-6710
सीय	-6711
राष्ट्रपति	-6712
▁इंस	-6713
▁सरकारों	-6714
▁king	-6715
▁संगठनों	-6716
▁कर्मचारी	-6717
िक्र	-6718
▁deploy	-6719
▁सामग्री	-6720
▁proposed	-6721
▁Ltd	-6722
▁बिग	-6723
▁ब्रिटेन	-6724
iminal	-6725
▁talks	-6726
नाएं	-6727
sec	-6728
अन	-6729
तीश	-6730
नेस	-6731
▁Jharkhand	-6732
▁Bachchan	-6733
ruit	-6734
▁जापान	-6735
int	-6736
▁constituency	-6737
▁पाई	-6738
▁strength	-6739
▁Aksh	-6740
▁innov	-6741
▁विशिष्ट	-6742
▁चंडीगढ़	-6743
ेंशन	-6744
▁prepared	-6745
▁रोल	-6746
▁closed	-6747
▁वहाँ	-6748
कुर	-6749
▁हिमाचल	-6750
▁wel	-6751
▁मिलियन	-6752
▁minor	-6753
▁फाइनल	-6754
▁watch	-6755
▁century	-6756
▁इंद	-6757
▁एक्सप	-6758
▁justice	-6759
ires	-6760
फोट	-6761
▁carried	-6762
▁समझौते	-6763
▁custody	-6764
▁wal	-6765
CT	-6766
▁कार्या	-6767
▁British	-6768
▁वास्तविक	-6769
▁provisions	-6770
आईआर	-6771
▁सैन्य	-6772
▁vehicle	-6773
▁सृ	-6774
▁Election	-6775
inary	-6776
▁Dhoni	-6777
▁सराह	-6778
racy	-6779
▁histor	-6780
▁safe	-6781
▁rupe	-6782
▁phase	-6783
▁talk	-6784
▁नयी	-6785
▁पूछा	-6786
▁पंजी	-6787
▁Gal	-6788
रीन	-6789
▁टेली	-6790
▁implementation	-6791
▁rise	-6792
▁Civil	-6793
attisgarh	-6794
▁परिच	-6795
▁kept	-6796
▁speed	-6797
▁safety	-6798
▁रोड	-6799
▁Gupt	-6800
urt	-6801
▁कही	-6802
▁Article	-6803
▁Child	-6804
▁Senior	-6805
▁hol	-6806
▁neighb	-6807
▁Services	-6808
▁status	-6809
▁तापमान	-6810
▁Author	-6811
▁दाम	-6812
▁model	-6813
uel	-6814
▁आती	-6815
▁worship	-6816
▁तनाव	-6817
▁यात्रियों	-6818
मूर्ति	-6819
▁अज	-6820
▁फायदा	-6821
मति	-6822
apur	-6823
opra	-6824
▁Information	-6825
▁आतंकवादी	-6826
▁investigating	-6827
achin	-6828
▁bats	-6829
▁प्रार्थ	-6830
लंघन	-6831
uesday	-6832
▁opportunities	-6833
merce	-6834
▁respectively	-6835
कां	-6836
▁व्‍य	-6837
▁रैम	-6838
▁आदित्य	-6839
▁मंच	-6840
▁undert	-6841
▁हस्ताक्षर	-6842
सच	-6843
oting	-6844
डीपी	-6845
▁speak	-6846
▁क्रिया	-6847
▁modern	-6848
asons	-6849
after	-6850
एसएस	-6851
न्त	-6852
▁Paw	-6853
▁दबाव	-6854
सव	-6855
undred	-6856
▁ton	-6857
▁सौंप	-6858
▁चाहती	-6859
▁भ्रष्ट	-6860
नाक	-6861
▁Nep	-6862
▁झारखंड	-6863
▁विजे	-6864
▁staff	-6865
▁नक	-6866
▁Read	-6867
▁छूट	-6868
▁सांस्कृतिक	-6869
सीपी	-6870
▁changes	-6871
▁below	-6872
hai	-6873
्वा	-6874
▁आजा	-6875
▁credit	-6876
▁मुद्रा	-6877
▁cultural	-6878
▁तुम्हारी	-6879
▁महामारी	-6880
▁Scheme	-6881
▁रद्द	-6882
back	-6883
▁राव	-6884
▁Nag	-6885
▁organised	-6886
bar	-6887
▁Di	-6888
cipal	-6889
▁Over	-6890
तें	-6891
ल्ट	-6892
▁BCCI	-6893
▁gets	-6894
IN	-6895
▁Mess	-6896
▁lock	-6897
▁कहता	-6898
▁अध्या	-6899
▁prevent	-6900
ora	-6901
inated	-6902
▁takes	-6903
▁College	-6904
▁leadership	-6905
▁pil	-6906
▁जाकर	-6907
▁दलों	-6908
▁डायरे	-6909
▁श्रृंखला	-6910
▁Tuesday	-6911
▁Mission	-6912
▁terrorists	-6913
▁adop	-6914
तिहासिक	-6915
▁सिस्टम	-6916
rant	-6917
▁Power	-6918
▁built	-6919
Ph	-6920
▁deceased	-6921
▁भाषण	-6922
▁बनाना	-6923
संग	-6924
ening	-6925
रद	-6926
▁MS	-6927
▁तैनात	-6928
▁rules	-6929
▁firm	-6930
▁mil	-6931
▁Apart	-6932
▁proceed	-6933
▁चै	-6934
▁शुभकाम	-6935
▁Zeal	-6936
▁आंदोलन	-6937
ovid	-6938
क्‍ति	-6939
▁जमीन	-6940
▁फेस	-6941
ूँ	-6942
▁सर्वश्रे	-6943
ंव	-6944
enced	-6945
▁seeking	-6946
▁महानि	-6947
▁Ge	-6948
▁Kul	-6949
▁सिर	-6950
elines	-6951
▁सेंसर	-6952
▁चुनावों	-6953
▁spokesperson	-6954
▁Inf	-6955
▁drug	-6956
▁व्यवहार	-6957
▁Science	-6958
▁alliance	-6959
▁मसीह	-6960
▁वकील	-6961
▁houses	-6962
ampions	-6963
▁बीमा	-6964
▁सहमति	-6965
know	-6966
oo	-6967
▁इमर	-6968
▁deaths	-6969
▁प्रार्थना	-6970
▁funds	-6971
RO	-6972
▁ग़	-6973
▁picture	-6974
▁मुकाबला	-6975
▁संचालन	-6976
▁fulf	-6977
ोग्राम	-6978
▁di	-6979
ES	-6980
▁late	-6981
gment	-6982
▁आगामी	-6983
▁युवाओं	-6984
▁Zealand	-6985
▁Christian	-6986
▁ग्रह	-6987
ौन	-6988
▁underway	-6989
र्प	-6990
ursday	-6991
▁रहना	-6992
▁stake	-6993
कै	-6994
▁signed	-6995
▁appreci	-6996
ott	-6997
▁चैन	-6998
निस	-6999
▁नही	-7000
▁आलो	-7001
मक	-7002
राव	-7003
▁Kore	-7004
elling	-7005
दाबाद	-7006
ंजन	-7007
कीय	-7008
▁send	-7009
▁diesel	-7010
▁manner	-7011
▁सर्वे	-7012
▁सम्ब	-7013
▁मित्र	-7014
▁फ्रांस	-7015
▁वॉ	-7016
▁शख	-7017
▁Odisha	-7018
▁भगवान	-7019
▁notice	-7020
▁टिप्पणी	-7021
▁employment	-7022
▁उल्लंघन	-7023
▁योजनाओं	-7024
▁terrorism	-7025
▁forg	-7026
▁daily	-7027
ितों	-7028
्रम	-7029
▁wants	-7030
ique	-7031
▁Div	-7032
IP	-7033
nesday	-7034
hem	-7035
▁black	-7036
▁Sunday	-7037
भाष	-7038
▁direction	-7039
▁प्रेस	-7040
▁suicide	-7041
▁presence	-7042
kash	-7043
▁संघर्ष	-7044
▁आउट	-7045
▁मध	-7046
▁मंत्रिमंडल	-7047
IA	-7048
▁अन्तर्गत	-7049
ww	-7050
▁freedom	-7051
▁सोमवार	-7052
▁injuries	-7053
▁fourth	-7054
▁Chopra	-7055
▁मीटर	-7056
▁congrat	-7057
▁estim	-7058
▁जाएँ	-7059
EL	-7060
▁धोनी	-7061
▁यूनिवर्स	-7062
▁हस्त	-7063
▁जहाँ	-7064
▁viral	-7065
▁राज्यसभा	-7066
▁Let	-7067
▁Ins	-7068
▁Water	-7069
▁उच्चतम	-7070
'.	-7071
▁character	-7072
▁इस्तीफा	-7073
▁दृष्ट	-7074
▁देर	-7075
▁स्थिर	-7076
▁Association	-7077
▁married	-7078
▁समाचार	-7079
▁आग्रह	-7080
▁RBI	-7081
▁file	-7082
▁डीजल	-7083
▁plant	-7084
▁फल	-7085
▁मिट	-7086
▁दोषी	-7087
▁formed	-7088
्हा	-7089
▁bi	-7090
सीटी	-7091
साइ	-7092
▁discussed	-7093
रू	-7094
▁Himachal	-7095
▁चेयर	-7096
▁वार्ता	-7097
ीप	-7098
▁journal	-7099
ixel	-7100
लिखित	-7101
▁बहन	-7102
ades	-7103
▁Service	-7104
▁Sol	-7105
▁बचाव	-7106
▁संकेत	-7107
▁established	-7108
▁Kam	-7109
▁Chan	-7110
▁शख्स	-7111
▁ways	-7112
ानिस्तान	-7113
▁ICC	-7114
▁खुल	-7115
▁repl	-7116
खी	-7117
▁जला	-7118
▁बच्चन	-7119
लोड	-7120
▁exc	-7121
▁Students	-7122
णन	-7123
▁जरूर	-7124
▁लड़ाई	-7125
ammed	-7126
ाइड	-7127
▁Thursday	-7128
estern	-7129
▁पुस्तक	-7130
▁laws	-7131
ियत	-7132
▁Wednesday	-7133
▁चौधरी	-7134
▁disease	-7135
▁demanded	-7136
pond	-7137
दूर	-7138
▁Following	-7139
▁everyone	-7140
▁Akshay	-7141
▁confirmed	-7142
▁सत्य	-7143
▁सवार	-7144
▁निपटने	-7145
ask	-7146
▁फंड	-7147
िपक्षीय	-7148
iy	-7149
ैंप	-7150
▁Trib	-7151
▁anim	-7152
▁Organ	-7153
▁Satur	-7154
hawan	-7155
▁profession	-7156
▁सेवाएं	-7157
▁?	-7158
नै	-7159
pping	-7160
ixed	-7161
▁विवाह	-7162
uter	-7163
▁वेस्ट	-7164
िसू	-7165
▁victory	-7166
▁respond	-7167
धारण	-7168
▁शपथ	-7169
▁Chhattisgarh	-7170
akhand	-7171
ox	-7172
▁ऑफिस	-7173
▁continued	-7174
▁सारी	-7175
▁Gold	-7176
बत	-7177
▁Plan	-7178
▁pros	-7179
दो	-7180
बुक	-7181
▁David	-7182
▁music	-7183
▁निकट	-7184
▁appe	-7185
▁north	-7186
प्रिय	-7187
▁सोनिया	-7188
▁assistance	-7189
▁Goa	-7190
▁अक	-7191
▁god	-7192
▁कंट	-7193
lymp	-7194
ब्‍	-7195
▁धरती	-7196
ंगाना	-7197
▁Today	-7198
▁relief	-7199
▁subs	-7200
ड्डा	-7201
▁Tata	-7202
ables	-7203
▁इंजीनियर	-7204
▁विधायकों	-7205
ternet	-7206
ूद	-7207
▁arri	-7208
▁flood	-7209
▁कानूनी	-7210
▁लु	-7211
▁commission	-7212
तरे	-7213
▁gas	-7214
▁Tra	-7215
▁specific	-7216
▁संपत्ति	-7217
ज़ी	-7218
▁लाए	-7219
▁गोवा	-7220
▁सिवा	-7221
):	-7222
▁ईरान	-7223
vention	-7224
हाद	-7225
▁चोप	-7226
▁plans	-7227
▁राष्‍ट्रीय	-7228
▁traffic	-7229
▁Telangana	-7230
▁schemes	-7231
▁लीटर	-7232
▁answer	-7233
ault	-7234
gram	-7235
▁average	-7236
दीय	-7237
lear	-7238
▁votes	-7239
▁वनडे	-7240
▁max	-7241
▁शही	-7242
▁दाखिल	-7243
▁कोरिया	-7244
▁खाते	-7245
▁Lim	-7246
▁Even	-7247
▁आखिर	-7248
▁नायडू	-7249
▁भागीदारी	-7250
कोर	-7251
▁Shan	-7252
▁प्राप	-7253
पाद	-7254
▁प्रश्न	-7255
▁आएंगे	-7256
▁Olymp	-7257
▁provision	-7258
▁ste	-7259
▁path	-7260
▁Cr	-7261
alled	-7262
▁Lanka	-7263
▁Sonia	-7264
▁सर्वश्रेष्ठ	-7265
▁युवक	-7266
▁BS	-7267
▁assess	-7268
▁तैयारी	-7269
▁Tax	-7270
▁एप	-7271
▁ऐतिहासिक	-7272
▁First	-7273
▁American	-7274
वर्ती	-7275
▁pack	-7276
▁धी	-7277
्यास	-7278
ारों	-7279
गें	-7280
▁Bhatt	-7281
pro	-7282
▁एक्ट्रेस	-7283
▁न्यायमूर्ति	-7284
▁ir	-7285
▁destro	-7286
▁जानी	-7287
▁लॉक	-7288
▁caused	-7289
▁कने	-7290
▁झु	-7291
▁Saturday	-7292
▁handed	-7293
▁जवान	-7294
शे	-7295
▁stage	-7296
▁कब्जे	-7297
▁परेशान	-7298
ME	-7299
▁इकाई	-7300
▁Net	-7301
▁मस्	-7302
▁आकर्ष	-7303
ाले	-7304
▁occur	-7305
▁हाउस	-7306
Ah	-7307
uv	-7308
▁shot	-7309
▁इच्छा	-7310
सीए	-7311
माणु	-7312
▁lif	-7313
▁Char	-7314
श्चा	-7315
▁everything	-7316
US	-7317
use	-7318
▁Arvind	-7319
▁Uttarakhand	-7320
▁जहा	-7321
--	-7322
▁नौसेना	-7323
▁उठाया	-7324
▁Since	-7325
▁अजय	-7326
ager	-7327
▁आयात	-7328
कूल	-7329
▁नियमित	-7330
mercial	-7331
uri	-7332
pendence	-7333
▁Arab	-7334
▁expand	-7335
िश्ते	-7336
▁rates	-7337
▁site	-7338
▁सारा	-7339
▁गोल	-7340
▁Later	-7341
ester	-7342
▁seized	-7343
▁Per	-7344
▁इन्हें	-7345
▁फ़िल्म	-7346
tained	-7347
ॉस	-7348
▁names	-7349
▁अक्सर	-7350
▁pressure	-7351
▁लेंगे	-7352
▁शब्	-7353
▁कराई	-7354
▁reform	-7355
As	-7356
बान	-7357
▁Fund	-7358
▁Kal	-7359
▁बलों	-7360
▁सम्मानित	-7361
▁demon	-7362
▁marriage	-7363
ेड़	-7364
ricke	-7365
▁failed	-7366
▁रिट	-7367
▁सका	-7368
▁sched	-7369
▁source	-7370
This	-7371
घु	-7372
▁allegedly	-7373
ript	-7374
▁evil	-7375
▁आसपास	-7376
▁आधुनिक	-7377
ोने	-7378
▁property	-7379
ony	-7380
▁अभिन	-7381
▁coal	-7382
▁latest	-7383
atever	-7384
जीलैंड	-7385
जीव	-7386
▁matches	-7387
▁ago	-7388
▁अखिल	-7389
▁शूटिंग	-7390
ector	-7391
▁वैज्ञानिक	-7392
▁स्टेट	-7393
▁existing	-7394
▁पूंजी	-7395
▁Gh	-7396
सचिव	-7397
▁agriculture	-7398
िकोण	-7399
umbers	-7400
▁gives	-7401
▁घरों	-7402
▁Agriculture	-7403
▁influ	-7404
▁CP	-7405
clus	-7406
स्‍ट	-7407
▁रखता	-7408
▁Naid	-7409
बादी	-7410
ोतरी	-7411
▁offered	-7412
▁rally	-7413
ovind	-7414
▁भोजन	-7415
▁referred	-7416
नो	-7417
▁चित्र	-7418
▁एडम	-7419
मानत	-7420
CA	-7421
▁Gupta	-7422
▁चीफ	-7423
▁resc	-7424
▁importance	-7425
क्रो	-7426
▁bilateral	-7427
▁पड़ता	-7428
▁टूर्	-7429
▁nations	-7430
▁natural	-7431
▁ओल	-7432
आत	-7433
▁rule	-7434
▁डाला	-7435
▁arrange	-7436
बिनेट	-7437
everal	-7438
▁Na	-7439
▁धार	-7440
▁पृथ्वी	-7441
▁moved	-7442
▁duty	-7443
▁Rao	-7444
▁extended	-7445
▁Book	-7446
▁तुम्हारा	-7447
▁effective	-7448
्षिक	-7449
▁शुक्रवार	-7450
▁promote	-7451
▁aircraft	-7452
▁mentioned	-7453
कुल	-7454
फ्रेंस	-7455
▁लोकतंत्र	-7456
▁centre	-7457
ँच	-7458
▁इरा	-7459
▁राजीव	-7460
▁तेलंगाना	-7461
▁कीमतों	-7462
खन	-7463
राज्य	-7464
▁majority	-7465
▁आरोपों	-7466
▁सीधे	-7467
▁participated	-7468
itions	-7469
ental	-7470
▁इंस्टा	-7471
▁link	-7472
▁Nagar	-7473
▁अनिवार	-7474
▁छत्तीसगढ़	-7475
▁thou	-7476
▁प्रतिष्ठ	-7477
▁रोम	-7478
▁box	-7479
▁Afghanistan	-7480
▁मुक्त	-7481
▁Abd	-7482
▁सिविल	-7483
ex	-7484
▁मिलती	-7485
▁आखिरी	-7486
▁heard	-7487
▁didnt	-7488
मोहन	-7489
▁fig	-7490
▁डिजा	-7491
pects	-7492
बो	-7493
▁ठाकुर	-7494
▁Ajay	-7495
▁Boss	-7496
▁Thak	-7497
▁किन	-7498
▁परमाणु	-7499
▁changed	-7500
▁surely	-7501
▁बजाय	-7502
▁मरी	-7503
ुरु	-7504
que	-7505
▁अशोक	-7506
▁inside	-7507
▁Jay	-7508
istic	-7509
वह	-7510
▁Express	-7511
पादन	-7512
▁डिप	-7513
▁नेपाल	-7514
▁सेक्टर	-7515
▁राजमार्ग	-7516
▁pictures	-7517
फॉ	-7518
▁Naidu	-7519
▁mand	-7520
▁red	-7521
रिएंट	-7522
▁Up	-7523
▁यूनिवर्सिटी	-7524
▁चर	-7525
लान	-7526
▁जीता	-7527
▁द्विपक्षीय	-7528
▁Face	-7529
नामेंट	-7530
▁tried	-7531
चि	-7532
▁उन्	-7533
itial	-7534
▁provides	-7535
▁plea	-7536
▁पूजा	-7537
▁Russia	-7538
▁GB	-7539
▁almost	-7540
एसई	-7541
▁via	-7542
▁रखे	-7543
▁sides	-7544
lip	-7545
वर्धन	-7546
▁सुख	-7547
▁टाटा	-7548
डाउन	-7549
▁हवा	-7550
▁ceremony	-7551
ार्द	-7552
▁internal	-7553
▁विनिर्	-7554
▁extrem	-7555
▁denied	-7556
▁कार्यक्रमों	-7557
▁सोने	-7558
▁purch	-7559
venue	-7560
▁निर्वाचन	-7561
▁Several	-7562
utions	-7563
▁alone	-7564
्‍ली	-7565
▁pers	-7566
ondon	-7567
मह	-7568
▁जुड़ी	-7569
▁वितरण	-7570
▁टूर्नामेंट	-7571
▁दृष्टि	-7572
▁सराहना	-7573
▁नोटिस	-7574
▁मिलते	-7575
▁villages	-7576
▁कार्यकर्ताओं	-7577
टका	-7578
▁CA	-7579
▁biggest	-7580
▁Inter	-7581
▁allegations	-7582
▁ज़ि	-7583
osing	-7584
▁कक्षा	-7585
▁जेटली	-7586
▁News	-7587
▁छोटी	-7588
▁petrol	-7589
rew	-7590
▁मनी	-7591
▁समक्ष	-7592
पीएफ	-7593
▁तस्वीरें	-7594
▁नियु	-7595
▁अधिकांश	-7596
▁मुसलमान	-7597
▁Bas	-7598
▁अहमद	-7599
सीसीआई	-7600
▁river	-7601
जोर	-7602
▁cell	-7603
▁शासित	-7604
▁Bad	-7605
क्षेप	-7606
▁अधिसू	-7607
▁विवरण	-7608
▁continu	-7609
▁Rukh	-7610
▁फैला	-7611
▁turned	-7612
▁Op	-7613
▁Nepal	-7614
▁बीमारी	-7615
▁remained	-7616
▁bail	-7617
▁अरविंद	-7618
▁benefits	-7619
▁Mukher	-7620
डब्ल्यू	-7621
ालित	-7622
▁दिखाया	-7623
छा	-7624
▁रवि	-7625
▁matters	-7626
▁Sports	-7627
दृ	-7628
▁संसदीय	-7629
▁वाहनों	-7630
▁कोय	-7631
▁Management	-7632
डीए	-7633
▁trains	-7634
chi	-7635
▁खिलाड़ियों	-7636
▁student	-7637
olution	-7638
▁Note	-7639
▁प्रदू	-7640
▁leav	-7641
▁bless	-7642
▁दीपिका	-7643
▁Covid	-7644
फान	-7645
▁इंटरनेट	-7646
▁Office	-7647
▁programmes	-7648
▁seek	-7649
ंश	-7650
▁ओड	-7651
▁scored	-7652
▁प्रतियोगिता	-7653
▁roads	-7654
▁wid	-7655
▁अंतरिक्ष	-7656
▁forth	-7657
▁units	-7658
▁Janata	-7659
खे	-7660
▁बेंगल	-7661
▁निशाना	-7662
▁pand	-7663
निक	-7664
क्कर	-7665
▁scheduled	-7666
pri	-7667
▁Ashok	-7668
▁nearly	-7669
▁दिये	-7670
JD	-7671
▁लड़की	-7672
▁काउ	-7673
▁कैबिनेट	-7674
भू	-7675
▁विद्यार्थियों	-7676
▁Prof	-7677
▁प्रभु	-7678
इयों	-7679
▁इस्लाम	-7680
▁Speaking	-7681
▁rape	-7682
▁रैली	-7683
▁इंस्टाग्राम	-7684
▁sym	-7685
▁विश्‍वास	-7686
ठे	-7687
▁teachers	-7688
श्वर	-7689
▁punishment	-7690
▁Welfare	-7691
xa	-7692
▁जागर	-7693
▁पाक	-7694
▁resources	-7695
▁सौर	-7696
▁उत्पन्न	-7697
टिंग	-7698
रुद्ध	-7699
▁स्रो	-7700
▁reasons	-7701
▁Tour	-7702
▁hot	-7703
▁crime	-7704
▁goods	-7705
▁primary	-7706
▁unit	-7707
▁sale	-7708
▁railway	-7709
▁category	-7710
ayan	-7711
▁shows	-7712
▁tourn	-7713
▁अब्द	-7714
▁इमरान	-7715
▁खुलासा	-7716
▁flow	-7717
▁brothers	-7718
▁आरंभ	-7719
▁speech	-7720
▁प्राधिकरण	-7721
▁accounts	-7722
▁NCP	-7723
▁पश्चिमी	-7724
फो	-7725
▁fans	-7726
phas	-7727
▁Sum	-7728
▁Officer	-7729
रुख	-7730
▁John	-7731
▁bill	-7732
▁cop	-7733
▁Sinha	-7734
▁योगी	-7735
rad	-7736
▁Their	-7737
▁south	-7738
▁users	-7739
▁Donald	-7740
▁सेंटर	-7741
▁nature	-7742
थे	-7743
▁budget	-7744
▁mark	-7745
▁कारणों	-7746
▁कॉल	-7747
▁उठाने	-7748
▁सप	-7749
▁ग्रुप	-7750
▁निर्भर	-7751
anger	-7752
▁प्रत्या	-7753
▁कमांड	-7754
ांज	-7755
न्‍य	-7756
द्दीन	-7757
▁approach	-7758
▁published	-7759
▁responsible	-7760
स्म	-7761
ties	-7762
icked	-7763
▁try	-7764
▁PTI	-7765
▁सेल	-7766
▁चक्र	-7767
▁Deepika	-7768
▁counter	-7769
though	-7770
▁From	-7771
▁facing	-7772
▁पौ	-7773
▁Sector	-7774
▁पवित्र	-7775
बारा	-7776
▁digital	-7777
▁योग्य	-7778
▁जाह	-7779
)।	-7780
▁visited	-7781
▁रहेगी	-7782
▁Us	-7783
▁अनिवार्य	-7784
▁शुभकामनाएं	-7785
ball	-7786
oper	-7787
gic	-7788
▁गईं	-7789
▁drink	-7790
omi	-7791
टिल	-7792
▁War	-7793
▁pra	-7794
▁critical	-7795
aches	-7796
▁challenges	-7797
▁महासचिव	-7798
▁girls	-7799
wat	-7800
ल्ल	-7801
▁Qu	-7802
,""""	-7803
▁Class	-7804
देव	-7805
▁normal	-7806
where	-7807
▁पां	-7808
▁democracy	-7809
न्या	-7810
▁easy	-7811
▁जोड़	-7812
▁अके	-7813
▁वार्षिक	-7814
▁सम्	-7815
▁depart	-7816
▁lin	-7817
▁अफगानिस्तान	-7818
CB	-7819
▁essential	-7820
▁उत्पादों	-7821
▁appoint	-7822
▁न्यायिक	-7823
unt	-7824
म्‍	-7825
',	-7826
▁vote	-7827
▁suspend	-7828
▁x	-7829
▁स्थल	-7830
▁opening	-7831
▁मूसा	-7832
पूर्वक	-7833
▁काल	-7834
▁hundred	-7835
anced	-7836
▁Neh	-7837
iddle	-7838
▁बुध	-7839
.,	-7840
▁भट्ट	-7841
▁agreement	-7842
भाषा	-7843
▁लाइन	-7844
ET	-7845
▁\""	-7846
axy	-7847
तो	-7848
▁विज्ञ	-7849
osh	-7850
▁चोपड़ा	-7851
▁AAP	-7852
ding	-7853
▁Jait	-7854
▁initiative	-7855
▁जर्मनी	-7856
ोत्तर	-7857
▁लाया	-7858
श्वास	-7859
▁bal	-7860
▁जताई	-7861
▁greater	-7862
▁Are	-7863
▁couple	-7864
veer	-7865
▁उपराष्ट्रपति	-7866
ार्थी	-7867
▁industrial	-7868
gap	-7869
▁ताकत	-7870
ously	-7871
स्‍त	-7872
ुरा	-7873
▁अधिकतम	-7874
▁सूच	-7875
▁receive	-7876
दाय	-7877
▁disbel	-7878
▁comment	-7879
▁निरा	-7880
▁आकाश	-7881
▁hum	-7882
deep	-7883
▁esc	-7884
रत	-7885
▁तत्व	-7886
▁बताते	-7887
▁cricke	-7888
▁पदार्थ	-7889
▁risk	-7890
▁growing	-7891
▁बाढ़	-7892
▁भ्रष्टाचार	-7893
▁राष्‍ट्र	-7894
▁डिजाइन	-7895
▁व्यक्तिगत	-7896
▁eyes	-7897
▁चलता	-7898
▁न्यूनतम	-7899
एमसी	-7900
ini	-7901
▁लोकप्रिय	-7902
▁soldiers	-7903
oud	-7904
▁contain	-7905
▁आह	-7906
▁मनुष्य	-7907
▁सलाहकार	-7908
▁reply	-7909
▁चढ़	-7910
▁Aam	-7911
▁London	-7912
▁लीग	-7913
ON	-7914
▁challenge	-7915
▁CEO	-7916
▁maximum	-7917
▁गाय	-7918
▁silver	-7919
ratic	-7920
igence	-7921
▁न्यूजीलैंड	-7922
▁Mukherjee	-7923
्लो	-7924
ulations	-7925
▁Kingdom	-7926
▁तोड़	-7927
standing	-7928
▁Asian	-7929
▁enough	-7930
▁ड्राइ	-7931
▁बाय	-7932
▁Comp	-7933
▁आईटी	-7934
▁deleg	-7935
mohan	-7936
▁Bigg	-7937
▁network	-7938
▁Control	-7939
eness	-7940
▁हिन्द	-7941
ping	-7942
▁समृ	-7943
ricultural	-7944
▁जाओ	-7945
▁पहा	-7946
▁lockdown	-7947
▁बेहत	-7948
▁शाहरुख	-7949
▁गर्म	-7950
▁सिंध	-7951
▁Facebook	-7952
▁तथ	-7953
▁Dhar	-7954
▁Cur	-7955
▁पारित	-7956
▁आईपीएल	-7957
▁आयुक्त	-7958
न्हा	-7959
▁fre	-7960
▁evening	-7961
▁होंगी	-7962
▁numbers	-7963
▁सिंग	-7964
▁सीमित	-7965
▁मंगलवार	-7966
▁जीतने	-7967
र्द	-7968
▁soul	-7969
▁urged	-7970
▁career	-7971
▁Witness	-7972
▁रजिस्ट	-7973
▁जिम्मेदार	-7974
▁favour	-7975
▁army	-7976
▁धन्य	-7977
▁रखें	-7978
▁पेंशन	-7979
▁परिवारों	-7980
▁Result	-7981
ili	-7982
▁opened	-7983
▁नौकरी	-7984
▁text	-7985
▁छुट	-7986
▁Food	-7987
जर्स	-7988
▁आपने	-7989
▁छोड़कर	-7990
▁चेयरमैन	-7991
▁निश्च	-7992
▁अंड	-7993
संख	-7994
▁कार्यकारी	-7995
न्वयन	-7996
▁pandemic	-7997
astern	-7998
ोसिए	-7999
▁गुप्ता	-8000
▁भंड	-8001
rep	-8002
otal	-8003
▁Realme	-8004
▁गिरफ्तारी	-8005
▁Program	-8006
stitutional	-8007
ranch	-8008
▁ब्याज	-8009
BJP	-8010
▁besides	-8011
▁Anand	-8012
▁Film	-8013
uls	-8014
▁range	-8015
विक	-8016
rees	-8017
वानों	-8018
je	-8019
दूस	-8020
▁Fl	-8021
ैट	-8022
ौती	-8023
▁अल्प	-8024
▁spiritual	-8025
▁lay	-8026
▁player	-8027
नाम	-8028
▁elected	-8029
▁चलने	-8030
▁save	-8031
▁Arjun	-8032
ांतर	-8033
▁फ्रंट	-8034
▁विरोधी	-8035
▁राजप	-8036
▁स्कूलों	-8037
▁जरिये	-8038
ाये	-8039
▁rejected	-8040
▁श्रीमती	-8041
▁मोटर	-8042
डर	-8043
▁UK	-8044
▁science	-8045
▁कमा	-8046
▁attention	-8047
▁levels	-8048
▁fine	-8049
▁दूरी	-8050
▁ordered	-8051
▁विज	-8052
▁थाना	-8053
rovers	-8054
▁equal	-8055
▁मैने	-8056
▁सदन	-8057
▁markets	-8058
▁temperature	-8059
wide	-8060
▁broad	-8061
▁बीमार	-8062
▁urban	-8063
▁लॉकडाउन	-8064
▁note	-8065
erjee	-8066
▁प्राचीन	-8067
▁समस्याओं	-8068
▁वीर	-8069
▁पश्चा	-8070
▁Project	-8071
▁corruption	-8072
▁innings	-8073
रीय	-8074
▁prob	-8075
▁Compan	-8076
ंपिक	-8077
▁मेह	-8078
▁शब्दों	-8079
सु	-8080
iversary	-8081
▁posted	-8082
िताभ	-8083
▁विपक्ष	-8084
isf	-8085
िना	-8086
▁हफ्	-8087
▁ओडिशा	-8088
▁निर्माता	-8089
▁सख्त	-8090
▁destroy	-8091
▁mount	-8092
▁Chandra	-8093
▁beat	-8094
▁पर्व	-8095
▁दया	-8096
▁attacks	-8097
▁collabor	-8098
▁लिखित	-8099
▁Conference	-8100
▁Bharati	-8101
▁Thakur	-8102
नन	-8103
arc	-8104
वाणी	-8105
▁आबादी	-8106
▁consult	-8107
▁Authority	-8108
▁hop	-8109
▁knows	-8110
▁अंब	-8111
▁vision	-8112
▁prepar	-8113
▁Leg	-8114
▁crores	-8115
rupt	-8116
▁इतनी	-8117
▁अवै	-8118
gency	-8119
▁chairman	-8120
▁औसत	-8121
ाइन	-8122
्मा	-8123
▁बुरी	-8124
▁किंग	-8125
▁celebrated	-8126
▁facilit	-8127
pat	-8128
▁अर्था	-8129
▁अर्जुन	-8130
▁बुधवार	-8131
▁लंबी	-8132
आप	-8133
▁sections	-8134
▁Hon	-8135
सिद्ध	-8136
▁वर्षीय	-8137
▁adj	-8138
▁देवी	-8139
्मी	-8140
▁रिल	-8141
▁विश्‍व	-8142
▁Post	-8143
▁गोयल	-8144
▁felt	-8145
▁fif	-8146
alse	-8147
पीसी	-8148
▁जमानत	-8149
▁मंत्रियों	-8150
▁Srin	-8151
▁CB	-8152
▁प्लान	-8153
unicipal	-8154
▁हिस्सों	-8155
▁छि	-8156
▁यात्री	-8157
▁Bhav	-8158
▁लंदन	-8159
▁आलोचना	-8160
▁withdra	-8161
emy	-8162
▁टाइ	-8163
▁Enter	-8164
▁log	-8165
▁डाउन	-8166
▁sin	-8167
▁विस्तृत	-8168
▁दृष्टिकोण	-8169
▁break	-8170
▁Car	-8171
ogle	-8172
▁exercise	-8173
▁setting	-8174
▁City	-8175
▁कवि	-8176
▁रिस	-8177
▁ओपन	-8178
▁खतरा	-8179
ny	-8180
▁सर्वो	-8181
▁शिखर	-8182
▁strike	-8183
anth	-8184
▁agencies	-8185
▁हिस	-8186
▁hear	-8187
▁actually	-8188
▁Sid	-8189
क्का	-8190
▁नागरिकता	-8191
▁गंगा	-8192
मुझे	-8193
▁Bus	-8194
▁Limited	-8195
▁नाग	-8196
्कुल	-8197
भूत	-8198
▁eld	-8199
▁उद्ध	-8200
vt	-8201
▁Whats	-8202
▁अब्दुल	-8203
पीय	-8204
▁thus	-8205
मल	-8206
▁proposal	-8207
▁तंत्र	-8208
▁विरुद्ध	-8209
va	-8210
रक	-8211
uddin	-8212
▁Rajput	-8213
ented	-8214
▁systems	-8215
हे	-8216
▁Vid	-8217
▁जाएं	-8218
▁spoke	-8219
▁monitor	-8220
▁Vik	-8221
पो	-8222
▁events	-8223
oe	-8224
▁tom	-8225
▁हफ्ते	-8226
गज	-8227
वायु	-8228
’’	-8229
oured	-8230
iles	-8231
▁bound	-8232
EC	-8233
▁बेच	-8234
▁Ac	-8235
▁Christians	-8236
▁ट्रै	-8237
ृति	-8238
▁fresh	-8239
▁दुक	-8240
▁goes	-8241
कियों	-8242
▁एजेंस	-8243
▁Kare	-8244
▁पावर	-8245
▁निवासी	-8246
anath	-8247
▁Jaitley	-8248
▁आकार	-8249
▁trial	-8250
▁अकाउंट	-8251
udi	-8252
respond	-8253
AD	-8254
▁शौ	-8255
▁quarter	-8256
▁pred	-8257
दमा	-8258
▁dream	-8259
▁ticket	-8260
▁पुराने	-8261
asi	-8262
▁sons	-8263
सेज	-8264
ressing	-8265
▁Elect	-8266
▁गहरा	-8267
वेट	-8268
नाल्ड	-8269
▁Prin	-8270
ढ़ी	-8271
▁एचडी	-8272
ethod	-8273
▁बनर्जी	-8274
▁Say	-8275
▁कमजोर	-8276
▁अमिताभ	-8277
▁Pran	-8278
▁remains	-8279
जनक	-8280
PS	-8281
घ्र	-8282
ड्र	-8283
▁संरचना	-8284
▁Lad	-8285
▁Out	-8286
तावनी	-8287
▁inquiry	-8288
▁बहुम	-8289
▁मेट्र	-8290
▁Galaxy	-8291
▁festival	-8292
▁annual	-8293
▁minimum	-8294
▁Award	-8295
▁जल्दी	-8296
▁इंतजार	-8297
▁deployed	-8298
ounter	-8299
▁victims	-8300
▁प्राथमिकता	-8301
▁रिजर्व	-8302
▁नित	-8303
ाजन	-8304
▁wish	-8305
▁वस्तु	-8306
मर्श	-8307
▁Amitabh	-8308
▁receiving	-8309
▁emp	-8310
agh	-8311
▁Such	-8312
▁criminal	-8313
▁controvers	-8314
▁Where	-8315
▁बल्लेबाजी	-8316
bh	-8317
▁चेतावनी	-8318
▁unf	-8319
▁Economic	-8320
▁कर्ज	-8321
iled	-8322
▁सिन्हा	-8323
▁तट	-8324
icit	-8325
▁फे	-8326
▁payment	-8327
▁Banerjee	-8328
▁अवैध	-8329
▁आपदा	-8330
ाजी	-8331
ciples	-8332
▁बढ	-8333
▁Ka	-8334
▁वापसी	-8335
▁Governments	-8336
▁accepted	-8337
▁जाया	-8338
gapixel	-8339
रप	-8340
▁emphas	-8341
▁stations	-8342
ema	-8343
▁fled	-8344
▁फेसबुक	-8345
irs	-8346
▁निशान	-8347
▁मैन	-8348
निवार	-8349
▁cert	-8350
हैया	-8351
▁rear	-8352
▁mission	-8353
▁depos	-8354
▁पहुंचने	-8355
▁उपाध्यक्ष	-8356
▁interview	-8357
off	-8358
▁संह	-8359
▁parliament	-8360
HI	-8361
▁दास	-8362
▁हर्ष	-8363
▁Region	-8364
▁capt	-8365
▁Kat	-8366
▁वेतन	-8367
▁बड़ी	-8368
ulate	-8369
yan	-8370
▁severe	-8371
▁दूसरों	-8372
yer	-8373
▁airport	-8374
▁draw	-8375
▁मिश्रा	-8376
▁exchange	-8377
▁judicial	-8378
▁चौहान	-8379
▁अह	-8380
▁shooting	-8381
CR	-8382
▁coach	-8383
▁बोले	-8384
▁विस्	-8385
▁शुरूआत	-8386
▁महि	-8387
▁Bhag	-8388
ensive	-8389
roid	-8390
▁स्क्रीन	-8391
▁बिल्कुल	-8392
र्पित	-8393
▁अनुसू	-8394
▁returned	-8395
▁स्वस्थ	-8396
लीय	-8397
स्ट्री	-8398
▁बनाकर	-8399
vant	-8400
▁Krishna	-8401
ंपरा	-8402
▁shown	-8403
▁विशाल	-8404
▁neither	-8405
▁अपेक्षा	-8406
▁Sk	-8407
▁हल्	-8408
aken	-8409
▁महत्	-8410
▁vice	-8411
▁अरुण	-8412
▁flag	-8413
▁approval	-8414
▁grand	-8415
कंप	-8416
▁sectors	-8417
लाइ	-8418
▁meetings	-8419
▁serve	-8420
खिम	-8421
▁वें	-8422
▁mut	-8423
▁दिल्‍ली	-8424
ju	-8425
▁एक्टर	-8426
▁Amar	-8427
▁base	-8428
▁believed	-8429
▁मेल	-8430
▁loan	-8431
▁चेक	-8432
▁रिजल्ट	-8433
▁critic	-8434
inations	-8435
▁Val	-8436
ण्डल	-8437
▁दंड	-8438
▁cris	-8439
▁calls	-8440
▁ग्रहण	-8441
▁रचना	-8442
▁माहौल	-8443
▁Dem	-8444
▁भेजे	-8445
ॉजी	-8446
▁पुनर्	-8447
▁रविवार	-8448
▁tournament	-8449
▁medic	-8450
▁खेला	-8451
▁sensor	-8452
कप	-8453
▁hospitals	-8454
▁मिनट	-8455
▁Famil	-8456
▁micro	-8457
inch	-8458
▁fully	-8459
▁शाखा	-8460
▁गड	-8461
▁authority	-8462
▁मान्यता	-8463
▁नाइ	-8464
▁il	-8465
▁संहिता	-8466
▁contribution	-8467
ंद्रा	-8468
▁तह	-8469
▁Thus	-8470
▁submitted	-8471
ela	-8472
▁सकेगा	-8473
▁भीड़	-8474
देह	-8475
्टर	-8476
▁cant	-8477
▁विश्ले	-8478
▁System	-8479
▁सचिन	-8480
▁ऐलान	-8481
एससी	-8482
एफसी	-8483
▁protection	-8484
▁nine	-8485
▁अगली	-8486
▁fem	-8487
▁वेरिएंट	-8488
uclear	-8489
hens	-8490
▁ब्रिटिश	-8491
▁corpor	-8492
▁मुहैया	-8493
▁लगने	-8494
▁orders	-8495
▁Command	-8496
▁agreed	-8497
▁terrorist	-8498
▁La	-8499
▁सेंट	-8500
▁helped	-8501
▁selected	-8502
▁Prakash	-8503
rative	-8504
▁certainly	-8505
▁correspond	-8506
▁निकाय	-8507
▁शनिवार	-8508
▁colour	-8509
▁संचार	-8510
▁समुद्र	-8511
▁मसीही	-8512
▁separate	-8513
▁Sams	-8514
▁स्‍वा	-8515
vert	-8516
overy	-8517
▁एसोसिए	-8518
▁territ	-8519
▁उत्तरी	-8520
▁Produ	-8521
▁बढ़ती	-8522
▁वर्ल्ड	-8523
rel	-8524
ashing	-8525
▁Dut	-8526
▁Google	-8527
एगा	-8528
▁सोना	-8529
▁Industry	-8530
▁मानते	-8531
▁crisis	-8532
▁Yogi	-8533
▁बौ	-8534
▁परिसर	-8535
▁अंग्रेजी	-8536
▁सुनील	-8537
्यूटर	-8538
▁महीनों	-8539
▁मनाया	-8540
▁कहां	-8541
▁Patna	-8542
▁liter	-8543
▁वचन	-8544
कुमार	-8545
▁Step	-8546
▁खड़े	-8547
.)	-8548
time	-8549
apt	-8550
▁discussion	-8551
▁मरीजों	-8552
▁Ed	-8553
चर्स	-8554
▁bag	-8555
▁तकनीक	-8556
▁खाने	-8557
eshwar	-8558
▁repe	-8559
▁feature	-8560
eful	-8561
▁रैं	-8562
▁BSP	-8563
▁placed	-8564
▁साक्ष	-8565
▁मुद्दा	-8566
ols	-8567
▁Budget	-8568
▁लगाई	-8569
▁Ant	-8570
▁महानिदेशक	-8571
▁surv	-8572
▁ऐप	-8573
▁ग्रे	-8574
करे	-8575
▁Mish	-8576
▁ममता	-8577
▁धन्यवाद	-8578
▁facility	-8579
▁प्रभार	-8580
▁जोखिम	-8581
▁सैनिकों	-8582
AL	-8583
▁सहयोगी	-8584
▁मेहन	-8585
स्वा	-8586
▁Sand	-8587
▁photo	-8588
▁मुकदमा	-8589
▁रिश	-8590
▁cru	-8591
▁Imran	-8592
▁रूपये	-8593
▁heavens	-8594
ushka	-8595
▁concern	-8596
▁running	-8597
▁offers	-8598
▁remember	-8599
▁Additional	-8600
▁initiatives	-8601
▁commercial	-8602
साई	-8603
▁Mor	-8604
ट्स	-8605
▁पदों	-8606
adhan	-8607
▁introduced	-8608
▁साझेदारी	-8609
▁partnership	-8610
▁पेट्रोलियम	-8611
ila	-8612
ores	-8613
पिता	-8614
▁परंपरा	-8615
▁contact	-8616
▁Kart	-8617
▁लेन	-8618
▁बड़ा	-8619
under	-8620
▁Sunil	-8621
थर	-8622
sequently	-8623
▁थाने	-8624
AC	-8625
▁मनमोहन	-8626
▁appeared	-8627
▁किन्तु	-8628
▁Fed	-8629
▁सुशांत	-8630
▁Manmohan	-8631
स्थल	-8632
पै	-8633
▁shares	-8634
▁Thats	-8635
rene	-8636
vendra	-8637
▁Pune	-8638
ils	-8639
▁प्रदूषण	-8640
▁आत्मा	-8641
कश	-8642
▁sett	-8643
▁समर्पित	-8644
▁शहीद	-8645
▁नियुक्ति	-8646
▁Port	-8647
acted	-8648
▁बैटरी	-8649
▁विस्फोट	-8650
▁सौं	-8651
दर्शन	-8652
▁prec	-8653
▁produce	-8654
▁जलवायु	-8655
▁accompan	-8656
▁फो	-8657
▁tro	-8658
role	-8659
▁पूर्वोत्तर	-8660
▁carry	-8661
▁granted	-8662
▁vacc	-8663
▁मालिक	-8664
▁आसमान	-8665
▁Kareena	-8666
▁ge	-8667
चारिक	-8668
▁दर्द	-8669
▁राजस्व	-8670
DR	-8671
▁manufacturing	-8672
रोध	-8673
▁reduce	-8674
ंती	-8675
▁निश्चय	-8676
▁Luck	-8677
▁एक्सप्रेस	-8678
▁debut	-8679
▁जायेगा	-8680
▁Candid	-8681
▁else	-8682
▁completely	-8683
▁Gen	-8684
▁साध	-8685
▁rich	-8686
न्दी	-8687
alore	-8688
▁सिटी	-8689
ूली	-8690
▁पटना	-8691
eks	-8692
isc	-8693
▁Swar	-8694
▁जमकर	-8695
▁ज़रूरत	-8696
▁initial	-8697
▁बेहतरीन	-8698
▁सकारात्मक	-8699
izing	-8700
▁क्लिक	-8701
▁Transport	-8702
ocks	-8703
▁चारों	-8704
▁effort	-8705
ंटर	-8706
▁initiated	-8707
▁generation	-8708
EN	-8709
▁Sushant	-8710
▁Ro	-8711
▁निरंतर	-8712
ashi	-8713
fully	-8714
▁प्रय	-8715
▁Tom	-8716
▁मण	-8717
▁मानसिक	-8718
▁विविध	-8719
▁टाइम	-8720
▁प्रोसे	-8721
▁headed	-8722
fted	-8723
▁degree	-8724
▁righteous	-8725
र्धा	-8726
▁sense	-8727
▁शीघ्र	-8728
hal	-8729
▁प्लेट	-8730
▁wed	-8731
क्या	-8732
▁आवं	-8733
▁Bengaluru	-8734
▁मछ	-8735
▁posts	-8736
▁धम	-8737
▁शेष	-8738
iter	-8739
Phone	-8740
▁कहती	-8741
▁इंजन	-8742
▁Social	-8743
▁जनजा	-8744
ेटी	-8745
equ	-8746
▁false	-8747
▁score	-8748
▁पृष्ठ	-8749
▁इंसान	-8750
▁suspended	-8751
▁कपिल	-8752
▁बीते	-8753
▁Sidd	-8754
▁illeg	-8755
▁सॉ	-8756
Is	-8757
▁होम	-8758
▁अनुकूल	-8759
▁Best	-8760
कारियों	-8761
▁plays	-8762
सैन	-8763
माही	-8764
▁देखभाल	-8765
▁satisf	-8766
▁claims	-8767
▁वास्ते	-8768
▁Family	-8769
▁नज़र	-8770
▁बीसीसीआई	-8771
▁उत्तराखंड	-8772
▁extremely	-8773
▁जुट	-8774
हत्या	-8775
स्ट्र	-8776
▁इंच	-8777
▁estimated	-8778
ष्का	-8779
▁Mishra	-8780
oming	-8781
▁despite	-8782
▁खुले	-8783
megapixel	-8784
▁रेट	-8785
▁विजेता	-8786
▁ज्यादातर	-8787
▁journey	-8788
आरसी	-8789
▁device	-8790
▁रियर	-8791
▁physical	-8792
▁AN	-8793
▁Open	-8794
▁Gad	-8795
▁बदले	-8796
▁confidence	-8797
▁ढंग	-8798
quar	-8799
ume	-8800
धानिक	-8801
धीन	-8802
yle	-8803
▁साहित्य	-8804
वती	-8805
▁fair	-8806
▁दोबारा	-8807
▁page	-8808
▁arrived	-8809
▁refused	-8810
▁उपबंध	-8811
▁method	-8812
een	-8813
▁Four	-8814
▁प्रकट	-8815
▁राजपूत	-8816
▁RSS	-8817
▁डिस्प	-8818
Ch	-8819
▁idea	-8820
▁Kapil	-8821
charge	-8822
hara	-8823
▁द्वीप	-8824
holders	-8825
▁जागरूक	-8826
cker	-8827
दिष्ट	-8828
▁signs	-8829
che	-8830
ेक्ट	-8831
र्या	-8832
▁continues	-8833
▁अभिय	-8834
▁Anushka	-8835
▁अतः	-8836
िग	-8837
त्‍व	-8838
nap	-8839
▁टीमों	-8840
▁resolution	-8841
▁तुमसे	-8842
▁किश	-8843
ईओ	-8844
▁indic	-8845
▁कमेटी	-8846
BC	-8847
▁Karan	-8848
▁League	-8849
▁Rajiv	-8850
▁ant	-8851
▁रणवीर	-8852
पत	-8853
ula	-8854
▁room	-8855
ologies	-8856
ocation	-8857
▁particularly	-8858
▁Germany	-8859
▁पत्रकार	-8860
esterday	-8861
▁Kaur	-8862
ane	-8863
atma	-8864
ni	-8865
▁Among	-8866
▁instead	-8867
▁Vish	-8868
▁Further	-8869
▁Indies	-8870
▁खेलों	-8871
▁proc	-8872
▁गुम	-8873
face	-8874
▁France	-8875
▁purs	-8876
▁documents	-8877
tty	-8878
▁battery	-8879
ग्ध	-8880
ज्ञात	-8881
za	-8882
roleum	-8883
▁Qual	-8884
▁कम्प	-8885
▁स्वामी	-8886
▁Actor	-8887
▁पैर	-8888
▁Sachin	-8889
▁typ	-8890
▁virus	-8891
बिल	-8892
ift	-8893
तौर	-8894
▁thee	-8895
▁स्वर्ण	-8896
%),	-8897
▁Opposition	-8898
iture	-8899
▁ongoing	-8900
rated	-8901
▁सेक	-8902
fect	-8903
ाँ	-8904
▁सुविधाओं	-8905
▁Administ	-8906
▁अना	-8907
वरूप	-8908
▁सर्वा	-8909
▁ski	-8910
भूम	-8911
wise	-8912
▁प्राइ	-8913
▁contract	-8914
▁JD	-8915
▁सबूत	-8916
▁quick	-8917
cient	-8918
त्मिक	-8919
▁options	-8920
पीड	-8921
▁पुत्र	-8922
दूसरे	-8923
▁Farmers	-8924
ीकरण	-8925
▁अभिष	-8926
▁ढांच	-8927
▁appropri	-8928
▁कच्च	-8929
''	-8930
▁परिस्थित	-8931
ौम	-8932
▁suffered	-8933
▁हाथों	-8934
▁someone	-8935
▁Ranveer	-8936
▁sacri	-8937
pid	-8938
ेंडर	-8939
कॉम	-8940
▁पुलिसकर्म	-8941
▁राजद	-8942
▁York	-8943
▁type	-8944
िशन	-8945
▁गेंदबाजी	-8946
▁determin	-8947
▁करीना	-8948
▁avoid	-8949
▁खेलने	-8950
▁शोक	-8951
▁खेले	-8952
▁रिश्ते	-8953
मेर	-8954
▁आदर्श	-8955
जि	-8956
chol	-8957
omet	-8958
▁छात्रा	-8959
▁Similar	-8960
bl	-8961
NU	-8962
▁पहुँच	-8963
फिर	-8964
hammad	-8965
star	-8966
▁motor	-8967
▁विचारों	-8968
▁कार्यकर्ता	-8969
▁Mam	-8970
▁ओलंपिक	-8971
बंदी	-8972
▁laid	-8973
pal	-8974
▁Mi	-8975
▁Adityanath	-8976
▁समझा	-8977
▁decisions	-8978
कांक	-8979
▁experi	-8980
▁विवे	-8981
hank	-8982
श्‍य	-8983
▁पोल	-8984
▁lack	-8985
▁technical	-8986
▁fra	-8987
▁hearts	-8988
▁Witnesses	-8989
बीन	-8990
▁integr	-8991
▁आमंत्र	-8992
lands	-8993
▁ruling	-8994
viation	-8995
rect	-8996
▁option	-8997
▁महिलाएं	-8998
▁मालूम	-8999
लाल	-9000
▁मशीन	-9001
▁becomes	-9002
▁Head	-9003
▁Second	-9004
▁उड़ान	-9005
roud	-9006
▁implemented	-9007
▁Champions	-9008
▁कार्यवाही	-9009
▁चार्ज	-9010
ंधन	-9011
ardhan	-9012
▁ट्रक	-9013
▁प्रदेशों	-9014
ांजलि	-9015
reprene	-9016
▁स्‍थ	-9017
▁श्रम	-9018
rim	-9019
▁Bah	-9020
▁Pay	-9021
▁sle	-9022
▁बढ़ने	-9023
कान	-9024
▁सिने	-9025
pati	-9026
▁पेज	-9027
pay	-9028
▁वर्मा	-9029
AF	-9030
वरों	-9031
▁पीड़ित	-9032
▁served	-9033
▁व्याव	-9034
▁CR	-9035
▁प्रतिभा	-9036
▁sea	-9037
▁अस्थ	-9038
▁काबू	-9039
▁टैक्स	-9040
▁External	-9041
▁whatever	-9042
▁greet	-9043
▁Mohan	-9044
▁कृष्ण	-9045
eries	-9046
▁winning	-9047
फॉर्म	-9048
▁green	-9049
▁regional	-9050
▁boost	-9051
HO	-9052
▁कठिन	-9053
▁बाग	-9054
▁निदेश	-9055
▁विद्युत	-9056
संख्य	-9057
▁सूचकांक	-9058
▁amend	-9059
ंडीज	-9060
▁affect	-9061
कालीन	-9062
▁धवन	-9063
दियों	-9064
▁danger	-9065
▁सीतार	-9066
▁प्रोड	-9067
▁उत्साह	-9068
▁Vis	-9069
▁Ahmedabad	-9070
▁सर्वेक्षण	-9071
क्म	-9072
▁प्रतिनिधि	-9073
▁welfare	-9074
▁पवार	-9075
▁मेहनत	-9076
▁रास्ते	-9077
▁developing	-9078
▁भौ	-9079
▁घटनाओं	-9080
▁क्षति	-9081
ाइयों	-9082
IL	-9083
▁weap	-9084
▁डाउनलोड	-9085
▁पराम	-9086
▁आसानी	-9087
्यूब	-9088
arily	-9089
सब	-9090
law	-9091
▁Ven	-9092
▁Meh	-9093
▁gather	-9094
▁बढ़ोतरी	-9095
खनऊ	-9096
inate	-9097
▁पाठ्य	-9098
▁नील	-9099
▁Bharatiya	-9100
▁Kovind	-9101
▁Reddy	-9102
▁associated	-9103
▁Candidates	-9104
अपने	-9105
▁पकड़	-9106
itable	-9107
▁निम्नलिखित	-9108
▁centres	-9109
nic	-9110
ृत्ति	-9111
ायण	-9112
▁buy	-9113
▁partner	-9114
▁आध्या	-9115
hab	-9116
ahar	-9117
▁Naw	-9118
नेशनल	-9119
▁depend	-9120
▁दोहरा	-9121
ese	-9122
▁eat	-9123
▁touch	-9124
▁Energy	-9125
▁forest	-9126
▁अधिकारों	-9127
▁चैंप	-9128
लोक	-9129
▁Ti	-9130
▁गवर्	-9131
▁basic	-9132
▁रेड्डी	-9133
▁Person	-9134
▁dismiss	-9135
ेन्द्र	-9136
▁भंडार	-9137
▁फसल	-9138
▁sustain	-9139
वेयर	-9140
▁लघु	-9141
▁Indeed	-9142
▁defin	-9143
▁books	-9144
▁कितना	-9145
▁Dhawan	-9146
टीआई	-9147
▁Jio	-9148
▁कामया	-9149
▁घोट	-9150
▁Therefore	-9151
▁secret	-9152
▁जॉन	-9153
▁जॉ	-9154
▁मोहन	-9155
▁अन्‍य	-9156
▁अधि	-9157
▁competition	-9158
▁विपक्षी	-9159
ievers	-9160
▁awarded	-9161
▁anniversary	-9162
▁voice	-9163
▁काट	-9164
▁Reliance	-9165
▁अनुष्का	-9166
पल	-9167
▁सिखा	-9168
▁Fire	-9169
▁finance	-9170
set	-9171
▁पशु	-9172
▁केंद्रित	-9173
▁ग्राहकों	-9174
▁jobs	-9175
ocked	-9176
▁proced	-9177
▁संभाल	-9178
▁चली	-9179
▁वाई	-9180
▁iPhone	-9181
▁प्ला	-9182
kari	-9183
▁डोनाल्ड	-9184
▁फार्म	-9185
▁transfer	-9186
▁इनकी	-9187
▁Mas	-9188
ression	-9189
▁वैसे	-9190
▁सन	-9191
▁marks	-9192
▁मनोहर	-9193
▁Android	-9194
▁वस्तुओं	-9195
▁Team	-9196
▁Nitish	-9197
rugg	-9198
▁प्रसिद्ध	-9199
▁पौल	-9200
ugh	-9201
▁Another	-9202
▁टेक्	-9203
▁coast	-9204
▁नेहर	-9205
run	-9206
▁गू	-9207
▁Code	-9208
▁संकल्प	-9209
▁upd	-9210
▁languages	-9211
oples	-9212
pex	-9213
▁निर्देशन	-9214
▁व्हा	-9215
agers	-9216
▁household	-9217
ोरम	-9218
▁stock	-9219
alys	-9220
▁माध	-9221
▁consist	-9222
िन्‍न	-9223
▁ढांचे	-9224
न्‍द	-9225
▁Pawar	-9226
▁assured	-9227
▁truck	-9228
▁opin	-9229
▁प्रोत्साहित	-9230
▁फॉर	-9231
▁soft	-9232
▁गठित	-9233
▁प्रशासनिक	-9234
▁बू	-9235
▁reporters	-9236
▁पक्षों	-9237
▁रुख	-9238
▁सर्वोच्च	-9239
▁बनाम	-9240
lers	-9241
▁सपा	-9242
द्या	-9243
gov	-9244
pic	-9245
▁लड़	-9246
▁हिम	-9247
्यूल	-9248
▁Price	-9249
▁टक्कर	-9250
▁kg	-9251
▁creation	-9252
▁weeks	-9253
▁जिनका	-9254
hat	-9255
▁जिंदगी	-9256
▁आध्यात्मिक	-9257
▁noted	-9258
राग	-9259
▁testing	-9260
ुति	-9261
▁batsman	-9262
▁directly	-9263
▁फैल	-9264
▁कैंसर	-9265
▁देखकर	-9266
▁circum	-9267
?"""	-9268
▁organized	-9269
▁inaugurated	-9270
एसआई	-9271
▁reward	-9272
▁शिल	-9273
▁Hard	-9274
▁Global	-9275
▁मास	-9276
elligence	-9277
▁पौलुस	-9278
oi	-9279
फेसर	-9280
▁निर्देशक	-9281
न्दर	-9282
▁Vin	-9283
▁पुणे	-9284
▁beginning	-9285
▁verdict	-9286
▁बैठे	-9287
▁behalf	-9288
▁values	-9289
▁प्रदर्शित	-9290
▁addressed	-9291
ैंस	-9292
▁नीतीश	-9293
▁Mant	-9294
▁throughout	-9295
▁tonnes	-9296
▁remar	-9297
▁Commerce	-9298
▁mid	-9299
▁deliver	-9300
stances	-9301
▁apost	-9302
▁तीसरा	-9303
▁स्टूड	-9304
▁organis	-9305
▁सकेंगे	-9306
▁Samaj	-9307
▁ट्रांस	-9308
sy	-9309
▁साथी	-9310
▁honour	-9311
▁rainfall	-9312
▁immediate	-9313
▁Baj	-9314
OS	-9315
ida	-9316
▁weak	-9317
▁Ref	-9318
धिकारी	-9319
▁Samsung	-9320
▁chaired	-9321
rench	-9322
iction	-9323
▁पायल	-9324
▁born	-9325
▁समूहों	-9326
arya	-9327
App	-9328
akers	-9329
▁ce	-9330
▁लीड	-9331
▁कां	-9332
▁सिख	-9333
ांकन	-9334
▁Mahatma	-9335
बरा	-9336
▁article	-9337
PM	-9338
▁seriously	-9339
▁जाम	-9340
iger	-9341
▁दिग्	-9342
▁Pradhan	-9343
▁मजदूर	-9344
▁planning	-9345
कीन	-9346
▁gri	-9347
▁क्रमश	-9348
▁अदा	-9349
▁sound	-9350
▁proud	-9351
▁practice	-9352
▁मेट्रो	-9353
▁guest	-9354
aji	-9355
▁वादा	-9356
▁Games	-9357
DM	-9358
▁तभी	-9359
▁yesterday	-9360
द्दा	-9361
aman	-9362
▁die	-9363
▁यूरोप	-9364
▁Policy	-9365
▁carrying	-9366
iya	-9367
rd	-9368
▁rob	-9369
▁factor	-9370
▁tor	-9371
एसएम	-9372
मंत्र	-9373
▁करियर	-9374
idamb	-9375
lying	-9376
▁एकता	-9377
ंकन	-9378
तियां	-9379
▁Rai	-9380
ब्लिक	-9381
मात्र	-9382
▁संस्करण	-9383
rang	-9384
कलन	-9385
▁चुनावी	-9386
▁congreg	-9387
▁goal	-9388
ॉर्क	-9389
▁Paduk	-9390
▁प्राय	-9391
▁dispute	-9392
डम	-9393
कोट	-9394
ंतरिक	-9395
स्य	-9396
▁अनुरूप	-9397
ितीय	-9398
▁Manohar	-9399
▁pm	-9400
▁conclud	-9401
राम	-9402
▁Pranab	-9403
▁healthy	-9404
▁acad	-9405
▁अमरीकी	-9406
▁condem	-9407
▁परामर्श	-9408
▁Engine	-9409
▁situ	-9410
▁सिद्धांत	-9411
▁छाप	-9412
ero	-9413
▁Tourism	-9414
▁कौर	-9415
▁Bhavan	-9416
प्रीत	-9417
▁univers	-9418
पचारिक	-9419
OC	-9420
▁autom	-9421
▁beaut	-9422
▁गुल	-9423
PP	-9424
▁mechan	-9425
ona	-9426
▁चलाने	-9427
▁बदलने	-9428
क्के	-9429
▁extra	-9430
▁invited	-9431
▁strugg	-9432
▁जवानों	-9433
▁आतंकवादियों	-9434
▁Know	-9435
▁इस्रा	-9436
▁learning	-9437
▁बीएस	-9438
riving	-9439
▁Ganga	-9440
▁दिलच	-9441
▁delay	-9442
▁America	-9443
▁litre	-9444
▁slow	-9445
▁bit	-9446
▁हुक्म	-9447
▁स्थायी	-9448
iable	-9449
▁Jav	-9450
▁खड़ा	-9451
▁छोटा	-9452
▁equip	-9453
▁limited	-9454
▁observed	-9455
▁डिस्प्ले	-9456
▁यौन	-9457
▁तरीका	-9458
मेल	-9459
▁Yes	-9460
▁जानें	-9461
▁कमल	-9462
▁तुमको	-9463
▁प्रसारण	-9464
▁submit	-9465
भूमि	-9466
▁courts	-9467
khar	-9468
▁Last	-9469
▁कटौती	-9470
▁चिकित्स	-9471
▁keeping	-9472
▁रिया	-9473
▁फायर	-9474
▁तुमने	-9475
गण	-9476
▁कायम	-9477
▁birthday	-9478
मूल	-9479
▁sitting	-9480
▁पांडे	-9481
adium	-9482
ोलॉजी	-9483
▁अध्‍य	-9484
▁Business	-9485
▁प्रतिनिधित्व	-9486
▁तृ	-9487
ॉर्ट	-9488
▁encounter	-9489
▁अगु	-9490
▁लखनऊ	-9491
▁शराब	-9492
▁priority	-9493
adhaar	-9494
▁सपोर्ट	-9495
▁आएगा	-9496
ाफ	-9497
▁प्रजा	-9498
icted	-9499
▁प्रत्यक्ष	-9500
▁ji	-9501
astic	-9502
ध्या	-9503
▁प्रोज	-9504
▁सच्चाई	-9505
संद	-9506
▁dial	-9507
reet	-9508
▁Padukone	-9509
▁हिसाब	-9510
iling	-9511
्रेडिट	-9512
▁दशक	-9513
Ts	-9514
▁fee	-9515
▁करण	-9516
▁rains	-9517
▁polic	-9518
▁rather	-9519
▁limit	-9520
▁Ann	-9521
ullah	-9522
▁पड़ी	-9523
▁fat	-9524
दय	-9525
▁wedding	-9526
▁रॉ	-9527
▁bra	-9528
actions	-9529
▁Train	-9530
▁सेव	-9531
▁stands	-9532
▁तिमाही	-9533
▁Lo	-9534
alty	-9535
▁register	-9536
▁प्रस	-9537
▁तिथि	-9538
araman	-9539
▁cho	-9540
ार्दिक	-9541
स्‍था	-9542
ashed	-9543
▁incidents	-9544
▁कर्मियों	-9545
RB	-9546
▁Tem	-9547
▁multiple	-9548
▁CCT	-9549
▁पैसा	-9550
▁battle	-9551
▁रेखा	-9552
▁arch	-9553
▁Mir	-9554
▁एजेंसियों	-9555
▁managed	-9556
▁understanding	-9557
▁तमाम	-9558
gon	-9559
जिट	-9560
रेट	-9561
hary	-9562
▁holding	-9563
▁डॉक्टरों	-9564
▁speaking	-9565
▁खाना	-9566
▁paper	-9567
▁Youth	-9568
▁ties	-9569
chayat	-9570
▁fram	-9571
ायंस	-9572
uction	-9573
▁flight	-9574
ojana	-9575
▁gain	-9576
▁हटाने	-9577
▁नामक	-9578
फाइ	-9579
▁एह	-9580
▁collect	-9581
▁सिक्	-9582
तलब	-9583
▁Cal	-9584
▁प्रोफेसर	-9585
▁आदित्यनाथ	-9586
▁प्रकृति	-9587
▁track	-9588
▁आंतरिक	-9589
▁II	-9590
▁अभ्यास	-9591
▁उतर	-9592
▁लेखक	-9593
▁guidelines	-9594
▁बला	-9595
▁stra	-9596
▁remaining	-9597
▁appropriate	-9598
▁ast	-9599
▁Mag	-9600
▁आये	-9601
▁चिद	-9602
▁Korea	-9603
urb	-9604
▁Joint	-9605
▁दान	-9606
▁shifted	-9607
oned	-9608
▁skipper	-9609
▁इमार	-9610
▁गर्व	-9611
▁double	-9612
रानी	-9613
▁एशियाई	-9614
▁मरने	-9615
▁आस्ट्रेलिया	-9616
▁beha	-9617
▁customers	-9618
▁हिस्सेदारी	-9619
▁Sind	-9620
▁जुड़ा	-9621
▁constant	-9622
▁wishes	-9623
adra	-9624
▁बढ़त	-9625
▁संयंत्र	-9626
▁अट	-9627
▁मण्डल	-9628
▁हार्दिक	-9629
▁गवाह	-9630
ठभ	-9631
▁नज	-9632
▁Nob	-9633
▁surpr	-9634
▁Alia	-9635
▁constitut	-9636
▁commitment	-9637
plom	-9638
win	-9639
▁चोरी	-9640
ोगे	-9641
dule	-9642
▁thy	-9643
▁जंग	-9644
▁Nirm	-9645
▁अड्ड	-9646
ोरेट	-9647
▁सड़कों	-9648
aced	-9649
cipl	-9650
well	-9651
▁विषयों	-9652
▁imposed	-9653
▁आत्महत्या	-9654
▁stone	-9655
ेश्वर	-9656
▁supported	-9657
▁गडकरी	-9658
▁dro	-9659
▁रास्ता	-9660
▁निर्मित	-9661
hew	-9662
▁ठाकरे	-9663
पार	-9664
▁मद्	-9665
▁Gov	-9666
rits	-9667
बु	-9668
शंकर	-9669
▁bey	-9670
ogue	-9671
▁होटल	-9672
▁Tend	-9673
▁जोड़ी	-9674
▁बचाने	-9675
TC	-9676
म्भ	-9677
फिक	-9678
▁इतने	-9679
ape	-9680
कोण	-9681
▁नेहरू	-9682
▁खतर	-9683
आईए	-9684
एंगे	-9685
▁und	-9686
▁ऑटो	-9687
▁बहस	-9688
▁कैमरे	-9689
▁प्रणब	-9690
▁beyond	-9691
▁व्यवसाय	-9692
▁mig	-9693
ज्ज	-9694
▁Nehru	-9695
▁accord	-9696
▁आंकड़ों	-9697
haps	-9698
▁मांगी	-9699
▁हद	-9700
▁प्रतिस्प	-9701
▁उल्लेखनीय	-9702
▁शक	-9703
▁Lucknow	-9704
▁व्‍या	-9705
▁कीजिए	-9706
ule	-9707
राधिक	-9708
▁अश्व	-9709
▁करवाया	-9710
▁आलिया	-9711
▁मुठभ	-9712
▁tested	-9713
comm	-9714
ensation	-9715
▁सीजन	-9716
▁मुख्यालय	-9717
स्वी	-9718
▁तर्क	-9719
▁squad	-9720
▁CCTV	-9721
यां	-9722
▁CS	-9723
वानी	-9724
istics	-9725
पीएस	-9726
ply	-9727
▁Rana	-9728
▁चुनौतियों	-9729
तालों	-9730
▁दूध	-9731
▁Bra	-9732
ि‍	-9733
ल्पना	-9734
▁एसोसिएशन	-9735
nces	-9736
▁अहमदाबाद	-9737
▁डाटा	-9738
▁DEL	-9739
▁यूरोपीय	-9740
▁wide	-9741
▁तीसरी	-9742
▁Prab	-9743
▁क्ला	-9744
क्षेत्र	-9745
▁fam	-9746
arth	-9747
▁जयंती	-9748
▁insurance	-9749
with	-9750
▁खतरे	-9751
▁killing	-9752
▁Nir	-9753
न्यास	-9754
aps	-9755
ेंट्स	-9756
▁रहीं	-9757
▁Bel	-9758
▁trading	-9759
▁श्रद्धांजलि	-9760
ारीरिक	-9761
▁दावे	-9762
इंडीज	-9763
▁लिस्ट	-9764
▁मृतक	-9765
▁awareness	-9766
▁Sure	-9767
▁पार्क	-9768
▁नाथ	-9769
▁college	-9770
oring	-9771
▁आयुष	-9772
wadi	-9773
▁ब्रे	-9774
ushan	-9775
▁दर्शकों	-9776
▁क्रेडिट	-9777
▁विद्यालय	-9778
▁दर्शन	-9779
vis	-9780
▁stood	-9781
▁forms	-9782
▁फिट	-9783
da	-9784
▁जू	-9785
▁एफआईआर	-9786
▁loans	-9787
स्वरूप	-9788
▁prison	-9789
▁Stand	-9790
▁सेल्	-9791
▁प्रस्तावित	-9792
▁कोविंद	-9793
▁स्वच्छता	-9794
ole	-9795
▁सुरेश	-9796
▁Human	-9797
▁tim	-9798
▁कितनी	-9799
▁entered	-9800
▁कना	-9801
▁इलेक्ट्रॉन	-9802
▁देखना	-9803
▁actors	-9804
▁doubt	-9805
▁गिल	-9806
▁tomorrow	-9807
▁showed	-9808
▁thr	-9809
▁अधिकतर	-9810
▁nuclear	-9811
ining	-9812
▁बोली	-9813
▁वक्‍त	-9814
▁Navy	-9815
apers	-9816
ेडियम	-9817
▁El	-9818
▁हिंदु	-9819
ronic	-9820
▁bond	-9821
ब्दी	-9822
▁Rem	-9823
▁Cro	-9824
▁Good	-9825
▁घंटों	-9826
▁European	-9827
▁उत	-9828
▁गांवों	-9829
▁Exam	-9830
van	-9831
▁ended	-9832
▁मद्देन	-9833
▁Urban	-9834
▁जिनकी	-9835
▁महात्मा	-9836
ोई	-9837
▁Sad	-9838
oti	-9839
▁seem	-9840
▁dedicated	-9841
▁notification	-9842
▁sharing	-9843
▁भूल	-9844
▁मिश्र	-9845
uj	-9846
▁चैनल	-9847
idambaram	-9848
▁शैतान	-9849
श्री	-9850
▁views	-9851
▁Ranbir	-9852
▁परेशानी	-9853
▁Prov	-9854
▁सिलस	-9855
▁residence	-9856
▁foundation	-9857
श्त	-9858
गि	-9859
ancy	-9860
न्‍द्रीय	-9861
▁meaning	-9862
▁advoc	-9863
▁जताया	-9864
▁Ob	-9865
वर्ष	-9866
▁Che	-9867
▁participation	-9868
▁NEW	-9869
▁DELHI	-9870
▁independent	-9871
nav	-9872
करार	-9873
▁हड़	-9874
▁beautiful	-9875
िथ	-9876
ima	-9877
care	-9878
▁निल	-9879
▁रक्त	-9880
▁Thacker	-9881
▁सालों	-9882
▁घाटी	-9883
▁तेरे	-9884
ules	-9885
▁creating	-9886
▁residents	-9887
▁apex	-9888
▁fighting	-9889
▁Aadhaar	-9890
ervation	-9891
▁स्रोत	-9892
▁NDA	-9893
▁पहुँचा	-9894
▁panel	-9895
▁policies	-9896
▁शिकार	-9897
▁Rural	-9898
▁संचालित	-9899
▁cricketer	-9900
▁medal	-9901
▁Report	-9902
▁blast	-9903
▁Bangalore	-9904
pura	-9905
ota	-9906
▁निंदा	-9907
▁इंजीनियरिंग	-9908
▁games	-9909
▁माफी	-9910
▁amb	-9911
▁addressing	-9912
▁लाखों	-9913
itharaman	-9914
▁धोखा	-9915
▁weather	-9916
▁About	-9917
▁Tendul	-9918
unal	-9919
▁representatives	-9920
▁धा	-9921
▁faced	-9922
▁heaven	-9923
▁मानक	-9924
▁Srinagar	-9925
▁पायलट	-9926
▁ED	-9927
iff	-9928
ंत्रिक	-9929
lies	-9930
▁corresponding	-9931
▁communication	-9932
▁spent	-9933
▁waste	-9934
▁उपभोक्ता	-9935
▁Has	-9936
▁relating	-9937
▁table	-9938
ेंगी	-9939
▁ढां	-9940
▁marg	-9941
▁देखी	-9942
▁Sik	-9943
▁संभावित	-9944
▁activity	-9945
्वान	-9946
▁fixed	-9947
▁प्रीम	-9948
▁साक्षी	-9949
▁गीत	-9950
▁दर्शा	-9951
ensions	-9952
▁liqu	-9953
तायात	-9954
एनएस	-9955
▁Lab	-9956
▁अज्ञात	-9957
aste	-9958
▁बहुमत	-9959
▁Citizens	-9960
▁शारीरिक	-9961
▁एक्	-9962
▁document	-9963
राइ	-9964
▁जोशी	-9965
▁क्रिकेटर	-9966
डेट	-9967
▁image	-9968
▁Xia	-9969
▁पेशे	-9970
▁individuals	-9971
▁block	-9972
ुलकर	-9973
▁sexual	-9974
▁Jew	-9975
▁वायुसेना	-9976
▁registration	-9977
▁शुरुआती	-9978
▁hurt	-9979
▁trou	-9980
alls	-9981
▁content	-9982
▁सर्वाधिक	-9983
▁राष्‍ट्रपति	-9984
प्रति	-9985
▁सम्बन्ध	-9986
▁आमिर	-9987
▁Ama	-9988
▁दोप	-9989
cks	-9990
▁कोयला	-9991
▁protests	-9992
▁university	-9993
▁पैमाने	-9994
▁आशी	-9995
riya	-9996
सीबी	-9997
▁सागर	-9998
▁mill	-9999
▁reduced	-10000
▁permission	-10001
▁खाली	-10002
▁suffering	-10003
▁complex	-10004
wari	-10005
▁स्कोर	-10006
▁शतक	-10007
▁worlds	-10008
तुम	-10009
EE	-10010
odhya	-10011
वंत	-10012
▁आज्ञा	-10013
▁Mohammad	-10014
▁Chidambaram	-10015
▁अत्या	-10016
▁SBI	-10017
▁मिसाल	-10018
▁सिनेमा	-10019
मला	-10020
ांसी	-10021
▁पेट	-10022
▁नमू	-10023
▁variant	-10024
▁AM	-10025
▁अमर	-10026
▁सुंदर	-10027
▁postmortem	-10028
▁unique	-10029
▁संक्रमित	-10030
▁talking	-10031
▁कार्यकाल	-10032
hern	-10033
▁demonst	-10034
सद	-10035
▁सावधान	-10036
▁Suresh	-10037
▁पंचायत	-10038
▁विभिन्‍न	-10039
▁reality	-10040
wali	-10041
▁excell	-10042
▁पाठ्यक्रम	-10043
▁Pandey	-10044
मै	-10045
▁agg	-10046
▁साज	-10047
▁Sikh	-10048
कीम	-10049
▁Secret	-10050
▁गौरतलब	-10051
▁केन्‍द्रीय	-10052
▁आमंत्रित	-10053
▁fle	-10054
▁nam	-10055
▁मंज	-10056
▁Only	-10057
▁pollution	-10058
▁interests	-10059
▁brief	-10060
And	-10061
▁none	-10062
▁प्रवर्	-10063
▁Mit	-10064
▁Jas	-10065
▁vent	-10066
▁नितिन	-10067
▁convers	-10068
▁इसको	-10069
▁सहमत	-10070
▁लिखे	-10071
▁स्‍व	-10072
▁भारती	-10073
fort	-10074
▁किमी	-10075
▁उतार	-10076
▁खाता	-10077
NG	-10078
▁फॉर्म	-10079
▁prosper	-10080
▁रिलायंस	-10081
eed	-10082
▁मनोज	-10083
▁मुख्‍य	-10084
▁affairs	-10085
yn	-10086
▁Rashtra	-10087
ider	-10088
▁आफ	-10089
quarters	-10090
▁negative	-10091
▁Thackeray	-10092
▁structure	-10093
▁Nitin	-10094
▁organisation	-10095
▁यातायात	-10096
▁Environment	-10097
▁स्टेडियम	-10098
णु	-10099
▁Mamata	-10100
ंबरम	-10101
▁MPs	-10102
▁भारतीयों	-10103
▁दीपक	-10104
▁वेस्टइंडीज	-10105
▁रमेश	-10106
▁एंड्र	-10107
▁participate	-10108
▁throw	-10109
▁इंटरनेशनल	-10110
▁फें	-10111
▁सूचित	-10112
▁परिचालन	-10113
▁वाक	-10114
▁costs	-10115
▁गाने	-10116
▁Sitharaman	-10117
ube	-10118
▁Eastern	-10119
▁Programme	-10120
▁tourism	-10121
▁रकम	-10122
▁coord	-10123
▁admit	-10124
▁जगत	-10125
▁लिंक	-10126
▁धमकी	-10127
▁बंदर	-10128
संच	-10129
▁booked	-10130
हीन	-10131
▁राजन	-10132
▁Gadkari	-10133
ापुर	-10134
▁Watch	-10135
▁cancell	-10136
▁फाइल	-10137
▁looked	-10138
▁subsid	-10139
▁रणबीर	-10140
▁rescue	-10141
▁strict	-10142
▁इंडस्ट्री	-10143
▁माय	-10144
essions	-10145
▁Ayodhya	-10146
enty	-10147
▁title	-10148
▁Industries	-10149
▁सीसीटी	-10150
▁पूछे	-10151
▁संसाध	-10152
▁relevant	-10153
▁एकमात्र	-10154
▁argu	-10155
▁bul	-10156
▁raise	-10157
▁entry	-10158
सील	-10159
indra	-10160
▁हक	-10161
▁thinking	-10162
▁treated	-10163
▁described	-10164
▁प्रोत्साहन	-10165
▁Sain	-10166
▁mach	-10167
▁प्रभारी	-10168
OR	-10169
▁OF	-10170
penditure	-10171
hana	-10172
▁शुद्ध	-10173
oli	-10174
▁rupees	-10175
▁toll	-10176
▁demands	-10177
▁weight	-10178
▁pleas	-10179
▁stopped	-10180
▁गृहमंत्री	-10181
arpur	-10182
▁guard	-10183
imately	-10184
ज़ा	-10185
▁requested	-10186
सीआर	-10187
▁simple	-10188
▁gun	-10189
▁अमरीका	-10190
▁removed	-10191
▁attacked	-10192
wara	-10193
ोरेशन	-10194
▁guidance	-10195
▁doll	-10196
▁Ramesh	-10197
▁रणनीति	-10198
▁becoming	-10199
▁Yoga	-10200
▁virt	-10201
▁knew	-10202
wd	-10203
ooth	-10204
▁Legisl	-10205
▁AT	-10206
▁मज़	-10207
▁सैनिक	-10208
essor	-10209
ायन	-10210
▁Tur	-10211
▁damage	-10212
▁electricity	-10213
▁illegal	-10214
▁Lead	-10215
▁believers	-10216
▁accompanied	-10217
▁हाँ	-10218
▁बादल	-10219
▁French	-10220
▁Tendulkar	-10221
▁रहो	-10222
▁ज़मीन	-10223
▁फायदे	-10224
ोसी	-10225
▁समुद्री	-10226
▁आईसीसी	-10227
▁ब्लैक	-10228
sp	-10229
▁arrangements	-10230
▁mercy	-10231
▁वर्षा	-10232
▁priced	-10233
wor	-10234
orthern	-10235
▁सीईओ	-10236
▁Bomb	-10237
▁holds	-10238
▁manif	-10239
ugu	-10240
▁servants	-10241
ilty	-10242
▁ign	-10243
▁Chou	-10244
▁female	-10245
▁condol	-10246
▁Employ	-10247
▁insp	-10248
पेट	-10249
▁चिदंबरम	-10250
▁डेब	-10251
▁बीज	-10252
▁एसपी	-10253
▁दुकान	-10254
▁Media	-10255
ोड	-10256
▁SA	-10257
▁स्‍ट	-10258
▁आर्	-10259
परेशन	-10260
▁profit	-10261
▁इसने	-10262
vious	-10263
दल	-10264
▁Judge	-10265
known	-10266
▁sell	-10267
mier	-10268
▁mem	-10269
repreneurs	-10270
▁educational	-10271
ishing	-10272
▁जिक्र	-10273
▁ज्ञापन	-10274
▁Rad	-10275
▁overs	-10276
▁सम्प	-10277
▁साउ	-10278
▁पड़ेगा	-10279
▁overall	-10280
डि़	-10281
▁शरीफ	-10282
▁Principal	-10283
▁उन्न	-10284
▁संदि	-10285
▁Sharif	-10286
▁आह्वान	-10287
▁चैंपियन	-10288
▁थोड़ा	-10289
▁middle	-10290
▁traditional	-10291
र्डर	-10292
▁अधिव	-10293
▁delegation	-10294
▁अग्रवाल	-10295
▁केंद्रों	-10296
▁assets	-10297
▁exams	-10298
घर	-10299
ivery	-10300
▁kil	-10301
▁विभागों	-10302
If	-10303
कृष्ट	-10304
▁original	-10305
ोध्या	-10306
▁happiness	-10307
▁Moses	-10308
▁एयरपोर्ट	-10309
▁बॉक्स	-10310
▁पादु	-10311
▁उपलब्‍	-10312
▁Assist	-10313
▁सीसीटीवी	-10314
▁कितने	-10315
▁हालाँ	-10316
▁हालाँकि	-10317
ंगिक	-10318
▁आपराधिक	-10319
▁Snap	-10320
▁abroad	-10321
▁Similarly	-10322
▁ठोस	-10323
▁revenue	-10324
▁respective	-10325
▁pending	-10326
▁disapp	-10327
▁भिन्न	-10328
▁नतीजे	-10329
▁identify	-10330
कांग	-10331
▁आशंका	-10332
▁brid	-10333
text	-10334
▁बाइक	-10335
▁standards	-10336
▁degrees	-10337
▁जानने	-10338
▁Yojana	-10339
▁तिर	-10340
▁multi	-10341
स्टिक	-10342
▁shut	-10343
▁highlight	-10344
▁पथ	-10345
▁हृ	-10346
▁वाज	-10347
▁drive	-10348
urement	-10349
▁Amaz	-10350
▁स्ट्र	-10351
▁colleges	-10352
▁ancient	-10353
▁लाइस	-10354
oving	-10355
▁यूजर्स	-10356
▁राज्‍यों	-10357
▁गुजर	-10358
आईएम	-10359
▁बेटा	-10360
▁अस्पतालों	-10361
वीय	-10362
▁देशभर	-10363
▁export	-10364
▁decide	-10365
▁Reserve	-10366
▁भाषाओं	-10367
ग्रहण	-10368
▁fuel	-10369
▁दिग्गज	-10370
▁spend	-10371
▁Rak	-10372
▁Govt	-10373
▁Children	-10374
▁सशक्त	-10375
▁आकर	-10376
वैधानिक	-10377
▁Hel	-10378
डीआर	-10379
▁valid	-10380
▁proceedings	-10381
▁उपलब्‍ध	-10382
▁DG	-10383
▁standard	-10384
amy	-10385
oke	-10386
▁समझने	-10387
▁burn	-10388
▁Av	-10389
▁दस्तावेज	-10390
भाग्य	-10391
▁Jon	-10392
▁शिक्षक	-10393
kind	-10394
▁Current	-10395
▁श्रमिक	-10396
▁श्रीनगर	-10397
▁Supp	-10398
▁परिस्थितियों	-10399
▁बट	-10400
तरीय	-10401
▁माइक्रो	-10402
▁applications	-10403
विमर्श	-10404
▁size	-10405
▁पादुकोण	-10406
ियस	-10407
▁opinion	-10408
▁guilty	-10409
taining	-10410
▁मंड	-10411
▁Joshi	-10412
ront	-10413
▁collection	-10414
....	-10415
▁Ang	-10416
▁ऑल	-10417
▁अल्पसंख्य	-10418
▁IIT	-10419
▁milk	-10420
▁Ko	-10421
▁टेक्न	-10422
▁achieved	-10423
▁monitoring	-10424
inals	-10425
▁कलाकार	-10426
▁कंपनियां	-10427
▁rad	-10428
जिद	-10429
पीए	-10430
▁encourage	-10431
etic	-10432
▁लिखी	-10433
ैस	-10434
erted	-10435
▁lic	-10436
ैंक	-10437
▁ब्यू	-10438
▁विफल	-10439
▁countrys	-10440
▁clar	-10441
▁कुशल	-10442
spe	-10443
aland	-10444
▁झूठ	-10445
ंथ	-10446
cre	-10447
असल	-10448
▁तेंद	-10449
▁ढांचा	-10450
▁Xiaomi	-10451
पक्ष	-10452
▁फीचर्स	-10453
▁सीबी	-10454
▁अधिसूचना	-10455
▁announcement	-10456
▁डेविड	-10457
▁उपायों	-10458
▁मुना	-10459
हल	-10460
▁प्रशंसा	-10461
▁powerful	-10462
▁difference	-10463
▁white	-10464
▁क्रिस	-10465
avy	-10466
▁doesnt	-10467
▁रनों	-10468
▁objective	-10469
▁Islamic	-10470
बरी	-10471
ारक	-10472
hered	-10473
illing	-10474
मंडल	-10475
िपुर	-10476
▁मद्देनजर	-10477
rary	-10478
lict	-10479
ius	-10480
▁लिहा	-10481
▁brand	-10482
▁शिविर	-10483
▁पोर्टल	-10484
क्षणिक	-10485
▁प्रत्याशी	-10486
▁massive	-10487
▁संशोधित	-10488
intend	-10489
▁promise	-10490
▁scale	-10491
▁परंतु	-10492
▁Telugu	-10493
▁संदिग्ध	-10494
▁Kings	-10495
atra	-10496
▁emb	-10497
▁युग	-10498
▁धीरे	-10499
▁ध्व	-10500
▁Goyal	-10501
▁Advis	-10502
▁Verma	-10503
▁happening	-10504
▁सुष	-10505
▁confident	-10506
▁Manoj	-10507
▁जाहिर	-10508
▁जानिए	-10509
▁version	-10510
▁der	-10511
▁Commun	-10512
▁भो	-10513
▁चौथे	-10514
▁निधि	-10515
▁कोष	-10516
▁त्य	-10517
▁Income	-10518
▁Hindus	-10519
▁sun	-10520
▁सुविधाएं	-10521
▁suggested	-10522
▁Mahe	-10523
▁missing	-10524
▁joy	-10525
▁diss	-10526
rival	-10527
▁Speaker	-10528
▁बताई	-10529
▁मंडल	-10530
▁restrict	-10531
▁circumstances	-10532
▁Mohammed	-10533
▁sanction	-10534
▁connectivity	-10535
▁integ	-10536
किस्तान	-10537
▁transp	-10538
धारकों	-10539
▁climate	-10540
▁Saif	-10541
▁चीजें	-10542
▁कारोबारी	-10543
minent	-10544
▁agricultural	-10545
▁defeat	-10546
▁Bu	-10547
्‍यू	-10548
▁advised	-10549
▁आईए	-10550
▁घुस	-10551
▁प्रता	-10552
▁भड़	-10553
▁Pul	-10554
▁offering	-10555
▁संसार	-10556
▁kn	-10557
itage	-10558
▁अयोध्या	-10559
▁sacrif	-10560
▁survey	-10561
▁Tele	-10562
▁govt	-10563
▁खेती	-10564
▁भय	-10565
▁convey	-10566
▁आंख	-10567
▁किल	-10568
▁आवाज	-10569
ICI	-10570
▁देगी	-10571
▁गूगल	-10572
▁हवाले	-10573
▁helps	-10574
हमने	-10575
▁recovery	-10576
▁अनुसूचित	-10577
▁Hous	-10578
▁कृत	-10579
▁powers	-10580
▁Fa	-10581
▁remarks	-10582
▁Aut	-10583
▁आपात	-10584
▁बढ़ाया	-10585
▁शुभार	-10586
▁fellow	-10587
▁कॉरप	-10588
keep	-10589
▁उपस्थिति	-10590
hik	-10591
दंड	-10592
▁आइए	-10593
ंबित	-10594
▁comments	-10595
▁प्रोसेसर	-10596
▁Five	-10597
▁rapid	-10598
phy	-10599
▁भेद	-10600
▁यूनिट	-10601
▁प्राइम	-10602
▁संसाधनों	-10603
▁rising	-10604
▁transl	-10605
▁Found	-10606
नाइट	-10607
स्‍थ्‍य	-10608
▁ज़िंदगी	-10609
▁Year	-10610
खण्ड	-10611
▁एकल	-10612
▁हितों	-10613
▁desire	-10614
▁इस्राएल	-10615
▁बॉस	-10616
▁computer	-10617
रन	-10618
▁crowd	-10619
▁bringing	-10620
▁lies	-10621
iveness	-10622
▁द्र	-10623
▁बड़े	-10624
▁दिवसीय	-10625
▁कंप्यूटर	-10626
▁बौद्ध	-10627
▁संतोष	-10628
▁तिव	-10629
▁engaged	-10630
हि	-10631
▁executive	-10632
▁कैप्ट	-10633
▁पड़	-10634
▁लाइसेंस	-10635
▁अवि	-10636
▁solution	-10637
▁जौ	-10638
संख्या	-10639
▁Steel	-10640
▁लड़ने	-10641
▁फीसद	-10642
ecause	-10643
▁Kamal	-10644
▁पंजीकरण	-10645
▁सरल	-10646
▁रवाना	-10647
यामत	-10648
▁प्रोट	-10649
▁Muhammad	-10650
▁नियंत्रित	-10651
▁Capital	-10652
athi	-10653
▁holy	-10654
▁जज	-10655
ग्रस्त	-10656
▁प्रोजेक्ट	-10657
mark	-10658
▁discussions	-10659
▁Mantri	-10660
▁Swaraj	-10661
▁covered	-10662
्यांकन	-10663
▁dign	-10664
▁Have	-10665
▁चालू	-10666
HE	-10667
▁आयकर	-10668
▁Pen	-10669
▁Aamir	-10670
▁polling	-10671
र्मी	-10672
▁फर्	-10673
कप्तान	-10674
▁studies	-10675
▁तल	-10676
▁mist	-10677
▁Petroleum	-10678
▁कार्यान्वयन	-10679
DC	-10680
hir	-10681
▁injury	-10682
IF	-10683
▁experts	-10684
▁writing	-10685
स्त्री	-10686
▁तिवारी	-10687
िंगटन	-10688
▁सृजन	-10689
पालिका	-10690
▁cards	-10691
▁सीए	-10692
▁समन्व	-10693
▁assign	-10694
alm	-10695
▁Manipur	-10696
▁IPC	-10697
ception	-10698
▁Sud	-10699
▁अध्‍यक्ष	-10700
▁चुने	-10701
▁बलात्कार	-10702
▁investors	-10703
▁Devi	-10704
itizen	-10705
▁fort	-10706
▁Raf	-10707
▁बंदरगाह	-10708
्तों	-10709
lease	-10710
▁promoting	-10711
ares	-10712
urch	-10713
▁Brah	-10714
▁sales	-10715
▁JNU	-10716
▁certific	-10717
▁wealth	-10718
aq	-10719
▁items	-10720
▁sn	-10721
▁util	-10722
▁nearby	-10723
▁झग	-10724
आईसी	-10725
▁समझते	-10726
▁मात्र	-10727
▁भरा	-10728
▁स्पेश	-10729
▁cabinet	-10730
There	-10731
▁इकट	-10732
▁सीतारमण	-10733
▁बसपा	-10734
▁somet	-10735
▁bab	-10736
वेदनशील	-10737
▁equipment	-10738
▁Memor	-10739
▁निकाला	-10740
▁पार्	-10741
arti	-10742
▁सकी	-10743
▁बढ़ते	-10744
mAh	-10745
▁आना	-10746
▁Financial	-10747
▁distribution	-10748
▁कनाडा	-10749
▁plants	-10750
arb	-10751
ीट	-10752
▁Amazon	-10753
रीत	-10754
▁एंट	-10755
▁declined	-10756
▁manufacture	-10757
gend	-10758
▁moving	-10759
▁चाहिये	-10760
▁कच्चे	-10761
▁download	-10762
▁आपस	-10763
▁टूट	-10764
▁Shahid	-10765
▁अंकों	-10766
▁सीआर	-10767
▁प्रेरणा	-10768
▁सेल्फी	-10769
obile	-10770
▁index	-10771
▁schol	-10772
▁बैंकिंग	-10773
▁Nations	-10774
▁गेम	-10775
लील	-10776
▁यातना	-10777
कुछ	-10778
▁जुर्म	-10779
णियों	-10780
▁Make	-10781
▁दक्षिणी	-10782
▁बुद्ध	-10783
ultan	-10784
▁sisters	-10785
▁बम	-10786
▁doctor	-10787
▁Awards	-10788
▁slog	-10789
▁फ्री	-10790
▁डाक	-10791
▁fit	-10792
▁Count	-10793
▁गुरुवार	-10794
▁कुलदीप	-10795
bre	-10796
▁सेमी	-10797
▁कमाई	-10798
▁task	-10799
▁दोपहर	-10800
▁मस्जिद	-10801
nagar	-10802
▁विंड	-10803
▁calling	-10804
gi	-10805
णों	-10806
▁जगहों	-10807
▁नामांकन	-10808
न्ट	-10809
▁इकट्	-10810
gar	-10811
▁नारे	-10812
फिया	-10813
▁ICICI	-10814
▁deeds	-10815
▁counsel	-10816
▁homes	-10817
They	-10818
▁Das	-10819
▁प्रदर्शनकारियों	-10820
▁broke	-10821
डीएस	-10822
▁आएगी	-10823
▁ज़रूरी	-10824
चानक	-10825
▁इम	-10826
▁Yet	-10827
्‍स	-10828
▁परमेश्वर	-10829
चक	-10830
▁खूबस	-10831
▁famous	-10832
▁oath	-10833
▁मोर्	-10834
▁Russian	-10835
▁Saudi	-10836
ब्ब	-10837
▁बैरल	-10838
▁...	-10839
tainment	-10840
स्को	-10841
▁Jaw	-10842
hap	-10843
▁प्रतिबद्धता	-10844
▁apart	-10845
▁videos	-10846
▁lakhs	-10847
hek	-10848
▁Well	-10849
▁Australian	-10850
हूर	-10851
▁fifth	-10852
▁Saf	-10853
▁दरअसल	-10854
▁इंट	-10855
▁cult	-10856
▁Trade	-10857
▁कॉन्फ्रेंस	-10858
ुता	-10859
▁concerns	-10860
▁hath	-10861
▁mere	-10862
▁longer	-10863
▁किरा	-10864
▁लेता	-10865
यत	-10866
रूप	-10867
▁Division	-10868
▁prayer	-10869
▁क्लब	-10870
▁enable	-10871
वों	-10872
▁जस	-10873
▁निच	-10874
▁मुठभेड़	-10875
▁अभिषेक	-10876
▁भूकंप	-10877
▁congratulated	-10878
▁विनिर्माण	-10879
▁पंड	-10880
▁एकत्र	-10881
▁cancer	-10882
▁reforms	-10883
▁user	-10884
▁Company	-10885
▁manifest	-10886
▁उर्व	-10887
▁memor	-10888
▁strategy	-10889
▁छान	-10890
▁Ir	-10891
hesh	-10892
▁महेंद्र	-10893
िंटन	-10894
▁isol	-10895
▁कैसा	-10896
▁गोल्ड	-10897
ज़ार	-10898
▁sustained	-10899
grad	-10900
▁Chaud	-10901
▁फं	-10902
▁काउंस	-10903
▁sam	-10904
efore	-10905
▁didn	-10906
▁balance	-10907
mosp	-10908
▁Gul	-10909
▁पेशकश	-10910
▁पुरानी	-10911
क्टिव	-10912
▁feet	-10913
enn	-10914
▁गाड़ी	-10915
पीएम	-10916
▁मेघ	-10917
▁हुईं	-10918
▁quoted	-10919
▁यश	-10920
▁Nawaz	-10921
▁congregation	-10922
▁नॉ	-10923
▁nar	-10924
▁स्‍वास्‍थ्‍य	-10925
गैर	-10926
▁सरदार	-10927
▁Poll	-10928
▁अचानक	-10929
ंपरिक	-10930
▁Sara	-10931
▁विरासत	-10932
्रोल	-10933
▁organisations	-10934
▁लक्षण	-10935
oute	-10936
▁patient	-10937
▁हजारों	-10938
प्पा	-10939
ज़ाब	-10940
▁figh	-10941
▁MoU	-10942
▁मलिक	-10943
▁प्रयोगशाला	-10944
▁starting	-10945
son	-10946
▁अधी	-10947
▁रिसर्च	-10948
सायिक	-10949
▁जागरूकता	-10950
▁Budd	-10951
ales	-10952
▁balls	-10953
किम	-10954
▁घटनास्थल	-10955
▁detained	-10956
anta	-10957
▁पिछली	-10958
▁Mer	-10959
overty	-10960
abled	-10961
िंस	-10962
ishan	-10963
कांत	-10964
▁lines	-10965
▁deputy	-10966
▁Ve	-10967
▁neighbour	-10968
nov	-10969
केज	-10970
▁advant	-10971
▁NH	-10972
डियो	-10973
▁बढ़ाकर	-10974
ken	-10975
ashington	-10976
▁प्राइवेट	-10977
▁Rashtrapati	-10978
uit	-10979
ृत्त	-10980
▁industries	-10981
क्ताओं	-10982
▁स्पिन	-10983
▁tests	-10984
क्चर	-10985
▁सदी	-10986
▁अभिव	-10987
▁adding	-10988
▁सच्चे	-10989
▁Meet	-10990
dragon	-10991
▁origin	-10992
▁promised	-10993
▁occurred	-10994
▁शिम	-10995
▁HDFC	-10996
▁आजादी	-10997
▁कैप्टन	-10998
▁Smt	-10999
▁सफाई	-11000
▁politic	-11001
▁मुसलमानों	-11002
नेश	-11003
त्न	-11004
▁Rat	-11005
▁cas	-11006
▁दुष्	-11007
▁seems	-11008
▁रैंकिंग	-11009
▁वाइ	-11010
▁शिर	-11011
▁diplom	-11012
▁River	-11013
▁Prop	-11014
▁कोर	-11015
▁BJPs	-11016
▁हेड	-11017
▁निर्मला	-11018
अर	-11019
▁आकलन	-11020
ज़ाब	-11021
्‍प	-11022
▁खी	-11023
▁feed	-11024
▁मुआ	-11025
osite	-11026
▁warm	-11027
▁union	-11028
▁वायदा	-11029
unch	-11030
▁विपरीत	-11031
▁बरकरार	-11032
lines	-11033
▁Rom	-11034
▁प्रतिनिधियों	-11035
▁खरीदने	-11036
▁symb	-11037
▁Akh	-11038
▁महत्त्व	-11039
▁constituted	-11040
▁Cy	-11041
▁शाहिद	-11042
▁highly	-11043
▁पाप	-11044
▁cold	-11045
▁सैफ	-11046
▁practices	-11047
cap	-11048
▁स्ना	-11049
▁पढ़ाई	-11050
▁Bombay	-11051
▁Snapdragon	-11052
▁निरी	-11053
▁ज़िले	-11054
▁टीमें	-11055
▁Max	-11056
▁इंदिरा	-11057
▁HC	-11058
▁भेजने	-11059
▁दरवा	-11060
▁टू	-11061
▁मरा	-11062
▁पत्थर	-11063
▁खिता	-11064
BS	-11065
▁अकेले	-11066
▁strategic	-11067
▁assault	-11068
▁delivery	-11069
ertil	-11070
bal	-11071
▁IM	-11072
गांव	-11073
हाबाद	-11074
▁Market	-11075
▁WhatsApp	-11076
St	-11077
▁तहसील	-11078
▁elig	-11079
▁comprising	-11080
▁inclus	-11081
▁पत्रिका	-11082
arty	-11083
▁मणिपुर	-11084
▁शरण	-11085
▁write	-11086
▁इश	-11087
▁Acad	-11088
%)	-11089
संचार	-11090
▁Ladakh	-11091
ंदाज	-11092
▁harm	-11093
▁अटल	-11094
▁करूंगा	-11095
.'	-11096
ureau	-11097
▁aspects	-11098
▁CBSE	-11099
▁scam	-11100
▁resolve	-11101
द्दाख	-11102
▁destroyed	-11103
▁इनका	-11104
▁Ravi	-11105
▁Forest	-11106
▁Kuldeep	-11107
▁उपकरणों	-11108
फ्टी	-11109
▁मरीज	-11110
▁awards	-11111
▁देखिए	-11112
▁हराया	-11113
▁मध्यम	-11114
raham	-11115
ancing	-11116
▁Ba	-11117
▁रोज़	-11118
oto	-11119
ourage	-11120
▁बाजारों	-11121
▁attract	-11122
▁poet	-11123
कालिक	-11124
alysis	-11125
म्स	-11126
▁जीते	-11127
▁उत्‍पादन	-11128
esters	-11129
ूती	-11130
▁Apple	-11131
▁बनाये	-11132
सिंह	-11133
▁professional	-11134
▁वाता	-11135
▁अपमान	-11136
▁bear	-11137
▁सर्विस	-11138
▁Ajit	-11139
earing	-11140
member	-11141
akshi	-11142
ounder	-11143
▁Member	-11144
▁डायरेक्टर	-11145
स्वामी	-11146
shi	-11147
icals	-11148
▁बाधा	-11149
▁historic	-11150
▁thousands	-11151
▁NRC	-11152
▁Democ	-11153
▁Indira	-11154
▁Gan	-11155
inger	-11156
▁Mic	-11157
▁solar	-11158
▁उत्कृष्ट	-11159
▁परिप	-11160
▁शरद	-11161
ground	-11162
▁मृतकों	-11163
▁Sil	-11164
▁शिक्षकों	-11165
▁मुझसे	-11166
्वे	-11167
▁occup	-11168
दर्शी	-11169
▁communities	-11170
▁टुक	-11171
आईपी	-11172
▁भाइयों	-11173
▁waiting	-11174
▁rout	-11175
▁compensation	-11176
ष्‍ट्रीय	-11177
▁जह	-11178
▁See	-11179
मतौर	-11180
▁प्रसं	-11181
thern	-11182
▁television	-11183
▁stakeholders	-11184
▁actions	-11185
▁rose	-11186
▁चीजों	-11187
▁स्मृति	-11188
apore	-11189
▁समग्र	-11190
ador	-11191
▁भले	-11192
alt	-11193
▁बनाते	-11194
Rs	-11195
▁महत्‍व	-11196
?"	-11197
▁शेयरों	-11198
itendra	-11199
▁daughters	-11200
▁sleep	-11201
▁advis	-11202
▁veget	-11203
▁operational	-11204
▁एका	-11205
ाजित	-11206
ग्न	-11207
▁firing	-11208
▁Shankar	-11209
▁संग्रहण	-11210
▁बिता	-11211
hishek	-11212
▁looks	-11213
▁गुनाह	-11214
uti	-11215
ength	-11216
▁enhance	-11217
▁उपयुक्त	-11218
▁उभर	-11219
▁तथ्य	-11220
ोजित	-11221
▁appointment	-11222
िने	-11223
एमएस	-11224
section	-11225
वानिव	-11226
▁लड़ा	-11227
▁exact	-11228
▁Dub	-11229
ruitment	-11230
▁मूल्यांकन	-11231
▁scientists	-11232
ीकृत	-11233
▁ult	-11234
▁reportedly	-11235
▁प्रवाह	-11236
▁du	-11237
▁हृदय	-11238
झी	-11239
इंट	-11240
पया	-11241
▁RJD	-11242
▁identity	-11243
▁शैक्षणिक	-11244
▁कलर	-11245
▁mankind	-11246
▁शुरु	-11247
रेन	-11248
हाई	-11249
▁id	-11250
▁amid	-11251
enant	-11252
▁नीर	-11253
▁वातावरण	-11254
▁ओब	-11255
▁dark	-11256
▁welcome	-11257
ुश	-11258
स्कर	-11259
▁वैज्ञानिकों	-11260
▁dram	-11261
▁इट	-11262
▁अख	-11263
Plus	-11264
ियंस	-11265
▁बैक	-11266
▁ऑपरेशन	-11267
साम	-11268
▁chem	-11269
मुख्य	-11270
▁troops	-11271
▁minutes	-11272
▁mutual	-11273
▁उद्योगों	-11274
▁Sense	-11275
▁पहुंचाने	-11276
▁technologies	-11277
टीय	-11278
uing	-11279
▁पारंपरिक	-11280
▁Coronavirus	-11281
जै	-11282
▁पैनल	-11283
▁हिन्दी	-11284
▁photos	-11285
ॉड	-11286
ney	-11287
ocal	-11288
▁ec	-11289
▁स्वर्ग	-11290
elled	-11291
▁आवश्‍य	-11292
▁Play	-11293
▁militants	-11294
istries	-11295
फाइनल	-11296
▁सबको	-11297
▁कंग	-11298
▁धूम	-11299
चुनाव	-11300
▁Chouhan	-11301
▁correct	-11302
▁benefici	-11303
▁शता	-11304
▁planned	-11305
▁पीड़िता	-11306
▁behavi	-11307
▁recommended	-11308
ifty	-11309
▁अंध	-11310
▁Nirmala	-11311
▁begun	-11312
▁यहू	-11313
▁फ़ाइल	-11314
▁आपसी	-11315
▁योग्यता	-11316
▁पत्रकारों	-11317
गीय	-11318
▁महार	-11319
▁Mat	-11320
▁usually	-11321
▁advance	-11322
▁प्रारंभिक	-11323
▁जियो	-11324
▁उधर	-11325
▁कैप	-11326
▁नौकर	-11327
एनयू	-11328
▁निर्धारण	-11329
▁altern	-11330
दास	-11331
▁अंश	-11332
▁निर्देशित	-11333
▁Dhan	-11334
▁जयपुर	-11335
▁overse	-11336
▁division	-11337
िप्त	-11338
▁debt	-11339
Pak	-11340
▁पात्र	-11341
▁आर्ट	-11342
▁ठहराया	-11343
▁defeated	-11344
▁तेंदुलकर	-11345
▁निवेशकों	-11346
ुली	-11347
व्र	-11348
▁स्टॉक	-11349
uting	-11350
▁मुह	-11351
▁मशहूर	-11352
▁tradition	-11353
▁नजदी	-11354
▁जिम	-11355
▁दिखाने	-11356
▁connected	-11357
iders	-11358
▁आजाद	-11359
▁loved	-11360
▁चांदी	-11361
लिंग	-11362
▁संतुल	-11363
outhern	-11364
fficient	-11365
▁मौल	-11366
▁finally	-11367
▁प्राप्‍त	-11368
▁छु	-11369
प्शन	-11370
▁debate	-11371
asw	-11372
chang	-11373
▁departments	-11374
▁af	-11375
pass	-11376
▁scientific	-11377
केश	-11378
grim	-11379
▁chance	-11380
▁पहन	-11381
ऊदी	-11382
ster	-11383
▁औपचारिक	-11384
▁Ty	-11385
▁steel	-11386
हैं	-11387
▁ideas	-11388
▁Territ	-11389
▁क्षमा	-11390
▁clearly	-11391
▁witnessed	-11392
▁notes	-11393
▁ब्रांड	-11394
ography	-11395
▁Amarinder	-11396
▁glob	-11397
वेज	-11398
▁operating	-11399
वो	-11400
▁निस्	-11401
▁स्वराज	-11402
arant	-11403
board	-11404
▁contesting	-11405
▁बाप	-11406
्ज	-11407
aksh	-11408
▁concept	-11409
▁लद्दाख	-11410
DS	-11411
वेल	-11412
▁बांध	-11413
▁चम	-11414
htar	-11415
▁wonder	-11416
▁trend	-11417
▁harass	-11418
▁कवर	-11419
▁छोड़	-11420
▁CRPF	-11421
▁Abhishek	-11422
त्तर	-11423
ैनिक	-11424
ivered	-11425
▁Western	-11426
▁Washington	-11427
▁improved	-11428
▁route	-11429
सिया	-11430
▁records	-11431
▁defend	-11432
▁internet	-11433
▁Because	-11434
▁Work	-11435
▁मुंह	-11436
has	-11437
▁USD	-11438
▁Temple	-11439
▁विश्लेषण	-11440
वीस	-11441
▁बिजनेस	-11442
▁सांसदों	-11443
▁जनसंख्या	-11444
▁Malik	-11445
▁absol	-11446
▁कानूनों	-11447
▁mode	-11448
▁अंजाम	-11449
▁Smith	-11450
eless	-11451
गित	-11452
▁judgment	-11453
▁सैम	-11454
▁माने	-11455
▁asking	-11456
हीम	-11457
▁fields	-11458
एनए	-11459
▁Fad	-11460
izations	-11461
▁PS	-11462
▁infection	-11463
▁संदेह	-11464
▁वित्‍त	-11465
▁सूक्ष	-11466
▁Sensex	-11467
▁नवीन	-11468
▁judges	-11469
▁memory	-11470
▁Sard	-11471
▁prem	-11472
▁tree	-11473
imb	-11474
▁atmosp	-11475
▁quant	-11476
▁बाहरी	-11477
ुरू	-11478
▁stream	-11479
icate	-11480
▁Singapore	-11481
▁तारीफ	-11482
navis	-11483
▁Life	-11484
▁स्टाफ	-11485
▁आमतौर	-11486
▁इंस्टीट	-11487
▁टॉप	-11488
▁सिंगापुर	-11489
▁बन्	-11490
▁गह	-11491
▁व्याख्या	-11492
▁संस्थाओं	-11493
रीबी	-11494
fer	-11495
ockey	-11496
टकों	-11497
▁त्या	-11498
▁Messenger	-11499
hta	-11500
▁कंट्रोल	-11501
▁regul	-11502
▁प्रशंस	-11503
▁विशेषज्ञों	-11504
▁बुल	-11505
maker	-11506
▁झुठ	-11507
▁Oper	-11508
▁अनुश	-11509
▁Din	-11510
फेल	-11511
▁Ap	-11512
बीसी	-11513
▁कोड	-11514
▁discipl	-11515
▁influence	-11516
▁झटका	-11517
▁Summit	-11518
▁skills	-11519
▁करेंगी	-11520
▁भेंट	-11521
▁welcom	-11522
च्‍छ	-11523
▁flights	-11524
lal	-11525
▁charged	-11526
like	-11527
िशियल	-11528
शाह	-11529
▁गौतम	-11530
hensive	-11531
▁transform	-11532
▁दत्त	-11533
▁delivered	-11534
▁facilitate	-11535
heast	-11536
मैंने	-11537
ीनन	-11538
सेक्स	-11539
▁जीवित	-11540
▁वारदा	-11541
▁yourself	-11542
▁मिलाकर	-11543
▁नीतियों	-11544
▁स्त्री	-11545
▁compre	-11546
den	-11547
▁Dil	-11548
NA	-11549
फाई	-11550
▁हस्तक्षेप	-11551
▁पाय	-11552
▁OnePlus	-11553
ctoral	-11554
स्टार	-11555
▁comfort	-11556
▁passing	-11557
▁तौ	-11558
▁Jer	-11559
owerment	-11560
▁Shak	-11561
▁measure	-11562
▁emergency	-11563
▁झुठला	-11564
▁अत्यधिक	-11565
ुसार	-11566
▁suc	-11567
▁मार्केट	-11568
▁Courts	-11569
▁ईंधन	-11570
RE	-11571
▁एक्सच	-11572
▁band	-11573
▁दोस्तों	-11574
▁Foundation	-11575
▁diseases	-11576
▁web	-11577
▁Warn	-11578
▁किलोग्राम	-11579
▁hom	-11580
▁दीर्	-11581
cious	-11582
▁पहुंचाया	-11583
कीपर	-11584
▁White	-11585
ाहिर	-11586
ura	-11587
▁साउथ	-11588
▁voters	-11589
▁farm	-11590
▁skill	-11591
▁audience	-11592
▁रामनाथ	-11593
▁पेर	-11594
▁छानबीन	-11595
▁association	-11596
▁adequ	-11597
▁सुभाष	-11598
▁selection	-11599
▁spokesman	-11600
▁tend	-11601
▁प्रतीक	-11602
▁Ent	-11603
▁nab	-11604
▁हरी	-11605
▁सुषमा	-11606
▁Est	-11607
▁acting	-11608
▁ज़िम्मे	-11609
▁processor	-11610
verse	-11611
▁Turk	-11612
▁जाएंगी	-11613
▁सिद्धार्थ	-11614
▁collaboration	-11615
▁recommendations	-11616
rav	-11617
▁बोला	-11618
▁ST	-11619
▁संवेदनशील	-11620
ंचाई	-11621
शिंगटन	-11622
▁improving	-11623
▁Bureau	-11624
डीएम	-11625
लोग	-11626
धित	-11627
▁innovation	-11628
▁institution	-11629
▁pit	-11630
▁disbelie	-11631
पेयी	-11632
ंदे	-11633
▁afford	-11634
▁ब्यूरो	-11635
mal	-11636
▁newsp	-11637
▁पुरुषों	-11638
दमी	-11639
▁दह	-11640
▁Kir	-11641
▁statements	-11642
▁constituencies	-11643
▁performed	-11644
▁Card	-11645
▁diver	-11646
intendent	-11647
▁दायरे	-11648
▁फूल	-11649
▁const	-11650
▁मजबूती	-11651
itect	-11652
▁promotion	-11653
▁Modis	-11654
▁मेजब	-11655
umer	-11656
▁scene	-11657
▁अर्थात्	-11658
अगर	-11659
▁स्मिथ	-11660
▁hor	-11661
yl	-11662
्‍यों	-11663
▁Oil	-11664
urre	-11665
र्की	-11666
▁teach	-11667
इंड	-11668
जात	-11669
▁एनसीपी	-11670
▁window	-11671
▁serving	-11672
▁असफल	-11673
▁Br	-11674
▁expenditure	-11675
▁जितना	-11676
▁प्रोग्राम	-11677
▁Keep	-11678
▁standing	-11679
रित	-11680
▁dual	-11681
▁शुभारंभ	-11682
कला	-11683
▁मध्यप्रदेश	-11684
▁resignation	-11685
▁कराए	-11686
▁गोलीबारी	-11687
तल	-11688
▁Sen	-11689
▁context	-11690
▁जोन	-11691
▁जीतकर	-11692
▁Industrial	-11693
आइ	-11694
▁Prom	-11695
▁gram	-11696
▁animals	-11697
▁Fadnavis	-11698
▁ensuring	-11699
▁lawyer	-11700
harth	-11701
▁Prote	-11702
ेशनों	-11703
▁namely	-11704
gent	-11705
▁खिताब	-11706
▁ख्या	-11707
▁Vardhan	-11708
usal	-11709
▁अस्त	-11710
▁पाते	-11711
सेट	-11712
ोदय	-11713
▁मिट्टी	-11714
▁banking	-11715
▁आँ	-11716
rina	-11717
▁Sharad	-11718
▁Ren	-11719
▁खासकर	-11720
▁possession	-11721
gaon	-11722
भाजपा	-11723
▁पुनः	-11724
संदेह	-11725
▁आश्वास	-11726
cked	-11727
वली	-11728
िक्	-11729
▁Space	-11730
ूनी	-11731
▁बलि	-11732
▁batting	-11733
▁मारा	-11734
▁reflect	-11735
▁फैंस	-11736
▁Megh	-11737
▁Harsh	-11738
▁leaving	-11739
▁टक	-11740
▁transferred	-11741
tel	-11742
▁discl	-11743
▁स्वरूप	-11744
▁Amendment	-11745
▁Gas	-11746
िपुरा	-11747
▁retail	-11748
▁ब्रह	-11749
टर्स	-11750
▁आरबीआई	-11751
▁राजेश	-11752
ट्रिक	-11753
▁शर्म	-11754
▁लड़कियों	-11755
cel	-11756
▁हां	-11757
▁successfully	-11758
▁curren	-11759
▁damaged	-11760
▁नवाचार	-11761
▁साथियों	-11762
lick	-11763
▁वाणिज्यिक	-11764
ressive	-11765
▁happens	-11766
▁Account	-11767
▁बिंद	-11768
rants	-11769
ड़न	-11770
खल	-11771
▁Staff	-11772
do	-11773
ूहिक	-11774
▁उत्स	-11775
ilesh	-11776
▁purchase	-11777
ाजत	-11778
▁busy	-11779
▁questioned	-11780
▁आतंकियों	-11781
▁Tej	-11782
▁caught	-11783
▁बांट	-11784
All	-11785
ii	-11786
▁door	-11787
▁phones	-11788
▁जाएँगे	-11789
▁Addressing	-11790
संघ	-11791
ेयर	-11792
▁लेखा	-11793
▁Jaipur	-11794
न्ड	-11795
▁Matt	-11796
IV	-11797
मंद	-11798
▁Maj	-11799
▁Park	-11800
▁pie	-11801
▁Airport	-11802
▁सऊदी	-11803
▁अधीक्षक	-11804
▁Municipal	-11805
▁Prat	-11806
▁hour	-11807
▁elder	-11808
▁succeed	-11809
▁pa	-11810
▁Ms	-11811
▁weapons	-11812
arian	-11813
▁पड़ोसी	-11814
जान	-11815
▁Peter	-11816
▁decades	-11817
hans	-11818
▁adopted	-11819
▁spoken	-11820
▁detailed	-11821
▁visiting	-11822
▁उन्हीं	-11823
▁मनीष	-11824
preet	-11825
▁सम्मिल	-11826
▁offices	-11827
▁ग्लो	-11828
▁माया	-11829
▁गंभीरता	-11830
▁पैकेज	-11831
▁Varun	-11832
▁exhib	-11833
prises	-11834
▁लगाते	-11835
▁Around	-11836
▁दृढ़	-11837
▁returns	-11838
▁प्रारूप	-11839
▁स्पेशल	-11840
▁डु	-11841
▁प्रवासी	-11842
pector	-11843
▁बच्ची	-11844
▁दूरसंचार	-11845
▁Prot	-11846
▁फार	-11847
▁remove	-11848
▁Show	-11849
▁Sir	-11850
▁mas	-11851
▁prominent	-11852
riti	-11853
▁lie	-11854
▁Father	-11855
▁compon	-11856
▁citizen	-11857
▁बेंगलुरु	-11858
SD	-11859
eum	-11860
dden	-11861
▁दौड़	-11862
▁Hence	-11863
▁सोचा	-11864
▁Earth	-11865
▁constructed	-11866
▁Parliamentary	-11867
▁wat	-11868
▁governance	-11869
▁निर्द	-11870
▁showing	-11871
▁reb	-11872
▁prevail	-11873
▁फिल्‍म	-11874
ऊद	-11875
▁Mark	-11876
▁Bhopal	-11877
▁प्रांत	-11878
▁Station	-11879
▁strengthening	-11880
rap	-11881
▁पोषण	-11882
▁liber	-11883
▁नसी	-11884
देशों	-11885
▁Diwali	-11886
ऊँ	-11887
▁सतर्क	-11888
▁स्वि	-11889
▁तरीकों	-11890
बॉल	-11891
▁सॉफ्ट	-11892
],	-11893
pet	-11894
▁Tar	-11895
ava	-11896
▁रवी	-11897
friend	-11898
ांतों	-11899
When	-11900
▁sometimes	-11901
▁भोपाल	-11902
▁Shetty	-11903
▁Action	-11904
▁लालू	-11905
क्तियों	-11906
▁youths	-11907
▁बुलाया	-11908
▁medium	-11909
▁जन्मदिन	-11910
▁caste	-11911
▁एंटी	-11912
▁जटिल	-11913
▁रानी	-11914
▁सेहत	-11915
eline	-11916
uris	-11917
▁आख़	-11918
abilities	-11919
▁Nifty	-11920
▁ढेर	-11921
▁आरएसएस	-11922
▁Currently	-11923
▁प्रसन्न	-11924
▁चैम्प	-11925
▁निभाई	-11926
▁नैतिक	-11927
▁drugs	-11928
▁conven	-11929
▁सुश्री	-11930
▁Po	-11931
anasi	-11932
▁regions	-11933
▁मिलेंगे	-11934
▁बढ़े	-11935
▁Word	-11936
▁गवर्नर	-11937
▁मकसद	-11938
टीएम	-11939
▁Sukh	-11940
नम	-11941
इंग	-11942
▁challenging	-11943
▁बोझ	-11944
▁सीनियर	-11945
sha	-11946
▁skin	-11947
ework	-11948
▁Script	-11949
▁आश्वासन	-11950
▁Canada	-11951
णाचल	-11952
▁यकीन	-11953
▁Official	-11954
▁reference	-11955
▁अत्यंत	-11956
▁सामूहिक	-11957
▁अनुवाद	-11958
▁अभिनय	-11959
▁crucial	-11960
फ़ी	-11961
▁औष	-11962
iment	-11963
▁fraud	-11964
▁सूर्य	-11965
▁Katrina	-11966
▁Nat	-11967
्रीम	-11968
ायतों	-11969
कन	-11970
▁सेन	-11971
mod	-11972
▁जहाज	-11973
▁James	-11974
▁कामों	-11975
िडी	-11976
level	-11977
▁Dutt	-11978
▁Sang	-11979
▁rupee	-11980
▁न्यूज	-11981
▁choice	-11982
▁कल्पना	-11983
▁आकर्षित	-11984
ैश	-11985
imal	-11986
िकेशन	-11987
▁Band	-11988
▁renew	-11989
▁intend	-11990
ुक्‍त	-11991
▁distance	-11992
▁length	-11993
▁Mahendra	-11994
▁advice	-11995
▁Olympic	-11996
▁CAA	-11997
Go	-11998
▁ताल	-11999
▁खूबसूरत	-12000
▁सुनने	-12001
वर्ड	-12002
।""	-12003
▁गार	-12004
▁willing	-12005
▁mechanism	-12006
▁डिव	-12007
▁academic	-12008
▁मार्गदर्शन	-12009
▁Khar	-12010
oval	-12011
ourses	-12012
▁exports	-12013
▁अगुवाई	-12014
▁Before	-12015
▁खतरनाक	-12016
iler	-12017
ashes	-12018
▁Stat	-12019
ल्थ	-12020
ष्‍ठ	-12021
▁Vill	-12022
▁drinking	-12023
▁आयी	-12024
ूंकि	-12025
जुट	-12026
▁load	-12027
istans	-12028
▁गोर	-12029
▁prove	-12030
▁requirements	-12031
▁seed	-12032
dev	-12033
▁opposed	-12034
▁गुस्	-12035
▁labour	-12036
तांत्रिक	-12037
▁shop	-12038
▁parliamentary	-12039
pa	-12040
▁List	-12041
gen	-12042
▁Jam	-12043
▁Rajk	-12044
▁GDP	-12045
▁भरे	-12046
▁Flip	-12047
▁अड्डे	-12048
व्यू	-12049
▁पेय	-12050
▁scen	-12051
र्र	-12052
▁अत	-12053
▁eye	-12054
ria	-12055
▁ईश्वर	-12056
▁Members	-12057
▁organization	-12058
▁Yah	-12059
▁किशोर	-12060
▁एकीकृत	-12061
▁Internet	-12062
ष्णा	-12063
▁Dar	-12064
▁न्यूय	-12065
डीसी	-12066
▁wait	-12067
सेस	-12068
▁स्तरीय	-12069
kart	-12070
▁भि	-12071
▁Rajesh	-12072
▁आपत्ति	-12073
▁perman	-12074
▁sad	-12075
▁dig	-12076
▁आरक्षण	-12077
▁बंध	-12078
ँह	-12079
▁designed	-12080
▁मिसाइल	-12081
टेल	-12082
▁समृद्ध	-12083
▁व्यक्‍ति	-12084
▁बेस	-12085
cts	-12086
▁Mary	-12087
▁ट्रेड	-12088
▁स्वीकृति	-12089
टों	-12090
teran	-12091
CS	-12092
roc	-12093
▁कठोर	-12094
▁मुज	-12095
▁करीबी	-12096
त्तियों	-12097
▁जब्त	-12098
▁संबोधन	-12099
राई	-12100
▁Exec	-12101
▁Jagran	-12102
▁east	-12103
▁meant	-12104
▁ 	-12105
रोज	-12106
▁यो	-12107
night	-12108
▁उक्त	-12109
inema	-12110
▁आंकड़ा	-12111
▁atmosphere	-12112
हारी	-12113
▁कैद	-12114
▁Sant	-12115
▁भरी	-12116
▁Ris	-12117
▁Tim	-12118
right	-12119
▁dismissed	-12120
▁rivers	-12121
द्यपि	-12122
एसए	-12123
▁ज़मीन	-12124
▁supporting	-12125
▁नारायण	-12126
▁gang	-12127
▁रावत	-12128
irperson	-12129
▁ग्राहक	-12130
▁जोड़ने	-12131
▁amongst	-12132
▁ड्राइवर	-12133
▁demanding	-12134
ba	-12135
क्तूबर	-12136
▁Gar	-12137
▁लूट	-12138
▁Heavy	-12139
▁kids	-12140
▁principles	-12141
फ्तार	-12142
▁स्‍था	-12143
▁Theres	-12144
▁channel	-12145
▁उनपर	-12146
▁सूत्र	-12147
▁Mahindra	-12148
▁कमान	-12149
ायती	-12150
using	-12151
▁undergoing	-12152
oes	-12153
▁spin	-12154
▁साइट	-12155
▁pilgrim	-12156
▁Dont	-12157
▁मनोर	-12158
▁controversy	-12159
▁passenger	-12160
▁दृश्य	-12161
▁ability	-12162
रुण	-12163
▁अतिथि	-12164
▁Viv	-12165
▁secure	-12166
cha	-12167
▁चीज़	-12168
▁Rawat	-12169
▁Arunachal	-12170
▁Swach	-12171
▁investigations	-12172
▁गलती	-12173
▁sort	-12174
▁belief	-12175
atures	-12176
▁एकजुट	-12177
▁crops	-12178
▁frequ	-12179
▁pension	-12180
यो	-12181
igen	-12182
▁Ira	-12183
▁सदस्यीय	-12184
cont	-12185
▁shel	-12186
▁अंबानी	-12187
▁कॉम	-12188
▁सम्मिलित	-12189
hus	-12190
▁प्रे	-12191
forcement	-12192
▁powered	-12193
▁peoples	-12194
▁strongly	-12195
▁त्रिपुरा	-12196
▁हाइ	-12197
▁निकालने	-12198
▁एक्सचेंज	-12199
▁प्रावधानों	-12200
▁इकाइयों	-12201
▁purposes	-12202
▁Royal	-12203
▁चलाया	-12204
▁नष्ट	-12205
Ms	-12206
▁पवन	-12207
▁MSME	-12208
▁healthcare	-12209
▁तेलु	-12210
▁सेल्स	-12211
▁cooper	-12212
▁हिन्दू	-12213
▁नरेन्‍द्र	-12214
▁conducting	-12215
▁Set	-12216
▁deliber	-12217
▁परिवर्त	-12218
▁जैव	-12219
▁crude	-12220
▁nut	-12221
▁Desk	-12222
िक्क	-12223
▁जुटी	-12224
▁solid	-12225
▁निलंबित	-12226
rer	-12227
वित	-12228
ruits	-12229
▁लाइफ	-12230
▁Though	-12231
▁novel	-12232
▁Although	-12233
▁बुद्धि	-12234
▁ID	-12235
▁aid	-12236
▁साधारण	-12237
▁magn	-12238
▁द्वितीय	-12239
्यूज	-12240
▁जाँच	-12241
▁निया	-12242
aduate	-12243
▁headquarters	-12244
▁स्‍तर	-12245
▁राजकुमार	-12246
▁surround	-12247
▁कामक	-12248
amental	-12249
▁देरी	-12250
▁रेप	-12251
▁यूनियन	-12252
▁कामयाब	-12253
▁cancelled	-12254
gypt	-12255
▁perfect	-12256
▁Bet	-12257
ounded	-12258
▁mental	-12259
▁स्त	-12260
▁वैध	-12261
र्पण	-12262
▁conver	-12263
▁Abraham	-12264
▁शेट	-12265
▁सब्स	-12266
ifying	-12267
▁Broad	-12268
▁शताब्दी	-12269
uz	-12270
▁fruit	-12271
ुमान	-12272
▁clause	-12273
▁walk	-12274
▁Johar	-12275
idden	-12276
▁उपधारा	-12277
▁relatives	-12278
cean	-12279
▁जाल	-12280
▁गार्ड	-12281
▁प्रमो	-12282
▁Bharti	-12283
▁चिंत	-12284
▁गरीबी	-12285
▁जोड़ा	-12286
▁Flipkart	-12287
TE	-12288
▁grad	-12289
▁कृपया	-12290
▁Qur	-12291
▁Metro	-12292
CO	-12293
▁ज़र	-12294
zil	-12295
▁Due	-12296
▁investments	-12297
▁sport	-12298
▁बेस्ट	-12299
▁changing	-12300
▁इसल	-12301
▁गिरोह	-12302
▁Tiwari	-12303
▁शैली	-12304
▁appreciated	-12305
▁हंग	-12306
▁ज़रूर	-12307
▁falls	-12308
▁teaching	-12309
▁Mahesh	-12310
▁stress	-12311
endra	-12312
जेंसी	-12313
▁दर्जा	-12314
lection	-12315
▁संस्कृत	-12316
▁Jitendra	-12317
▁Trust	-12318
▁LO	-12319
▁myself	-12320
▁TR	-12321
▁Black	-12322
▁आंकड़े	-12323
▁Tan	-12324
▁engineering	-12325
▁फेर	-12326
्रेशन	-12327
▁Samajwadi	-12328
▁महज	-12329
▁forced	-12330
▁Deepak	-12331
▁ऑप	-12332
▁straight	-12333
▁Training	-12334
▁अनंत	-12335
▁Sahib	-12336
itan	-12337
▁easily	-12338
▁इंस्टीट्यूट	-12339
:-	-12340
▁approx	-12341
▁व्यावसायिक	-12342
▁जवाहर	-12343
ट्टर	-12344
▁Major	-12345
▁उन्‍हें	-12346
rison	-12347
▁Varanasi	-12348
▁contribute	-12349
एडा	-12350
wama	-12351
▁मचा	-12352
▁खींच	-12353
▁वरुण	-12354
akar	-12355
▁crop	-12356
▁boys	-12357
eras	-12358
▁ऑफर	-12359
isher	-12360
▁Ki	-12361
On	-12362
पुट	-12363
▁undertaken	-12364
▁involve	-12365
▁आदान	-12366
▁Mur	-12367
स्‍तान	-12368
▁आएंगी	-12369
▁रिम	-12370
▁Bhushan	-12371
▁consequ	-12372
▁परिणामस्वरूप	-12373
▁poverty	-12374
▁फिल्में	-12375
▁अज़ाब	-12376
▁therein	-12377
डन	-12378
▁अज़ाब	-12379
▁follows	-12380
▁Kab	-12381
▁faces	-12382
▁Ham	-12383
▁Kaif	-12384
पूर	-12385
erring	-12386
assador	-12387
▁surface	-12388
pective	-12389
▁चेहरे	-12390
▁पद्ध	-12391
▁linked	-12392
▁arm	-12393
▁राफेल	-12394
▁कर्त	-12395
▁प्रको	-12396
▁Som	-12397
▁दैनिक	-12398
▁Manish	-12399
▁फाइन	-12400
हमें	-12401
▁दाऊद	-12402
यिक	-12403
▁Gaut	-12404
▁proof	-12405
उप	-12406
▁code	-12407
▁Olympics	-12408
▁Ret	-12409
▁gat	-12410
▁arms	-12411
▁availability	-12412
osop	-12413
▁Azad	-12414
साइड	-12415
▁भूप	-12416
▁निराश	-12417
▁हुसैन	-12418
▁types	-12419
▁अर्ध	-12420
▁उत्पी	-12421
▁मूल्यों	-12422
▁Kot	-12423
▁Lakh	-12424
▁समाजवादी	-12425
▁इस्‍	-12426
▁बढ़ी	-12427
▁अक्तूबर	-12428
▁दब	-12429
▁Agar	-12430
▁territory	-12431
asa	-12432
▁खबरों	-12433
▁दीवार	-12434
▁conspir	-12435
▁अमे	-12436
▁Allahabad	-12437
▁Nan	-12438
▁जबरद	-12439
▁Agree	-12440
soon	-12441
▁Investigation	-12442
▁शौच	-12443
हमारे	-12444
▁possess	-12445
▁संवैधानिक	-12446
▁Egypt	-12447
▁सोल	-12448
▁disput	-12449
ingu	-12450
▁जौहर	-12451
▁मुकेश	-12452
▁larger	-12453
▁जुर्माना	-12454
▁महिंद्रा	-12455
kes	-12456
▁sustainable	-12457
porary	-12458
पता	-12459
कृष्ण	-12460
ख्‍या	-12461
▁गहरी	-12462
▁Recently	-12463
▁Rain	-12464
▁केन्‍द्र	-12465
fit	-12466
सीन	-12467
long	-12468
▁मुआव	-12469
▁सेमीफाइनल	-12470
▁alert	-12471
▁script	-12472
▁खोलने	-12473
▁राजदूत	-12474
▁पीयू	-12475
▁उपक्रम	-12476
NL	-12477
▁dance	-12478
▁एग्	-12479
▁Airtel	-12480
▁संस्‍थ	-12481
जित	-12482
▁Sidhu	-12483
▁प्रतिष्ठित	-12484
▁नाराज	-12485
▁grief	-12486
▁अवस्था	-12487
▁sudden	-12488
▁PR	-12489
।।	-12490
▁Times	-12491
वामा	-12492
▁ascer	-12493
▁संवेद	-12494
▁गौरव	-12495
pter	-12496
▁अकादमी	-12497
ंजा	-12498
▁भरने	-12499
▁भौतिक	-12500
▁feeling	-12501
▁हमलों	-12502
orge	-12503
ाराण	-12504
▁दिमा	-12505
▁Pulwama	-12506
ुरी	-12507
▁इस्पात	-12508
▁alongside	-12509
▁संवाददाताओं	-12510
oram	-12511
▁maintained	-12512
ेशिया	-12513
▁forget	-12514
▁काले	-12515
▁कैफ	-12516
▁Main	-12517
▁THE	-12518
tenance	-12519
्रल	-12520
▁घोटाले	-12521
▁हर्षवर्धन	-12522
▁complaints	-12523
▁protesters	-12524
▁phil	-12525
▁रिकार्ड	-12526
▁संभ	-12527
▁रोका	-12528
▁dialogue	-12529
OL	-12530
usion	-12531
▁मुफ्त	-12532
▁eligible	-12533
▁Devendra	-12534
▁gathering	-12535
▁सीधा	-12536
▁प्रतिनिधिमंडल	-12537
mad	-12538
▁filing	-12539
▁divided	-12540
weh	-12541
osen	-12542
▁यद्यपि	-12543
▁principal	-12544
▁स्पेस	-12545
▁proved	-12546
.""	-12547
क्की	-12548
▁वारदात	-12549
isted	-12550
▁cars	-12551
▁Ambani	-12552
▁symbol	-12553
▁सिद्धू	-12554
▁kid	-12555
▁माँग	-12556
▁listen	-12557
▁jaw	-12558
▁पलट	-12559
▁दायित्व	-12560
▁processing	-12561
लेस	-12562
धारी	-12563
ेबल	-12564
बूत	-12565
▁pace	-12566
ाराणसी	-12567
▁कार्ब	-12568
▁satell	-12569
णित	-12570
र्त	-12571
owed	-12572
hot	-12573
▁collected	-12574
▁मार्क	-12575
▁friendly	-12576
▁बख्	-12577
▁बुर	-12578
wing	-12579
haz	-12580
िकरण	-12581
विधि	-12582
▁mos	-12583
▁imag	-12584
▁aspir	-12585
charged	-12586
▁assessment	-12587
▁Emp	-12588
▁sugar	-12589
▁Sah	-12590
▁बेल	-12591
▁sentence	-12592
▁शेट्टी	-12593
प्रधान	-12594
वस्‍था	-12595
ief	-12596
▁डालने	-12597
▁reservo	-12598
बुल	-12599
▁मजबूर	-12600
डोर	-12601
ensus	-12602
▁तूफान	-12603
▁क़ौम	-12604
▁summit	-12605
▁Organisation	-12606
▁रियल	-12607
icon	-12608
▁इजा	-12609
▁vari	-12610
inent	-12611
▁शत्र	-12612
ांकित	-12613
▁सेंसेक्स	-12614
▁SMS	-12615
▁Any	-12616
▁lose	-12617
▁रंजन	-12618
▁causes	-12619
▁taught	-12620
uja	-12621
िकर	-12622
▁स्कीम	-12623
▁नग	-12624
▁प्रतिदिन	-12625
▁error	-12626
▁teacher	-12627
नाश	-12628
▁Digital	-12629
लाइट	-12630
▁सुनाई	-12631
▁पश्चात	-12632
▁छवि	-12633
▁व्यय	-12634
▁input	-12635
भूति	-12636
▁उपास	-12637
▁मकान	-12638
▁दिक्क	-12639
▁prosec	-12640
कभी	-12641
▁ship	-12642
▁देखो	-12643
▁बचत	-12644
▁फ्ला	-12645
खों	-12646
▁पीढ़ी	-12647
▁सूक्ष्म	-12648
▁साजिश	-12649
ij	-12650
▁lived	-12651
eph	-12652
सनीय	-12653
▁ज्यो	-12654
▁Common	-12655
▁welcomed	-12656
▁राकेश	-12657
term	-12658
▁Sardar	-12659
▁अखिलेश	-12660
▁उपलब्धि	-12661
▁samples	-12662
ruck	-12663
सागर	-12664
▁administrative	-12665
▁लम्	-12666
▁द्वार	-12667
▁struggle	-12668
▁penalty	-12669
▁सिंचाई	-12670
▁पॉल	-12671
okes	-12672
▁iron	-12673
▁prayers	-12674
▁इजाजत	-12675
▁विद्व	-12676
▁install	-12677
▁लंबित	-12678
िकाओं	-12679
▁वीजा	-12680
▁भागों	-12681
▁gard	-12682
एआई	-12683
▁guide	-12684
▁eth	-12685
मिन	-12686
▁Aar	-12687
iciency	-12688
▁participants	-12689
eler	-12690
▁पीने	-12691
▁songs	-12692
▁vital	-12693
▁देवेंद्र	-12694
alaya	-12695
▁Att	-12696
MR	-12697
▁faithful	-12698
▁repeated	-12699
▁procurement	-12700
▁दीन	-12701
▁IAF	-12702
▁अरो	-12703
▁बेन	-12704
▁ताजा	-12705
▁consideration	-12706
ests	-12707
orders	-12708
▁यक़	-12709
▁लुक	-12710
▁aims	-12711
▁प्लस	-12712
▁adopt	-12713
▁termin	-12714
जिस	-12715
▁अंडर	-12716
ridor	-12717
▁मारने	-12718
केल	-12719
jection	-12720
▁numer	-12721
▁नोएडा	-12722
▁policemen	-12723
▁journalist	-12724
▁Shr	-12725
▁wins	-12726
▁बिलकुल	-12727
▁Willi	-12728
▁सफर	-12729
▁stories	-12730
▁ep	-12731
▁संस्थापक	-12732
▁awa	-12733
▁Once	-12734
▁whereas	-12735
▁Pakistans	-12736
्तिक	-12737
▁TMC	-12738
▁सौंपा	-12739
▁टीका	-12740
▁टो	-12741
▁ईडी	-12742
▁ment	-12743
▁शिवराज	-12744
▁plus	-12745
▁marty	-12746
▁Tripura	-12747
अपनी	-12748
▁भूषण	-12749
ashtriya	-12750
PG	-12751
सून	-12752
▁properties	-12753
▁spect	-12754
▁स्टील	-12755
▁धमा	-12756
▁अवगत	-12757
▁वर्गों	-12758
▁हता	-12759
▁Ranjan	-12760
न्दगी	-12761
▁Society	-12762
An	-12763
रेज	-12764
▁व्यस्त	-12765
nels	-12766
प्ति	-12767
व्या	-12768
▁Jawahar	-12769
माश	-12770
▁Ji	-12771
▁अनुबंध	-12772
▁अग्रिम	-12773
▁Each	-12774
▁bird	-12775
▁देखे	-12776
iscal	-12777
▁आराम	-12778
▁छुट्टी	-12779
▁Indones	-12780
▁सशस्त्र	-12781
▁substant	-12782
▁Press	-12783
▁exclus	-12784
▁आवंटन	-12785
▁Dur	-12786
▁करनेवाले	-12787
▁classes	-12788
▁न्यायालयों	-12789
//	-12790
▁villagers	-12791
hane	-12792
▁Rav	-12793
▁यथा	-12794
पीट	-12795
▁छिपा	-12796
ibilities	-12797
▁अपर	-12798
▁व्हाइट	-12799
जिन	-12800
▁Bro	-12801
▁Please	-12802
▁सालाना	-12803
▁ग्रीन	-12804
▁किनारे	-12805
▁formation	-12806
eor	-12807
▁starts	-12808
▁सेवानिव	-12809
▁ट्रेलर	-12810
▁शेख	-12811
▁उपचुनाव	-12812
▁इलाहाबाद	-12813
▁installed	-12814
▁सभ	-12815
▁गें	-12816
▁बचने	-12817
▁विशेषकर	-12818
▁पहलू	-12819
▁truly	-12820
▁हड़ताल	-12821
▁अधिग्रहण	-12822
ोंग	-12823
istrate	-12824
▁फाउंड	-12825
▁independence	-12826
▁Executive	-12827
match	-12828
abi	-12829
▁पुकार	-12830
▁बोलने	-12831
▁adequate	-12832
▁तीव्र	-12833
▁सिलसिले	-12834
ंडे	-12835
▁Green	-12836
▁पार्टियों	-12837
IIMS	-12838
▁Vide	-12839
▁'%	-12840
▁wild	-12841
ोनेशिया	-12842
▁Guru	-12843
▁वजन	-12844
▁कॉर्प	-12845
▁चूंकि	-12846
▁gathered	-12847
▁Noida	-12848
▁Shivraj	-12849
▁गिन	-12850
▁वर्णन	-12851
विज्ञान	-12852
lot	-12853
्‍यादा	-12854
▁पुलवामा	-12855
▁रणनीतिक	-12856
▁मुँह	-12857
▁ruled	-12858
दिल	-12859
▁cra	-12860
▁Independence	-12861
ोड़े	-12862
▁संदीप	-12863
▁equity	-12864
▁cul	-12865
▁Gautam	-12866
▁begins	-12867
▁Aad	-12868
▁extent	-12869
was	-12870
rations	-12871
▁रेडियो	-12872
▁बोलते	-12873
▁शास्त्र	-12874
▁डाले	-12875
▁warning	-12876
बली	-12877
▁छोड़ने	-12878
▁advantage	-12879
▁महेश	-12880
क्‍स	-12881
▁CPI	-12882
▁Pur	-12883
▁लैंड	-12884
▁expert	-12885
ानियों	-12886
▁juris	-12887
▁princ	-12888
▁अभिव्य	-12889
काया	-12890
▁Actress	-12891
▁दोषियों	-12892
▁काउंसिल	-12893
▁banned	-12894
▁solutions	-12895
ande	-12896
स्‍ता	-12897
▁अमृत	-12898
▁बाबा	-12899
▁Indo	-12900
▁Stadium	-12901
▁प्रतिस्पर्धा	-12902
una	-12903
▁cameras	-12904
▁Highways	-12905
▁literature	-12906
ंगुली	-12907
चार्ज	-12908
▁ourselves	-12909
▁काला	-12910
▁Everyone	-12911
▁specified	-12912
▁unknown	-12913
▁elements	-12914
▁तकली	-12915
▁पब्लिक	-12916
▁hur	-12917
▁विविधता	-12918
▁mort	-12919
▁Valley	-12920
▁ज्‍यादा	-12921
casting	-12922
▁गरीबों	-12923
ामक	-12924
▁लगाकर	-12925
▁feels	-12926
harm	-12927
▁fake	-12928
▁Federation	-12929
▁लू	-12930
▁असल	-12931
▁roll	-12932
▁Malays	-12933
▁फि	-12934
▁अवश्य	-12935
TA	-12936
▁इमारत	-12937
▁AI	-12938
▁files	-12939
odh	-12940
▁ग्रा	-12941
▁फस	-12942
▁courage	-12943
▁tribal	-12944
▁advanced	-12945
lin	-12946
▁Priv	-12947
▁हिद	-12948
▁बहनों	-12949
▁ट्रेनों	-12950
मुख्यमंत्री	-12951
▁pointed	-12952
▁procedure	-12953
▁एथ	-12954
रचना	-12955
▁Abdul	-12956
ून्य	-12957
▁inspir	-12958
णवीस	-12959
वाड़ा	-12960
▁campus	-12961
▁पहलुओं	-12962
मानी	-12963
▁acts	-12964
▁हुये	-12965
▁race	-12966
▁ब्लॉक	-12967
▁belongs	-12968
  	-12969
▁Sushma	-12970
▁ईरानी	-12971
▁slogans	-12972
▁मेहर	-12973
▁टेलीवि	-12974
ansk	-12975
▁portal	-12976
▁armed	-12977
▁apostle	-12978
र्जन	-12979
एसएमई	-12980
▁फीचर	-12981
▁अवसरों	-12982
द्रोह	-12983
▁Plus	-12984
्यूस	-12985
▁Rafale	-12986
▁www	-12987
▁Brazil	-12988
aves	-12989
▁simply	-12990
▁संपूर्ण	-12991
▁जहन्न	-12992
▁साक्षा	-12993
▁वाराणसी	-12994
पानी	-12995
▁अध्याय	-12996
▁हिदायत	-12997
▁प्रवर्तन	-12998
ूष	-12999
▁जलाश	-13000
payee	-13001
ोग्रा	-13002
▁Yahweh	-13003
▁writer	-13004
▁categories	-13005
थाम	-13006
पश्चिम	-13007
ua	-13008
▁थोड़ी	-13009
▁perhaps	-13010
▁vaccine	-13011
Sh	-13012
▁Institut	-13013
▁unity	-13014
▁कविता	-13015
▁रौ	-13016
▁clash	-13017
▁concerning	-13018
▁analy	-13019
▁विपणन	-13020
▁wisdom	-13021
▁Arora	-13022
काने	-13023
▁संबद्ध	-13024
▁Abdullah	-13025
uff	-13026
▁obl	-13027
▁chosen	-13028
िपल	-13029
▁Sikk	-13030
▁लोकतांत्रिक	-13031
othing	-13032
▁जुड़	-13033
शक्ति	-13034
▁मानने	-13035
had	-13036
▁जर्मन	-13037
▁Time	-13038
▁मूर्	-13039
▁unless	-13040
प्रदान	-13041
▁intens	-13042
▁अखबार	-13043
▁Land	-13044
▁अमरि	-13045
▁mainly	-13046
erciful	-13047
amin	-13048
▁fed	-13049
Pakistan	-13050
▁रोगियों	-13051
▁सड़	-13052
▁दरों	-13053
▁worst	-13054
▁गेट	-13055
▁कामना	-13056
▁बतौर	-13057
▁toward	-13058
▁Exchange	-13059
▁leaves	-13060
▁ट्रस्ट	-13061
णमूल	-13062
▁प्रका	-13063
▁गि	-13064
▁wont	-13065
▁Ric	-13066
▁चरणों	-13067
▁figure	-13068
▁remark	-13069
पाकिस्तान	-13070
itely	-13071
▁Iraq	-13072
▁brings	-13073
▁इंटरव्यू	-13074
नैप	-13075
▁NS	-13076
▁prosperity	-13077
▁वाजपेयी	-13078
▁millions	-13079
ासित	-13080
▁झा	-13081
enses	-13082
hajan	-13083
चित्र	-13084
▁सबके	-13085
▁twice	-13086
▁पुरी	-13087
▁tough	-13088
AB	-13089
हु	-13090
▁कव	-13091
igil	-13092
▁handle	-13093
▁नीलामी	-13094
://	-13095
गंज	-13096
▁Motor	-13097
▁गणराज्य	-13098
lights	-13099
बई	-13100
▁Haz	-13101
ritsar	-13102
▁पर्स	-13103
▁interesting	-13104
▁बनना	-13105
▁पढ़ने	-13106
▁पाएंगे	-13107
cheduled	-13108
▁retire	-13109
▁opposite	-13110
क्षिक	-13111
ूसु	-13112
usted	-13113
ेडकर	-13114
urved	-13115
▁heat	-13116
▁निफ्टी	-13117
सेल	-13118
▁उमर	-13119
▁advocate	-13120
▁निस्संदेह	-13121
▁इटली	-13122
▁आईं	-13123
isition	-13124
▁failure	-13125
▁स्थानांतर	-13126
RI	-13127
▁मिज	-13128
▁emerged	-13129
▁celebrations	-13130
▁सत्या	-13131
▁Engineering	-13132
▁wise	-13133
▁ज्योति	-13134
▁कंगना	-13135
▁अनुदान	-13136
▁appealed	-13137
अमेर	-13138
ails	-13139
▁Sea	-13140
▁निवास	-13141
▁Mukesh	-13142
▁Academy	-13143
▁Rashtriya	-13144
▁stable	-13145
▁स्थगित	-13146
▁assum	-13147
▁helping	-13148
▁खून	-13149
▁newly	-13150
▁instance	-13151
▁Citizenship	-13152
▁श्रेय	-13153
▁भजन	-13154
▁Vikas	-13155
Os	-13156
▁विवेक	-13157
▁toss	-13158
▁निदेशालय	-13159
▁घे	-13160
▁Atal	-13161
▁male	-13162
▁जेएनयू	-13163
▁Natural	-13164
शिक	-13165
स्पी	-13166
▁rum	-13167
▁dated	-13168
▁Sandeep	-13169
otees	-13170
ईडी	-13171
ansion	-13172
▁अपडेट	-13173
▁लेफ्ट	-13174
▁schedule	-13175
▁Akhilesh	-13176
▁बर्फ	-13177
▁Total	-13178
▁Friend	-13179
▁confirm	-13180
▁MT	-13181
▁Take	-13182
▁theme	-13183
▁रजत	-13184
▁Lalu	-13185
▁सवालों	-13186
▁त्रुट	-13187
icip	-13188
▁रफ्तार	-13189
▁bomb	-13190
▁Bhut	-13191
▁Vivo	-13192
▁refuge	-13193
▁तत्कालीन	-13194
▁Rakesh	-13195
ानिया	-13196
▁piv	-13197
elsius	-13198
▁Micro	-13199
▁generally	-13200
▁currency	-13201
टीन	-13202
nan	-13203
▁earned	-13204
▁Sciences	-13205
ढ़ा	-13206
▁Satan	-13207
▁गांगुली	-13208
▁heritage	-13209
▁किंग्स	-13210
utin	-13211
▁Forces	-13212
▁recover	-13213
▁महत्‍वपूर्ण	-13214
▁Jain	-13215
▁legend	-13216
▁संयुक्‍त	-13217
▁सोनम	-13218
phones	-13219
्यूशन	-13220
▁घटकर	-13221
▁संख्‍या	-13222
▁विज्ञापन	-13223
▁Gaur	-13224
▁Agency	-13225
bi	-13226
▁style	-13227
▁greetings	-13228
▁trees	-13229
▁दशा	-13230
▁तुर्की	-13231
▁council	-13232
▁hero	-13233
▁Officers	-13234
▁beneficiaries	-13235
▁शुक्	-13236
Com	-13237
▁रखो	-13238
▁श्रद्धा	-13239
▁चैम्पियन	-13240
▁Mun	-13241
▁please	-13242
ल्डर	-13243
ृत्य	-13244
▁AP	-13245
▁Excell	-13246
▁टॉस	-13247
▁बताने	-13248
▁ven	-13249
▁Agra	-13250
▁फर्जी	-13251
▁प्राइमरी	-13252
▁sacrifice	-13253
▁west	-13254
▁खुफिया	-13255
▁Pass	-13256
न्दा	-13257
मेरे	-13258
▁peaceful	-13259
्वीप	-13260
▁टर्म	-13261
▁pregn	-13262
▁प्लेटफॉर्म	-13263
▁चंद	-13264
xic	-13265
▁मोड	-13266
▁निष्कर्ष	-13267
सो	-13268
▁copy	-13269
▁Premier	-13270
▁software	-13271
▁flu	-13272
▁शिमला	-13273
▁emotion	-13274
Ex	-13275
वाधिकार	-13276
▁outstanding	-13277
▁Directorate	-13278
ष्क	-13279
▁Festival	-13280
ching	-13281
▁मेन	-13282
▁Sonam	-13283
▁बदमाश	-13284
▁भला	-13285
▁situated	-13286
▁Chat	-13287
▁घटा	-13288
▁stressed	-13289
▁सैक	-13290
▁धोखाध	-13291
▁Aviation	-13292
▁मंत्रालयों	-13293
▁goals	-13294
▁विनियम	-13295
लोत	-13296
▁आशीष	-13297
▁closely	-13298
oom	-13299
▁picked	-13300
ैया	-13301
▁ओबामा	-13302
▁सुम	-13303
▁कमरे	-13304
room	-13305
▁भलाई	-13306
▁एक्टिव	-13307
फाइल	-13308
▁फांसी	-13309
▁Jal	-13310
▁constitution	-13311
▁जाव	-13312
▁तृणमूल	-13313
▁explos	-13314
एनजी	-13315
▁दोग	-13316
▁पीयूष	-13317
▁humans	-13318
▁movies	-13319
▁हादसा	-13320
▁intelligence	-13321
बर्ग	-13322
▁Gopal	-13323
त्रि	-13324
▁कले	-13325
▁LORD	-13326
▁followers	-13327
▁greatest	-13328
▁संपाद	-13329
▁animal	-13330
▁celebrate	-13331
हरण	-13332
▁घूम	-13333
▁Smart	-13334
▁sky	-13335
▁Vaj	-13336
▁कली	-13337
▁photograph	-13338
▁distributed	-13339
▁seeing	-13340
▁inspired	-13341
ोत्सव	-13342
▁premises	-13343
▁relative	-13344
▁डिफ	-13345
▁species	-13346
▁बहा	-13347
anguly	-13348
▁lands	-13349
▁Surely	-13350
▁एक्शन	-13351
▁कार्यशाला	-13352
▁NG	-13353
▁आड	-13354
▁quickly	-13355
redit	-13356
▁चर्च	-13357
▁आईआईटी	-13358
िस्ट्रेट	-13359
यदि	-13360
▁centuries	-13361
▁अब्दुल्ला	-13362
▁एडमिट	-13363
▁परम	-13364
▁showc	-13365
▁Gree	-13366
ुलर	-13367
▁रीति	-13368
▁यक़	-13369
▁सम्‍म	-13370
▁Aj	-13371
▁Petrol	-13372
▁ऊंचाई	-13373
yas	-13374
स्पर	-13375
atio	-13376
Cong	-13377
▁पदा	-13378
▁शिक्षण	-13379
▁transactions	-13380
▁अता	-13381
aving	-13382
▁Chak	-13383
▁माननीय	-13384
▁Miz	-13385
▁Chall	-13386
▁entrepreneurs	-13387
▁DM	-13388
iyush	-13389
▁कराना	-13390
▁इकट्ठा	-13391
▁कीमतें	-13392
▁असली	-13393
▁विलियम	-13394
▁बच्चा	-13395
▁resigned	-13396
▁Shuk	-13397
▁bridge	-13398
▁गोपाल	-13399
▁विभाजन	-13400
aja	-13401
▁Tro	-13402
▁लोन	-13403
▁examples	-13404
▁architect	-13405
ipped	-13406
▁baby	-13407
captain	-13408
▁winners	-13409
▁interact	-13410
▁Start	-13411
▁निकले	-13412
▁quit	-13413
▁तटीय	-13414
employ	-13415
▁although	-13416
▁believes	-13417
▁लैस	-13418
हादुर	-13419
▁incor	-13420
ैग	-13421
▁संपन्न	-13422
ोलिक	-13423
▁निर्दिष्ट	-13424
▁directions	-13425
धव	-13426
▁विद्यार्थी	-13427
▁उतारा	-13428
▁विमानों	-13429
▁मूल्‍य	-13430
▁Assistant	-13431
▁Tests	-13432
परी	-13433
▁Kaus	-13434
▁western	-13435
▁appears	-13436
▁reading	-13437
▁universities	-13438
▁Happ	-13439
▁इंटरनल	-13440
ॉफ	-13441
▁दिना	-13442
▁producer	-13443
▁हज	-13444
▁प्रसंस्	-13445
▁Captain	-13446
athy	-13447
▁सतत	-13448
▁खरीदा	-13449
▁branch	-13450
▁जैन	-13451
▁फरमा	-13452
rigation	-13453
▁चौक	-13454
गारों	-13455
▁notified	-13456
▁Gor	-13457
▁edition	-13458
एँगे	-13459
▁परा	-13460
?""	-13461
ivek	-13462
भारतीय	-13463
IG	-13464
▁प्रिंट	-13465
▁क्वाल	-13466
▁functioning	-13467
▁casual	-13468
▁prepare	-13469
झाने	-13470
▁महत्त्वपूर्ण	-13471
▁doesn	-13472
▁soil	-13473
▁उत्तराखण्ड	-13474
▁पड़ने	-13475
▁fruits	-13476
▁possibility	-13477
▁विश्वविद्यालयों	-13478
▁praise	-13479
▁सेंट्रल	-13480
▁Jad	-13481
▁नबी	-13482
▁उत्तम	-13483
▁पेड़	-13484
▁Mc	-13485
▁मांस	-13486
▁कामकाज	-13487
▁select	-13488
▁जिसको	-13489
▁tank	-13490
▁संप्र	-13491
▁सदस्‍	-13492
सास	-13493
वारी	-13494
▁regularly	-13495
▁distin	-13496
▁समानता	-13497
▁applied	-13498
▁fought	-13499
▁Ish	-13500
▁scholars	-13501
▁मानवाधिकार	-13502
जिटिव	-13503
▁नाबाल	-13504
स्तर	-13505
पीआई	-13506
▁permanent	-13507
▁शह	-13508
▁सॉफ्टवेयर	-13509
▁Ambed	-13510
▁बिन	-13511
▁इसलिये	-13512
▁कलाकारों	-13513
▁jurisdict	-13514
▁external	-13515
▁फंसे	-13516
▁इंडोनेशिया	-13517
वाहा	-13518
▁सिया	-13519
▁motiv	-13520
▁elim	-13521
▁participating	-13522
aling	-13523
▁दुष्कर्म	-13524
▁Legislative	-13525
eta	-13526
west	-13527
▁facts	-13528
▁pivotal	-13529
▁डिस्	-13530
▁भेजी	-13531
▁belonging	-13532
aren	-13533
▁Piyush	-13534
oda	-13535
▁warned	-13536
▁गहलोत	-13537
▁farmer	-13538
▁Ganguly	-13539
▁Rand	-13540
▁अग्रणी	-13541
▁एचडीएफसी	-13542
▁Ha	-13543
▁privile	-13544
▁सेल्सियस	-13545
▁Grand	-13546
▁offence	-13547
▁clin	-13548
▁stead	-13549
▁गेह	-13550
▁formal	-13551
▁devices	-13552
▁Chaudhary	-13553
▁Kha	-13554
▁ANI	-13555
▁फाउंडेशन	-13556
▁snow	-13557
▁Maruti	-13558
arm	-13559
▁त्योह	-13560
urrection	-13561
FI	-13562
वायर	-13563
▁कमांडर	-13564
▁मलेशिया	-13565
▁master	-13566
▁Celsius	-13567
▁dia	-13568
▁बजा	-13569
▁अनुपात	-13570
▁Elections	-13571
▁आयतों	-13572
▁समावेश	-13573
eg	-13574
▁जमी	-13575
umber	-13576
▁Innov	-13577
ंगत	-13578
जीवन	-13579
▁कार्तिक	-13580
▁नवीकरण	-13581
ifications	-13582
▁philosop	-13583
▁Whe	-13584
▁बारी	-13585
DRF	-13586
▁Six	-13587
ilding	-13588
▁Did	-13589
▁Agreement	-13590
रियर	-13591
▁सतह	-13592
कॉ	-13593
▁गर	-13594
▁Puri	-13595
▁Advani	-13596
▁अत्यन्त	-13597
▁बाज़	-13598
▁BR	-13599
▁Mil	-13600
▁agend	-13601
▁साहिब	-13602
▁angels	-13603
▁किंतु	-13604
▁bowling	-13605
HA	-13606
▁त्रि	-13607
▁Labour	-13608
▁consumers	-13609
▁Rash	-13610
▁हॉकी	-13611
▁विशेषता	-13612
ाज्य	-13613
▁आदम	-13614
▁भरपूर	-13615
▁टेल	-13616
▁voting	-13617
▁younger	-13618
▁Arabia	-13619
लत	-13620
िमान	-13621
▁factors	-13622
▁divide	-13623
▁Housing	-13624
▁replace	-13625
▁core	-13626
▁प्रदर्शनी	-13627
▁ऑफ़	-13628
▁आनन्द	-13629
▁eastern	-13630
▁dollar	-13631
▁अवॉर्ड	-13632
▁abscond	-13633
्रीट	-13634
▁सत्	-13635
▁allot	-13636
▁दिमाग	-13637
▁पुलिसकर्मी	-13638
▁शून्य	-13639
iced	-13640
▁उपलब्धता	-13641
▁सूर	-13642
▁fest	-13643
ेंच	-13644
▁खेली	-13645
▁Sikkim	-13646
▁investigated	-13647
क्टिविटी	-13648
▁मौजूदगी	-13649
बैक	-13650
साधारण	-13651
▁motorcy	-13652
▁imprison	-13653
▁comprehensive	-13654
oked	-13655
शोधन	-13656
▁पॉजिटिव	-13657
▁स्टार्ट	-13658
▁reservoirs	-13659
▁improvement	-13660
▁राज्यमंत्री	-13661
चंद्र	-13662
▁दोगु	-13663
ertiliz	-13664
ज़न	-13665
▁Obama	-13666
▁mal	-13667
iments	-13668
▁खनन	-13669
ालैंड	-13670
▁उपग्रह	-13671
▁प्राप्ति	-13672
▁corporate	-13673
itors	-13674
▁norms	-13675
▁हक़	-13676
▁verily	-13677
oga	-13678
▁Gard	-13679
▁पोस्टर	-13680
भाई	-13681
▁electronic	-13682
नीत	-13683
▁Mang	-13684
▁मैक्स	-13685
▁courses	-13686
बंद	-13687
▁मसीहियों	-13688
टेक	-13689
▁ख्याल	-13690
▁locations	-13691
▁Great	-13692
▁समृद्धि	-13693
▁Ek	-13694
▁fiscal	-13695
▁सीखने	-13696
▁determined	-13697
दिव	-13698
▁दिनेश	-13699
▁पठ	-13700
▁बचे	-13701
▁griev	-13702
▁approached	-13703
▁EV	-13704
▁सौदे	-13705
ालियों	-13706
▁Akhtar	-13707
▁listed	-13708
▁Vivek	-13709
▁conflict	-13710
निर्भर	-13711
▁consec	-13712
▁dropped	-13713
▁Ros	-13714
▁प्रताप	-13715
▁Cooperation	-13716
▁अपनाने	-13717
▁टेक्नोलॉजी	-13718
hin	-13719
▁choose	-13720
ham	-13721
▁डब्ल्यू	-13722
UN	-13723
oration	-13724
▁inflation	-13725
▁interested	-13726
▁sanctioned	-13727
jud	-13728
▁करु	-13729
▁storm	-13730
▁नाकाम	-13731
▁pattern	-13732
▁materials	-13733
ट्	-13734
▁ब्रा	-13735
▁लड़के	-13736
▁Pas	-13737
▁इंकार	-13738
▁Non	-13739
▁मंजूर	-13740
▁बलिदान	-13741
सीएस	-13742
▁premi	-13743
▁Indore	-13744
▁retired	-13745
▁रॉयल	-13746
▁requirement	-13747
▁मॉड	-13748
आउट	-13749
भाषित	-13750
▁छू	-13751
hari	-13752
▁suffer	-13753
▁prescribed	-13754
▁हेली	-13755
▁गवाही	-13756
▁labor	-13757
▁Chris	-13758
▁इक्	-13759
▁sets	-13760
▁ठिक	-13761
umble	-13762
▁सपना	-13763
▁Process	-13764
ग्रा	-13765
▁फेंक	-13766
▁heads	-13767
ल्ला	-13768
▁राणा	-13769
▁कब्जा	-13770
▁establishment	-13771
▁struct	-13772
lets	-13773
▁honoured	-13774
▁Shukla	-13775
ola	-13776
▁pure	-13777
inance	-13778
▁अमल	-13779
नाइटेड	-13780
▁Meeting	-13781
पुल	-13782
राय	-13783
▁draft	-13784
▁मायावती	-13785
▁संग्रहालय	-13786
बलों	-13787
▁selfie	-13788
▁कठिना	-13789
बॉ	-13790
▁papers	-13791
▁requires	-13792
▁मानकों	-13793
▁समन्वय	-13794
My	-13795
▁thats	-13796
▁उद्धव	-13797
▁खि	-13798
▁harmony	-13799
SI	-13800
स्पति	-13801
▁constitutional	-13802
▁दीर्घ	-13803
▁contains	-13804
ार्टर	-13805
▁Chin	-13806
▁Kann	-13807
स्‍प	-13808
▁मुक़	-13809
anskrit	-13810
▁फेड	-13811
▁leads	-13812
▁completion	-13813
ढ़े	-13814
▁इत्या	-13815
▁advert	-13816
oles	-13817
▁Udd	-13818
▁ढूं	-13819
▁यूसु	-13820
▁Despite	-13821
▁probably	-13822
▁toler	-13823
▁गारंटी	-13824
lu	-13825
anti	-13826
▁PG	-13827
▁जाधव	-13828
▁प्रकाशन	-13829
eria	-13830
▁आचार	-13831
▁सम्‍मेलन	-13832
ups	-13833
▁NIA	-13834
▁unbel	-13835
तीत	-13836
▁filled	-13837
टित	-13838
alam	-13839
▁रसायन	-13840
▁उत्पीड़न	-13841
▁cat	-13842
andum	-13843
▁तस	-13844
▁समापन	-13845
xy	-13846
स्थापित	-13847
▁figures	-13848
ष्‍ट्र	-13849
keeper	-13850
▁चिट	-13851
▁ट्रॉ	-13852
▁Han	-13853
▁सुदृ	-13854
▁लाइव	-13855
▁खड़ी	-13856
▁Narayan	-13857
▁डीजी	-13858
▁करवाने	-13859
aces	-13860
▁driving	-13861
▁jump	-13862
▁परियोजनाएं	-13863
▁agenda	-13864
र्इ	-13865
▁नर्स	-13866
▁रोकथाम	-13867
▁सांप	-13868
ंथी	-13869
▁देखता	-13870
▁नवाज	-13871
orter	-13872
▁fighter	-13873
%.	-13874
▁jun	-13875
▁fundamental	-13876
lex	-13877
▁जख	-13878
▁Rules	-13879
▁स्वदेश	-13880
▁स्पेन	-13881
▁learned	-13882
▁AB	-13883
▁guided	-13884
▁democratic	-13885
MT	-13886
भु	-13887
adekar	-13888
struction	-13889
▁मामूली	-13890
▁रिटर्न	-13891
▁convict	-13892
▁Insurance	-13893
▁organizations	-13894
िनेंट	-13895
▁लोह	-13896
▁Right	-13897
▁Aditya	-13898
▁singer	-13899
कैया	-13900
▁Secondary	-13901
▁नाते	-13902
▁अरुणाचल	-13903
▁सिम	-13904
▁saved	-13905
्मिक	-13906
▁सिक्किम	-13907
But	-13908
▁ODIs	-13909
▁theat	-13910
▁Click	-13911
▁स्नैप	-13912
▁Japanese	-13913
▁Jun	-13914
▁आख़िर	-13915
▁Jerusal	-13916
▁explained	-13917
▁Qualcomm	-13918
▁aspect	-13919
▁remand	-13920
▁सज	-13921
दर्शिता	-13922
▁समुदायों	-13923
ैक्ट	-13924
▁IAS	-13925
▁ग्लोबल	-13926
▁पंजीकृत	-13927
AY	-13928
रार	-13929
▁XI	-13930
want	-13931
▁Id	-13932
▁African	-13933
rown	-13934
▁डायरेक्ट	-13935
▁dates	-13936
▁highway	-13937
▁कच	-13938
ख्तर	-13939
▁expression	-13940
onom	-13941
nu	-13942
▁club	-13943
▁ब्लू	-13944
▁labou	-13945
NB	-13946
▁Electric	-13947
▁conspiracy	-13948
▁अफसर	-13949
▁भावनाओं	-13950
वने	-13951
AE	-13952
▁निरीक्षण	-13953
ैव	-13954
▁उद्देश्‍य	-13955
▁Administration	-13956
▁location	-13957
▁Badal	-13958
▁thoughts	-13959
▁डेब्यू	-13960
▁promises	-13961
▁Amritsar	-13962
▁उड़ा	-13963
▁channels	-13964
VP	-13965
▁explain	-13966
्मण	-13967
▁aimed	-13968
▁decline	-13969
▁citizenship	-13970
बर्ट	-13971
▁UPA	-13972
▁गणना	-13973
▁तुझे	-13974
बन	-13975
▁सीआरपीएफ	-13976
▁फड	-13977
▁involving	-13978
▁बहादुर	-13979
▁describ	-13980
▁शैक्षिक	-13981
▁पैन	-13982
▁बनाता	-13983
▁लाह	-13984
शेष	-13985
▁Men	-13986
▁समाप	-13987
ashion	-13988
▁plane	-13989
▁regime	-13990
india	-13991
▁ड्यू	-13992
▁Joseph	-13993
▁interrog	-13994
▁अधिकारिता	-13995
▁Star	-13996
eav	-13997
uties	-13998
▁ओम	-13999
▁नाबालिग	-14000
ान्	-14001
ंगों	-14002
▁ऑफिशियल	-14003
▁खन	-14004
ronics	-14005
▁खबरें	-14006
वाने	-14007
cend	-14008
▁ease	-14009
पद	-14010
▁बुराई	-14011
▁एसबीआई	-14012
▁अल्पसंख्यक	-14013
▁एव	-14014
▁Agarwal	-14015
,‘	-14016
अब	-14017
शास्त्र	-14018
▁इर	-14019
▁रखती	-14020
यार	-14021
▁Huss	-14022
▁Shim	-14023
▁बुक	-14024
▁mishap	-14025
▁जबरदस्त	-14026
▁Gog	-14027
▁owner	-14028
▁निकलने	-14029
कांग्रेस	-14030
▁कं	-14031
▁obey	-14032
▁cells	-14033
▁maintenance	-14034
▁एनआरसी	-14035
▁hotel	-14036
▁travelling	-14037
च्‍च	-14038
▁Sindhu	-14039
▁Dinesh	-14040
▁trouble	-14041
▁Muz	-14042
फ्रा	-14043
▁violation	-14044
▁हमसे	-14045
▁अवधार	-14046
▁Applic	-14047
▁bron	-14048
▁football	-14049
▁घु	-14050
▁AIIMS	-14051
▁ग्रामीणों	-14052
मीर	-14053
▁Da	-14054
▁मुर	-14055
▁मांगा	-14056
▁राइ	-14057
icient	-14058
▁पन	-14059
aria	-14060
kaiah	-14061
▁Cust	-14062
▁bid	-14063
▁स्टूडेंट्स	-14064
▁guarant	-14065
▁alt	-14066
▁सीएस	-14067
visional	-14068
▁Sr	-14069
▁दुर	-14070
▁कपड़े	-14071
▁हिंदुस्तान	-14072
▁reaching	-14073
▁Lah	-14074
▁hang	-14075
▁Coal	-14076
▁Ev	-14077
▁इच्छुक	-14078
ults	-14079
▁कस	-14080
▁कृष्णा	-14081
▁Superintendent	-14082
▁आईसी	-14083
anj	-14084
▁चौथा	-14085
▁mouth	-14086
▁jew	-14087
▁स्टैंड	-14088
क्‍ट	-14089
▁revel	-14090
जनों	-14091
▁Om	-14092
▁अर्पित	-14093
ॉयड	-14094
iring	-14095
▁गेंदों	-14096
▁accompl	-14097
kha	-14098
▁Sit	-14099
▁Ser	-14100
▁नकारात्मक	-14101
ampur	-14102
rives	-14103
ित्रा	-14104
▁Soon	-14105
▁साक्षात्कार	-14106
▁संल	-14107
awati	-14108
▁पश्चात्	-14109
▁स्टेशनों	-14110
▁toil	-14111
hash	-14112
▁कहेंगे	-14113
▁मतदाता	-14114
▁अख्तर	-14115
्‍यम	-14116
▁cum	-14117
वादियों	-14118
▁Mobile	-14119
▁इलेक्ट्रॉनिक	-14120
▁bott	-14121
▁concluded	-14122
▁functions	-14123
▁कैंप	-14124
▁स्टो	-14125
▁इंदौर	-14126
धिकारियों	-14127
▁अजी	-14128
▁शर्त	-14129
▁Centres	-14130
▁जायेगी	-14131
वाना	-14132
पेक्ष	-14133
▁लिहाज	-14134
▁Results	-14135
▁युवकों	-14136
▁Jac	-14137
▁रूट	-14138
▁Kangana	-14139
▁province	-14140
bo	-14141
rier	-14142
▁सेटअप	-14143
▁owners	-14144
▁अनुप्र	-14145
▁प्रक्रियाओं	-14146
▁Ayush	-14147
▁Ambedkar	-14148
▁नकदी	-14149
यद	-14150
▁NI	-14151
म्‍बर	-14152
▁टेलीविजन	-14153
▁dangerous	-14154
▁इत्यादि	-14155
▁percentage	-14156
वाट	-14157
▁Ru	-14158
ंचित	-14159
▁ISRO	-14160
aiah	-14161
▁ath	-14162
▁manager	-14163
▁स्थिरता	-14164
▁Abb	-14165
▁Uddhav	-14166
yers	-14167
▁fan	-14168
▁format	-14169
त्ते	-14170
▁महाराज	-14171
▁raising	-14172
▁governor	-14173
▁प्रशांत	-14174
▁पर्यटकों	-14175
▁apolog	-14176
▁models	-14177
▁साक्षियों	-14178
▁अंतर्राष्‍ट्रीय	-14179
▁हॉल	-14180
▁trailer	-14181
▁न्यूयॉर्क	-14182
▁historical	-14183
rers	-14184
▁thanked	-14185
▁negoti	-14186
▁प्रसंस्करण	-14187
▁कनेक्टिविटी	-14188
▁wake	-14189
▁MC	-14190
▁भेदभाव	-14191
▁resulted	-14192
▁expansion	-14193
भूषण	-14194
▁गोग	-14195
एसडी	-14196
▁attitude	-14197
पह	-14198
ibly	-14199
▁hat	-14200
▁selling	-14201
क्रमण	-14202
▁Mizoram	-14203
oves	-14204
वाया	-14205
▁इब्र	-14206
▁कैश	-14207
edy	-14208
addha	-14209
▁वंश	-14210
▁अंदाज	-14211
▁tot	-14212
▁भंडारण	-14213
▁Nobody	-14214
▁विमानन	-14215
▁witnesses	-14216
▁Jadhav	-14217
संरचना	-14218
▁जरूरतों	-14219
▁Disaster	-14220
▁गढ़	-14221
▁fathers	-14222
▁Jerusalem	-14223
▁निवार	-14224
▁reduction	-14225
▁floor	-14226
न्‍ना	-14227
▁लाइट	-14228
▁Gir	-14229
▁हसन	-14230
▁NC	-14231
ieties	-14232
▁mix	-14233
▁discharged	-14234
odi	-14235
▁housing	-14236
ालिम	-14237
▁सोनी	-14238
▁मेहता	-14239
▁Infrastructure	-14240
▁हथियारों	-14241
समय	-14242
▁marketing	-14243
▁उत्‍तर	-14244
▁अस्तित्व	-14245
▁exped	-14246
▁temples	-14247
▁मजा	-14248
▁tear	-14249
▁फडणवीस	-14250
Man	-14251
onda	-14252
ासा	-14253
wala	-14254
▁Marsh	-14255
▁excellent	-14256
▁मास्क	-14257
्यिकी	-14258
▁Chow	-14259
▁स्पी	-14260
adda	-14261
bon	-14262
▁suit	-14263
▁लापता	-14264
▁वितरित	-14265
ज़र	-14266
▁alloc	-14267
ंतिम	-14268
▁डेवल	-14269
▁नाटक	-14270
▁Protection	-14271
▁friendship	-14272
▁hundreds	-14273
▁पहुंचकर	-14274
ह्न	-14275
▁मछली	-14276
▁Resources	-14277
▁indu	-14278
▁शवों	-14279
▁Mehta	-14280
▁आडवाणी	-14281
▁tourists	-14282
ैम	-14283
uhan	-14284
▁कुम	-14285
▁concent	-14286
तावास	-14287
▁बुरे	-14288
▁अधिकरण	-14289
▁!	-14290
▁upto	-14291
नैतिक	-14292
▁Camp	-14293
▁लाना	-14294
▁arbit	-14295
▁बढ़ता	-14296
संगत	-14297
▁medals	-14298
▁suggestions	-14299
▁आयर	-14300
▁Verily	-14301
▁विट	-14302
▁losses	-14303
▁मेघालय	-14304
▁sufficient	-14305
▁indigen	-14306
▁Jawaharlal	-14307
▁टेनिस	-14308
ariat	-14309
बहुत	-14310
sych	-14311
▁Naval	-14312
▁unve	-14313
xis	-14314
▁लगते	-14315
▁Swachh	-14316
▁seeks	-14317
▁विद्या	-14318
▁कांस	-14319
▁Crore	-14320
▁पेशेवर	-14321
▁मनोरंजन	-14322
▁framework	-14323
ाजील	-14324
▁ईश	-14325
▁आश्च	-14326
▁Check	-14327
▁हितधारकों	-14328
▁Polit	-14329
▁applicable	-14330
्‍मी	-14331
▁reiter	-14332
▁hyd	-14333
▁furn	-14334
▁threatened	-14335
शीलता	-14336
UV	-14337
आन	-14338
▁लंबा	-14339
▁दिलों	-14340
▁cinema	-14341
▁deny	-14342
▁Bench	-14343
▁सलामी	-14344
▁trained	-14345
▁पाइ	-14346
▁मजदूरों	-14347
डिया	-14348
▁jointly	-14349
▁अरोड़ा	-14350
eorological	-14351
▁उदार	-14352
▁डेन	-14353
ki	-14354
▁stre	-14355
▁कप्त	-14356
▁पदार्थों	-14357
ुदाय	-14358
▁सचिवालय	-14359
डीओ	-14360
न्ध्र	-14361
▁जीती	-14362
▁represented	-14363
uki	-14364
▁highlighted	-14365
▁Change	-14366
▁रखेंगे	-14367
Our	-14368
▁ऑपरे	-14369
▁देवगन	-14370
▁Pres	-14371
utely	-14372
▁निर्माताओं	-14373
uses	-14374
ocking	-14375
▁store	-14376
▁founder	-14377
▁widely	-14378
▁Gram	-14379
▁फ़ैस	-14380
▁buses	-14381
▁मैनेज	-14382
▁अपराधों	-14383
▁Regional	-14384
rine	-14385
▁lear	-14386
▁Hand	-14387
▁फसलों	-14388
▁blessings	-14389
▁consumption	-14390
▁cry	-14391
▁cook	-14392
▁Banks	-14393
cut	-14394
▁charging	-14395
ेय	-14396
odia	-14397
▁shops	-14398
iar	-14399
▁जनजातीय	-14400
▁endeav	-14401
ड्स	-14402
inda	-14403
▁सदस्यता	-14404
ओसी	-14405
▁बहाल	-14406
▁learnt	-14407
ंबा	-14408
▁drop	-14409
▁sight	-14410
▁bowler	-14411
▁परस्पर	-14412
▁jurisdiction	-14413
▁duties	-14414
▁Ashwin	-14415
▁कलीसिया	-14416
▁Hood	-14417
▁push	-14418
▁gains	-14419
▁numerous	-14420
ux	-14421
▁दिखाता	-14422
▁finished	-14423
▁मजिस्ट्रेट	-14424
▁तलाक	-14425
▁लल	-14426
▁तार	-14427
▁बनकर	-14428
▁उपयोगी	-14429
▁fill	-14430
▁आईडी	-14431
NS	-14432
▁Teh	-14433
▁ख़बर	-14434
field	-14435
▁साधन	-14436
▁तोमर	-14437
▁लगेगा	-14438
cluding	-14439
▁missile	-14440
mas	-14441
▁Hussain	-14442
▁Meghalaya	-14443
▁उतना	-14444
▁हवाला	-14445
itime	-14446
ैगन	-14447
▁कू	-14448
▁Gre	-14449
▁फुल	-14450
issions	-14451
uration	-14452
▁instructions	-14453
▁Raja	-14454
▁Private	-14455
▁resolved	-14456
चुअल	-14457
▁जलाशयों	-14458
▁htt	-14459
▁bagged	-14460
▁subsequently	-14461
▁माप	-14462
▁prohib	-14463
just	-14464
met	-14465
▁Bag	-14466
▁hair	-14467
▁प्रच	-14468
▁Javadekar	-14469
▁दूतावास	-14470
UR	-14471
▁जादू	-14472
▁counterpart	-14473
▁दलील	-14474
▁तीर्थ	-14475
askar	-14476
▁कनेक्शन	-14477
▁सिद्धांतों	-14478
kg	-14479
▁Skill	-14480
▁resist	-14481
▁substantial	-14482
किट	-14483
▁मसले	-14484
▁साक्ष्य	-14485
पुरी	-14486
▁चावल	-14487
▁effects	-14488
▁सफलतापूर्वक	-14489
SR	-14490
attar	-14491
▁Patil	-14492
▁दुर्भाग्य	-14493
▁reviewed	-14494
▁condolences	-14495
▁Aay	-14496
▁सुर्	-14497
▁एनडीए	-14498
▁दवाओं	-14499
aughter	-14500
जीबी	-14501
▁rice	-14502
▁क्यू	-14503
लेम	-14504
ellow	-14505
▁शांत	-14506
रेशन	-14507
▁कथा	-14508
▁messages	-14509
▁bronze	-14510
▁Sanskrit	-14511
▁discount	-14512
▁Geh	-14513
▁Hindust	-14514
▁बेचने	-14515
▁Kanpur	-14516
▁Coast	-14517
▁announce	-14518
▁मानी	-14519
▁आन्ध्र	-14520
▁revolution	-14521
pol	-14522
▁स्मारक	-14523
Wh	-14524
▁सर्ज	-14525
ribution	-14526
▁हराकर	-14527
▁expanded	-14528
▁पांड	-14529
▁sixth	-14530
▁Survey	-14531
pert	-14532
ctive	-14533
▁entit	-14534
▁pride	-14535
▁प्लास्टिक	-14536
थल	-14537
▁आर्मी	-14538
▁causing	-14539
▁धोखाधड़ी	-14540
▁wasnt	-14541
You	-14542
och	-14543
बानी	-14544
▁Adam	-14545
▁Fort	-14546
▁कन्न	-14547
▁Swami	-14548
▁जेम्स	-14549
▁buildings	-14550
▁Sign	-14551
▁LED	-14552
▁मेक	-14553
▁हॉस्प	-14554
▁संवाददाता	-14555
साइकिल	-14556
▁worshi	-14557
▁चतु	-14558
▁conclus	-14559
Un	-14560
▁रेख	-14561
▁फुटबॉल	-14562
वाज	-14563
▁दिव्या	-14564
▁दर्शाता	-14565
uters	-14566
▁मच	-14567
▁बैंड	-14568
▁wheat	-14569
▁चिन्ह	-14570
▁आश्चर्य	-14571
ोरेंस	-14572
▁medicines	-14573
▁चाय	-14574
▁यहीं	-14575
▁रिहा	-14576
बूल	-14577
▁इजाफा	-14578
▁नृत्य	-14579
▁हिस्‍	-14580
▁भूट	-14581
ामिन	-14582
▁payments	-14583
▁ratio	-14584
स्वतंत्र	-14585
▁felicit	-14586
▁recognised	-14587
▁mandatory	-14588
▁न्यायाधीशों	-14589
aked	-14590
▁Prophet	-14591
▁डिवा	-14592
▁Ahmad	-14593
▁Cell	-14594
▁magaz	-14595
▁जिनसे	-14596
▁mostly	-14597
▁analysis	-14598
▁decre	-14599
▁धारणा	-14600
▁वेंकैया	-14601
▁मल्	-14602
▁जैक	-14603
▁एससी	-14604
gs	-14605
▁row	-14606
▁खातों	-14607
▁लोगो	-14608
ading	-14609
▁लगाना	-14610
ोजक	-14611
▁लॉग	-14612
▁isnt	-14613
▁Nagpur	-14614
▁consumer	-14615
rum	-14616
▁तलाशी	-14617
▁त्याग	-14618
▁compar	-14619
▁नु	-14620
▁Dig	-14621
▁आईसीआई	-14622
▁पुरूष	-14623
▁टाइम्स	-14624
▁शेर	-14625
quake	-14626
▁Inc	-14627
▁विनोद	-14628
वनेश्वर	-14629
▁Scheduled	-14630
▁पुलिसकर्मियों	-14631
▁प्रत्‍	-14632
▁putting	-14633
▁environmental	-14634
▁Va	-14635
▁outl	-14636
▁स्पीड	-14637
▁burden	-14638
▁अश्विन	-14639
▁मतदाताओं	-14640
▁देशवासियों	-14641
acific	-14642
▁Sav	-14643
▁हेल	-14644
▁अलर्ट	-14645
▁revised	-14646
▁impl	-14647
▁Buddh	-14648
आईएस	-14649
▁वर	-14650
▁Pil	-14651
▁exceed	-14652
▁certificate	-14653
▁coin	-14654
▁आवेद	-14655
▁Nagaland	-14656
▁researc	-14657
▁Moreover	-14658
ellect	-14659
▁Line	-14660
▁wicked	-14661
▁alive	-14662
▁व्‍यापार	-14663
▁consecutive	-14664
▁अर्थात	-14665
▁municipal	-14666
▁reservation	-14667
▁इलेक्ट्रिक	-14668
abu	-14669
apse	-14670
▁Khanna	-14671
▁arg	-14672
▁talked	-14673
▁पेपर	-14674
▁सहकारी	-14675
▁Mos	-14676
▁sessions	-14677
▁ट्रैक	-14678
▁शांतिपूर्ण	-14679
्मान	-14680
▁Devgn	-14681
▁herself	-14682
च्छा	-14683
▁ज़ाहिर	-14684
▁रूसी	-14685
▁Investment	-14686
िर्	-14687
▁हुड्डा	-14688
▁imper	-14689
▁Indonesia	-14690
▁बीमारियों	-14691
▁Suz	-14692
▁worksh	-14693
पीएल	-14694
चरण	-14695
▁यहूदी	-14696
▁Democratic	-14697
क्‍ता	-14698
▁Trophy	-14699
▁discrim	-14700
▁स्पोर्ट	-14701
▁TO	-14702
▁चौथी	-14703
▁chain	-14704
▁संजीव	-14705
▁Rights	-14706
▁रहमान	-14707
▁conscious	-14708
▁loving	-14709
▁managing	-14710
▁अभ्य	-14711
▁प्रीमियर	-14712
▁panchayat	-14713
ptoms	-14714
CI	-14715
▁मीटिंग	-14716
urities	-14717
▁deeply	-14718
▁कानपुर	-14719
क्क	-14720
adise	-14721
▁differences	-14722
तू	-14723
▁एमएसएमई	-14724
▁Pratap	-14725
▁विवादित	-14726
raid	-14727
▁सीमाओं	-14728
▁stability	-14729
कर्मियों	-14730
▁सब्सिडी	-14731
चंद	-14732
स्तरीय	-14733
Congress	-14734
president	-14735
बाह	-14736
▁\\	-14737
▁सई	-14738
मान्य	-14739
▁साइंस	-14740
▁machine	-14741
▁वाशिंगटन	-14742
सुर	-14743
इए	-14744
▁रुक	-14745
किया	-14746
▁दिनांक	-14747
wah	-14748
▁semi	-14749
▁अकबर	-14750
▁जूनियर	-14751
▁स्टोर	-14752
कांक्षा	-14753
ipt	-14754
▁kingdom	-14755
▁रेस	-14756
▁vast	-14757
▁राधा	-14758
▁श्रमिकों	-14759
▁Desh	-14760
▁acknow	-14761
▁सुधारों	-14762
gery	-14763
▁condemned	-14764
▁असं	-14765
▁अधिसूचित	-14766
appa	-14767
▁सीरिया	-14768
▁RE	-14769
▁धु	-14770
▁वर्क	-14771
▁variety	-14772
▁unable	-14773
▁ग्रो	-14774
▁दुआ	-14775
▁print	-14776
▁दुश्म	-14777
▁fold	-14778
▁परीक्षाओं	-14779
▁bed	-14780
▁माफ	-14781
▁Jack	-14782
▁thereafter	-14783
▁धातु	-14784
▁रूपए	-14785
▁बृह	-14786
▁छेड़	-14787
▁uncle	-14788
▁चैल	-14789
▁त्व	-14790
▁मानता	-14791
▁Thereafter	-14792
▁sevent	-14793
बस	-14794
▁Lat	-14795
▁मिजोरम	-14796
▁restrictions	-14797
▁खुली	-14798
▁yield	-14799
▁ज़रिए	-14800
▁imports	-14801
▁withdraw	-14802
▁sep	-14803
▁सच्चा	-14804
▁sensitive	-14805
▁dealing	-14806
▁worldwide	-14807
▁accordance	-14808
▁डेम	-14809
▁touc	-14810
▁डांस	-14811
▁युक्त	-14812
iban	-14813
▁Bhup	-14814
▁coalition	-14815
▁experienced	-14816
▁मायने	-14817
▁Scient	-14818
▁ऐंड	-14819
▁नहर	-14820
▁बताता	-14821
Mo	-14822
▁accidents	-14823
eer	-14824
▁thereof	-14825
▁चुप	-14826
सरण	-14827
▁दशकों	-14828
▁शमी	-14829
▁लांच	-14830
▁अनुमानित	-14831
▁cow	-14832
▁लिखने	-14833
▁covering	-14834
▁targeted	-14835
hard	-14836
▁गणतंत्र	-14837
▁Mayawati	-14838
▁Hig	-14839
ilitation	-14840
▁devotees	-14841
▁hect	-14842
heet	-14843
▁exchang	-14844
▁ब्राजील	-14845
▁obtained	-14846
▁Ministries	-14847
orted	-14848
▁Gehlot	-14849
ड़प	-14850
▁उर्वरक	-14851
▁Italy	-14852
▁Guard	-14853
▁डिप्टी	-14854
▁integrity	-14855
▁हरे	-14856
▁Minor	-14857
▁spotted	-14858
▁कदमों	-14859
▁मनाने	-14860
▁Credit	-14861
▁otherwise	-14862
▁gar	-14863
▁Steve	-14864
▁shift	-14865
▁womens	-14866
क्सीन	-14867
▁बचपन	-14868
▁स्थलों	-14869
स्ड	-14870
▁नतीजा	-14871
▁lad	-14872
दायिक	-14873
▁अमृतसर	-14874
▁प्रतिमा	-14875
tees	-14876
▁Myan	-14877
▁remind	-14878
▁northern	-14879
गेट	-14880
▁उत्सव	-14881
▁disaster	-14882
▁आईसीआईसीआई	-14883
थन	-14884
rators	-14885
टके	-14886
dess	-14887
For	-14888
▁interaction	-14889
ूर्ण	-14890
▁Top	-14891
hvi	-14892
▁किस्म	-14893
▁Love	-14894
▁escape	-14895
▁allocation	-14896
▁Trin	-14897
▁ऊँ	-14898
▁convention	-14899
olid	-14900
▁कम्य	-14901
▁मार्ट	-14902
लीन	-14903
दुनिया	-14904
▁drawn	-14905
▁हैरान	-14906
▁Bob	-14907
▁comprises	-14908
▁wall	-14909
New	-14910
▁जोड़े	-14911
▁USA	-14912
▁tells	-14913
esty	-14914
▁fulfilled	-14915
टरों	-14916
▁बरसा	-14917
▁मतभ	-14918
▁विलय	-14919
▁sites	-14920
▁allows	-14921
▁आपसे	-14922
▁Culture	-14923
gra	-14924
▁termed	-14925
▁ब्रह्म	-14926
▁package	-14927
▁सुनकर	-14928
▁firms	-14929
▁हेल्थ	-14930
▁sovere	-14931
▁शक्‍ति	-14932
▁considering	-14933
cles	-14934
▁परिभाषित	-14935
▁pilot	-14936
▁Justices	-14937
▁Pandya	-14938
isan	-14939
देवी	-14940
▁सूरत	-14941
▁कांस्य	-14942
▁सुशील	-14943
▁किरण	-14944
▁उछ	-14945
▁enemy	-14946
▁principle	-14947
▁Hist	-14948
▁Hooda	-14949
▁यूसुफ	-14950
▁चोर	-14951
चेरी	-14952
▁Muzaff	-14953
▁भुवनेश्वर	-14954
▁recruitment	-14955
▁crossed	-14956
▁efficiency	-14957
▁supports	-14958
▁धाराओं	-14959
म्बई	-14960
▁Nand	-14961
▁anger	-14962
▁Chandr	-14963
▁useful	-14964
पीपी	-14965
othes	-14966
▁Vajpayee	-14967
डमिंटन	-14968
▁फरी	-14969
▁मुश	-14970
▁broken	-14971
▁approximately	-14972
▁उपासना	-14973
▁integrated	-14974
वधि	-14975
सिम	-14976
्‍च	-14977
▁platforms	-14978
▁नड्डा	-14979
/-	-14980
▁खट्टर	-14981
▁फ़र	-14982
▁लाई	-14983
▁Like	-14984
▁Dubai	-14985
▁existence	-14986
▁मारुति	-14987
किसी	-14988
▁शिश	-14989
▁त्रुटि	-14990
place	-14991
▁ईसाई	-14992
▁mAh	-14993
▁achievement	-14994
गणना	-14995
▁गहन	-14996
▁plot	-14997
▁Madh	-14998
▁युवती	-14999
▁activists	-15000
▁southern	-15001
्श	-15002
▁Hot	-15003
ण्	-15004
▁साधा	-15005
ौदा	-15006
▁कालेज	-15007
▁murd	-15008
▁फास्ट	-15009
▁सदा	-15010
▁खनिज	-15011
▁Consumer	-15012
▁Padma	-15013
▁bowlers	-15014
▁झेल	-15015
▁विभाजित	-15016
पीठ	-15017
▁absence	-15018
▁uses	-15019
▁दिश	-15020
▁mining	-15021
▁exception	-15022
▁absconding	-15023
salm	-15024
ुल्म	-15025
▁Along	-15026
asc	-15027
ilas	-15028
▁कक्ष	-15029
▁शीर्षक	-15030
▁yourselves	-15031
पिंग	-15032
▁मुकदम	-15033
वेस्ट	-15034
िवारिक	-15035
▁unfortun	-15036
▁Ghaz	-15037
▁whoever	-15038
▁reducing	-15039
word	-15040
▁संतु	-15041
▁अपहरण	-15042
▁फैलाने	-15043
▁मानवीय	-15044
▁तेरी	-15045
▁supporters	-15046
क्रामक	-15047
मुच	-15048
▁Bum	-15049
▁अंतरिम	-15050
▁thereby	-15051
प्रकाश	-15052
▁Hardik	-15053
▁योजनाएं	-15054
icks	-15055
▁लौटा	-15056
▁अगला	-15057
▁हानि	-15058
▁बेरोज	-15059
▁चिंतित	-15060
▁केन	-15061
▁sick	-15062
▁परिणामों	-15063
रखा	-15064
▁नागपुर	-15065
▁रोशन	-15066
▁दिलचस्पी	-15067
▁Pa	-15068
▁Pant	-15069
▁auction	-15070
▁मासिक	-15071
भावना	-15072
▁नाज़	-15073
पाई	-15074
राशि	-15075
▁afraid	-15076
▁thanks	-15077
▁presently	-15078
ANS	-15079
काय	-15080
▁CH	-15081
▁calc	-15082
▁Planning	-15083
tra	-15084
▁definitely	-15085
▁प्रिंस	-15086
▁capable	-15087
▁उपभोक्ताओं	-15088
▁contributed	-15089
inating	-15090
▁चक्रवा	-15091
▁Matthew	-15092
विटी	-15093
▁Ber	-15094
▁forever	-15095
▁prize	-15096
▁शौचालय	-15097
▁talent	-15098
▁पाँच	-15099
▁बताए	-15100
▁लौटने	-15101
▁actual	-15102
▁रोजाना	-15103
▁श्रद्धाल	-15104
▁सत्तार	-15105
िनल	-15106
▁postp	-15107
मंत्रियों	-15108
▁Unt	-15109
ishad	-15110
▁settled	-15111
▁समित	-15112
ortheast	-15113
▁falling	-15114
▁सज़ा	-15115
▁पेयजल	-15116
▁suspected	-15117
▁Armed	-15118
▁promot	-15119
▁लेफ्टिनेंट	-15120
▁floods	-15121
▁प्रतिद्व	-15122
डो	-15123
▁nav	-15124
igious	-15125
ips	-15126
▁Prem	-15127
▁राजनैतिक	-15128
▁innovative	-15129
▁conservation	-15130
▁Chem	-15131
▁जूझ	-15132
hand	-15133
▁नकद	-15134
▁cultiv	-15135
cher	-15136
▁Nick	-15137
▁बाबत	-15138
▁Interest	-15139
▁Teac	-15140
▁admission	-15141
▁Malaysia	-15142
▁emerging	-15143
▁Tomar	-15144
▁Ravind	-15145
▁drama	-15146
▁Local	-15147
▁प्रस्‍	-15148
▁vegetables	-15149
बेल	-15150
▁तालि	-15151
▁Subhash	-15152
gam	-15153
auty	-15154
ulam	-15155
आरआई	-15156
▁plastic	-15157
▁अनुप्रयोग	-15158
ऊंगा	-15159
▁brain	-15160
ोजी	-15161
▁Dan	-15162
▁आदर	-15163
break	-15164
▁चपेट	-15165
▁harassment	-15166
▁मारपीट	-15167
योग्य	-15168
▁forb	-15169
▁borrow	-15170
▁demise	-15171
▁विचारधारा	-15172
▁alternative	-15173
▁uns	-15174
aksha	-15175
▁साम्र	-15176
▁Det	-15177
फार्म	-15178
▁Jade	-15179
▁craft	-15180
▁lying	-15181
▁Abhi	-15182
▁diet	-15183
▁जद	-15184
▁Was	-15185
▁beneficial	-15186
▁Anur	-15187
▁घटनाएं	-15188
▁स्कूली	-15189
CM	-15190
▁जितेंद्र	-15191
शनी	-15192
▁positions	-15193
Us	-15194
▁मज़बूत	-15195
कल्पिक	-15196
▁relation	-15197
▁Gogoi	-15198
▁extension	-15199
▁paying	-15200
▁intention	-15201
▁स्नातक	-15202
▁focused	-15203
▁पारिवारिक	-15204
ुदायिक	-15205
▁wherein	-15206
लोगों	-15207
▁सुर्ख	-15208
▁losing	-15209
▁segment	-15210
▁आभार	-15211
PR	-15212
▁Laksh	-15213
▁electoral	-15214
osis	-15215
▁sem	-15216
▁बहर	-15217
▁reserved	-15218
▁competitive	-15219
▁Um	-15220
▁amaz	-15221
▁Mother	-15222
▁tickets	-15223
जाने	-15224
▁एबी	-15225
▁एजें	-15226
▁फर्क	-15227
arnath	-15228
▁उम्‍मी	-15229
▁venture	-15230
▁प्रतिबंधित	-15231
▁ध्‍	-15232
▁निष्पक्ष	-15233
▁effectively	-15234
▁implementing	-15235
▁गिनती	-15236
uma	-15237
▁BSF	-15238
▁एके	-15239
herry	-15240
▁pron	-15241
hit	-15242
▁बेंच	-15243
▁सुरक्षाबलों	-15244
ड्रैगन	-15245
▁commence	-15246
▁enhanced	-15247
▁वैकल्पिक	-15248
ालों	-15249
▁एयरटेल	-15250
ayam	-15251
iciary	-15252
▁साइबर	-15253
बै	-15254
मोरी	-15255
ानिर्	-15256
▁अवधारणा	-15257
▁चैंपियनशिप	-15258
▁Based	-15259
▁पद्धति	-15260
▁delight	-15261
▁शिरकत	-15262
▁अनुसरण	-15263
▁Friends	-15264
▁दिलचस्प	-15265
poll	-15266
छाड़	-15267
्रेन	-15268
▁grat	-15269
▁asserted	-15270
▁अधिवक्ता	-15271
▁constantly	-15272
इश	-15273
▁सचमुच	-15274
▁कहाँ	-15275
एजेंसी	-15276
▁रेश	-15277
▁पंजाबी	-15278
▁Je	-15279
arency	-15280
ocol	-15281
▁नज़	-15282
▁Er	-15283
▁गैंग	-15284
!"""	-15285
▁लगती	-15286
▁hike	-15287
assion	-15288
▁रवै	-15289
ियर्स	-15290
▁separat	-15291
महिम	-15292
िवेश	-15293
▁Bhutan	-15294
▁Dec	-15295
▁Look	-15296
▁बिंदु	-15297
मेक	-15298
▁medicine	-15299
▁cad	-15300
ुमराह	-15301
ॉप्टर	-15302
ulty	-15303
].	-15304
▁मोटरसाइकिल	-15305
▁KL	-15306
▁गोगोई	-15307
▁गतिविधि	-15308
वराज	-15309
▁Conf	-15310
▁प्राथम	-15311
▁Univers	-15312
▁motion	-15313
▁मिस्र	-15314
▁illust	-15315
प्पी	-15316
▁Ans	-15317
▁अभियुक्त	-15318
▁Bur	-15319
▁divor	-15320
िफिकेशन	-15321
▁नोटबंदी	-15322
lected	-15323
▁Yuv	-15324
▁चिप	-15325
▁जहन्नुम	-15326
▁communal	-15327
▁questioning	-15328
▁moral	-15329
▁मास्टर	-15330
▁Through	-15331
▁अनुपालन	-15332
▁Mart	-15333
▁auto	-15334
▁मिशेल	-15335
▁स्पिनर	-15336
▁बत	-15337
▁Leader	-15338
▁Myanmar	-15339
यें	-15340
▁क्ली	-15341
▁depth	-15342
मू	-15343
hani	-15344
▁हिट	-15345
core	-15346
osure	-15347
▁लिंग	-15348
▁nomination	-15349
जुए	-15350
▁पढ़ा	-15351
▁पद्म	-15352
▁letters	-15353
▁मंग	-15354
antic	-15355
▁Stock	-15356
▁तत्वों	-15357
न्वित	-15358
▁Nadda	-15359
▁tribute	-15360
bur	-15361
▁खन्ना	-15362
▁conversation	-15363
क्व	-15364
▁सकल	-15365
▁gained	-15366
▁margin	-15367
▁Selection	-15368
,'	-15369
▁dry	-15370
▁वंचित	-15371
▁प्रशास	-15372
▁अनुराग	-15373
▁mountain	-15374
बूझ	-15375
▁rare	-15376
▁महोदय	-15377
▁initially	-15378
▁Win	-15379
कक्ष	-15380
aration	-15381
▁लव	-15382
▁nic	-15383
स्पे	-15384
▁Honble	-15385
▁titled	-15386
▁achievements	-15387
▁grew	-15388
▁Video	-15389
▁सहारा	-15390
▁ट्रेनिंग	-15391
PA	-15392
▁Jews	-15393
ym	-15394
नहीं	-15395
एसी	-15396
्यौ	-15397
▁टैग	-15398
▁Jonas	-15399
▁खाड़ी	-15400
▁बैडमिंटन	-15401
▁हताहत	-15402
picious	-15403
▁दुबई	-15404
▁Tiger	-15405
▁batsmen	-15406
▁funding	-15407
▁संवेदना	-15408
ष्कार	-15409
पुरम	-15410
सारी	-15411
ateful	-15412
▁fired	-15413
▁कारा	-15414
▁partys	-15415
▁dim	-15416
▁enthus	-15417
▁stayed	-15418
▁Khattar	-15419
▁तिल	-15420
▁favor	-15421
▁स्टीव	-15422
EA	-15423
opic	-15424
ईसी	-15425
▁blind	-15426
▁सावधानी	-15427
लाद	-15428
▁ग्री	-15429
▁contem	-15430
▁जख्मी	-15431
▁पीजी	-15432
▁सांख	-15433
▁खेलना	-15434
ICS	-15435
मित्व	-15436
▁गेहूं	-15437
▁Bumrah	-15438
▁इसरो	-15439
▁ख़िला	-15440
▁रुपया	-15441
▁struck	-15442
▁मानदंड	-15443
▁निचले	-15444
DF	-15445
▁दस्तावेजों	-15446
▁सामुदायिक	-15447
di	-15448
▁ड्रग	-15449
▁meets	-15450
▁Sheikh	-15451
रस	-15452
weets	-15453
िंदर	-15454
सीम	-15455
ुरान	-15456
erved	-15457
▁Index	-15458
▁contra	-15459
▁Resource	-15460
▁यूएस	-15461
▁fix	-15462
▁fielded	-15463
yam	-15464
ailed	-15465
▁wearing	-15466
▁Vol	-15467
▁झूठे	-15468
▁liquid	-15469
▁Championship	-15470
▁Warner	-15471
▁करनेवालों	-15472
म्मत	-15473
▁Pawan	-15474
▁आवंटित	-15475
▁Ravindra	-15476
्रय	-15477
▁Mis	-15478
ifies	-15479
▁उम्‍मीद	-15480
▁Ayushman	-15481
लिटी	-15482
गाव	-15483
ेदी	-15484
▁preparations	-15485
पोषण	-15486
टरीना	-15487
▁वफा	-15488
▁दयाल	-15489
from	-15490
▁एकड़	-15491
▁rememb	-15492
identified	-15493
▁गोद	-15494
▁Text	-15495
▁दलित	-15496
▁अवार्ड	-15497
▁अमरिंदर	-15498
िरो	-15499
एक्स	-15500
▁ब्रेक	-15501
▁शुक्ला	-15502
थान	-15503
▁सौंपी	-15504
▁विक्रम	-15505
जैसे	-15506
रखाव	-15507
▁triple	-15508
▁हॉस्पिटल	-15509
▁अफवाह	-15510
▁प्राथमिकी	-15511
बड़ी	-15512
lihood	-15513
क्टेयर	-15514
▁tenure	-15515
)."	-15516
rian	-15517
▁वाद	-15518
▁Panch	-15519
▁Regist	-15520
▁अवसंरचना	-15521
▁अपनाया	-15522
ications	-15523
▁conferred	-15524
पुरा	-15525
▁torment	-15526
▁असाधारण	-15527
▁भूटान	-15528
Amendment	-15529
hotra	-15530
▁सेवन	-15531
▁Which	-15532
▁gift	-15533
▁searching	-15534
▁Tw	-15535
▁मृ	-15536
▁visits	-15537
रेखा	-15538
▁hits	-15539
ENT	-15540
▁दिलाने	-15541
▁replied	-15542
▁veteran	-15543
▁era	-15544
▁nod	-15545
▁मानवता	-15546
▁Islamabad	-15547
ंसक	-15548
्लाई	-15549
cro	-15550
स्‍व	-15551
▁उच्‍च	-15552
▁निभाने	-15553
▁रेटिंग	-15554
▁उन्होने	-15555
▁प्रशिक्षित	-15556
▁maintaining	-15557
▁रुचि	-15558
▁borders	-15559
elt	-15560
▁pac	-15561
▁opens	-15562
▁Jadeja	-15563
▁Jin	-15564
▁गायक	-15565
▁उदय	-15566
मेट	-15567
wani	-15568
▁अभाव	-15569
▁tourist	-15570
▁returning	-15571
▁Case	-15572
शिष्ट	-15573
▁businesses	-15574
iland	-15575
[...]
