<pad>	0
<unk>	0
<bos>	0
<eos>	0
<en>	0
<hi>	0
<0x00>	0
<0x01>	0
<0x02>	0
<0x03>	0
<0x04>	0
<0x05>	0
<0x06>	0
<0x07>	0
<0x08>	0
<0x09>	0
<0x0A>	0
<0x0B>	0
<0x0C>	0
<0x0D>	0
<0x0E>	0
<0x0F>	0
<0x10>	0
<0x11>	0
<0x12>	0
<0x13>	0
<0x14>	0
<0x15>	0
<0x16>	0
<0x17>	0
<0x18>	0
<0x19>	0
<0x1A>	0
<0x1B>	0
<0x1C>	0
<0x1D>	0
<0x1E>	0
<0x1F>	0
<0x20>	0
<0x21>	0
<0x22>	0
<0x23>	0
<0x24>	0
<0x25>	0
<0x26>	0
<0x27>	0
<0x28>	0
<0x29>	0
<0x2A>	0
<0x2B>	0
<0x2C>	0
<0x2D>	0
<0x2E>	0
<0x2F>	0
<0x30>	0
<0x31>	0
<0x32>	0
<0x33>	0
<0x34>	0
<0x35>	0
<0x36>	0
<0x37>	0
<0x38>	0
<0x39>	0
<0x3A>	0
<0x3B>	0
<0x3C>	0
<0x3D>	0
<0x3E>	0
<0x3F>	0
<0x40>	0
<0x41>	0
<0x42>	0
<0x43>	0
<0x44>	0
<0x45>	0
<0x46>	0
<0x47>	0
<0x48>	0
<0x49>	0
<0x4A>	0
<0x4B>	0
<0x4C>	0
<0x4D>	0
<0x4E>	0
<0x4F>	0
<0x50>	0
<0x51>	0
<0x52>	0
<0x53>	0
<0x54>	0
<0x55>	0
<0x56>	0
<0x57>	0
<0x58>	0
<0x59>	0
<0x5A>	0
<0x5B>	0
<0x5C>	0
<0x5D>	0
<0x5E>	0
<0x5F>	0
<0x60>	0
<0x61>	0
<0x62>	0
<0x63>	0
<0x64>	0
<0x65>	0
<0x66>	0
<0x67>	0
<0x68>	0
<0x69>	0
<0x6A>	0
<0x6B>	0
<0x6C>	0
<0x6D>	0
<0x6E>	0
<0x6F>	0
<0x70>	0
<0x71>	0
<0x72>	0
<0x73>	0
<0x74>	0
<0x75>	0
<0x76>	0
<0x77>	0
<0x78>	0
<0x79>	0
<0x7A>	0
<0x7B>	0
<0x7C>	0
<0x7D>	0
<0x7E>	0
<0x7F>	0
<0x80>	0
<0x81>	0
<0x82>	0
<0x83>	0
<0x84>	0
<0x85>	0
<0x86>	0
<0x87>	0
<0x88>	0
<0x89>	0
<0x8A>	0
<0x8B>	0
<0x8C>	0
<0x8D>	0
<0x8E>	0
<0x8F>	0
<0x90>	0
<0x91>	0
<0x92>	0
<0x93>	0
<0x94>	0
<0x95>	0
<0x96>	0
<0x97>	0
<0x98>	0
<0x99>	0
<0x9A>	0
<0x9B>	0
<0x9C>	0
<0x9D>	0
<0x9E>	0
<0x9F>	0
<0xA0>	0
<0xA1>	0
<0xA2>	0
<0xA3>	0
<0xA4>	0
<0xA5>	0
<0xA6>	0
<0xA7>	0
<0xA8>	0
<0xA9>	0
<0xAA>	0
<0xAB>	0
<0xAC>	0
<0xAD>	0
<0xAE>	0
<0xAF>	0
<0xB0>	0
<0xB1>	0
<0xB2>	0
<0xB3>	0
<0xB4>	0
<0xB5>	0
<0xB6>	0
<0xB7>	0
<0xB8>	0
<0xB9>	0
<0xBA>	0
<0xBB>	0
<0xBC>	0
<0xBD>	0
<0xBE>	0
<0xBF>	0
<0xC0>	0
<0xC1>	0
<0xC2>	0
<0xC3>	0
<0xC4>	0
<0xC5>	0
<0xC6>	0
<0xC7>	0
<0xC8>	0
<0xC9>	0
<0xCA>	0
<0xCB>	0
<0xCC>	0
<0xCD>	0
<0xCE>	0
<0xCF>	0
<0xD0>	0
<0xD1>	0
<0xD2>	0
<0xD3>	0
<0xD4>	0
<0xD5>	0
<0xD6>	0
<0xD7>	0
<0xD8>	0
<0xD9>	0
<0xDA>	0
<0xDB>	0
<0xDC>	0
<0xDD>	0
<0xDE>	0
<0xDF>	0
<0xE0>	0
<0xE1>	0
<0xE2>	0
<0xE3>	0
<0xE4>	0
<0xE5>	0
<0xE6>	0
<0xE7>	0
<0xE8>	0
<0xE9>	0
<0xEA>	0
<0xEB>	0
<0xEC>	0
<0xED>	0
<0xEE>	0
<0xEF>	0
<0xF0>	0
<0xF1>	0
<0xF2>	0
<0xF3>	0
<0xF4>	0
<0xF5>	0
<0xF6>	0
<0xF7>	0
<0xF8>	0
<0xF9>	0
<0xFA>	0
<0xFB>	0
<0xFC>	0
<0xFD>	0
<0xFE>	0
<0xFF>	0
▁क	-0
▁t	-1
he	-2
▁a	-3
▁स	-4
▁ह	-5
in	-6
▁the	-7
▁o	-8
▁प	-9
re	-10
▁म	-11
er	-12
▁s	-13
्र	-14
nd	-15
at	-16
on	-17
▁w	-18
ार	-19
is	-20
▁है	-21
ें	-22
▁ज	-23
▁के	-24
▁अ	-25
en	-26
▁व	-27
या	-28
▁of	-29
▁न	-30
it	-31
▁c	-32
or	-33
▁b	-34
es	-35
▁ब	-36
ed	-37
▁f	-38
▁p	-39
ou	-40
▁उ	-41
ों	-42
an	-43
▁त	-44
▁द	-45
al	-46
ar	-47
▁ल	-48
▁in	-49
▁and	-50
ने	-51
▁औ	-52
ing	-53
▁में	-54
र्	-55
▁और	-56
▁र	-57
▁to	-58
▁m	-59
ion	-60
▁d	-61
ता	-62
▁h	-63
्य	-64
▁की	-65
▁कर	-66
ान	-67
ic	-68
as	-69
▁प्र	-70
▁कि	-71
▁आ	-72
▁(	-73
िक	-74
le	-75
▁को	-76
om	-77
▁से	-78
ent	-79
▁th	-80
▁भ	-81
ll	-82
्त	-83
▁का	-84
▁n	-85
▁T	-86
ना	-87
▁A	-88
▁इ	-89
▁ग	-90
ित	-91
▁be	-92
ve	-93
▁I	-94
▁e	-95
ct	-96
▁re	-97
▁S	-98
▁is	-99
▁पर	-100
ाल	-101
ro	-102
▁य	-103
▁हो	-104
▁l	-105
▁ए	-106
st	-107
ot	-108
▁g	-109
्व	-110
ut	-111
▁च	-112
id	-113
ही	-114
▁y	-115
न्	-116
se	-117
ation	-118
▁श	-119
िए	-120
▁for	-121
▁वि	-122
ur	-123
im	-124
▁सं	-125
ते	-126
ce	-127
ly	-128
ad	-129
▁wh	-130
ay	-131
▁जा	-132
▁हैं	-133
ver	-134
am	-135
▁इस	-136
▁C	-137
िय	-138
▁u	-139
▁The	-140
था	-141
्ष	-142
के	-143
ला	-144
▁you	-145
ow	-146
▁उस	-147
▁एक	-148
ोग	-149
▁P	-150
स्	-151
ड़	-152
▁on	-153
▁M	-154
▁ख	-155
et	-156
ति	-157
il	-158
▁H	-159
▁लिए	-160
▁-	-161
ir	-162
हा	-163
ig	-164
▁सम	-165
्या	-166
▁that	-167
ुम	-168
हीं	-169
ती	-170
्ट	-171
ch	-172
िया	-173
▁फ	-174
▁B	-175
▁अप	-176
▁सा	-177
ment	-178
▁he	-179
ol	-180
▁जो	-181
▁उन	-182
▁नहीं	-183
वा	-184
▁दे	-185
▁तो	-186
ith	-187
ra	-188
▁नि	-189
▁हम	-190
▁it	-191
रा	-192
▁as	-193
ill	-194
से	-195
od	-196
▁भी	-197
त्र	-198
▁an	-199
दा	-200
▁W	-201
▁not	-202
if	-203
▁st	-204
का	-205
▁ने	-206
ul	-207
▁तुम	-208
▁रा	-209
▁or	-210
ल्	-211
ess	-212
ter	-213
▁with	-214
▁D	-215
▁pro	-216
ge	-217
ri	-218
सी	-219
▁are	-220
▁'	-221
▁G	-222
▁de	-223
▁जि	-224
her	-225
▁ha	-226
▁R	-227
री	-228
कार	-229
ab	-230
▁बा	-231
क्ष	-232
ate	-233
▁con	-234
गा	-235
▁we	-236
ld	-237
नी	-238
ास	-239
▁किया	-240
▁अन	-241
op	-242
▁या	-243
▁se	-244
▁su	-245
▁यह	-246
res	-247
rom	-248
▁ही	-249
ले	-250
ज़	-251
ers	-252
ष्ट	-253
▁L	-254
सा	-255
ेश	-256
th	-257
ak	-258
▁N	-259
nt	-260
कर	-261
▁com	-262
की	-263
ist	-264
ंग	-265
▁थ	-266
मा	-267
▁करने	-268
▁by	-269
▁sh	-270
ht	-271
ारा	-272
▁was	-273
त्	-274
pe	-275
ain	-276
▁मु	-277
▁अध	-278
ity	-279
▁स्	-280
▁लोग	-281
▁have	-282
िर	-283
iv	-284
▁वह	-285
▁ex	-286
▁from	-287
▁O	-288
em	-289
est	-290
▁will	-291
▁हु	-292
क्त	-293
us	-294
▁they	-295
and	-296
all	-297
▁कु	-298
▁F	-299
▁E	-300
िन	-301
▁them	-302
▁v	-303
▁कार	-304
िल	-305
ियों	-306
▁k	-307
▁ड	-308
ाम	-309
▁रह	-310
um	-311
ore	-312
ive	-313
▁who	-314
ant	-315
▁this	-316
ac	-317
▁Ind	-318
ah	-319
न्ह	-320
ich	-321
qu	-322
▁"	-323
▁उप	-324
▁सक	-325
ाह	-326
ie	-327
द्	-328
pp	-329
ारे	-330
▁r	-331
ies	-332
▁has	-333
ure	-334
▁at	-335
▁था	-336
ia	-337
art	-338
▁वे	-339
▁He	-340
ction	-341
▁अपने	-342
os	-343
▁ले	-344
ारी	-345
un	-346
ort	-347
स्त	-348
▁which	-349
मान	-350
▁ne	-351
ould	-352
वि	-353
रे	-354
ूप	-355
▁भार	-356
▁ऐ	-357
oc	-358
▁ध	-359
्री	-360
▁सु	-361
च्	-362
गे	-363
ard	-364
भा	-365
our	-366
el	-367
▁आप	-368
ind	-369
ूर्	-370
ंत	-371
▁al	-372
▁his	-373
ight	-374
red	-375
ord	-376
▁their	-377
▁तथा	-378
ओं	-379
ैं	-380
कि	-381
▁गया	-382
ंध	-383
▁All	-384
▁उन्ह	-385
▁जिस	-386
▁पह	-387
pt	-388
में	-389
ous	-390
▁do	-391
ust	-392
▁वाल	-393
▁all	-394
ली	-395
▁ch	-396
▁छ	-397
▁le	-398
▁In	-399
te	-400
▁कुछ	-401
▁K	-402
ose	-403
age	-404
ag	-405
ther	-406
▁tr	-407
▁द्व	-408
▁स्व	-409
▁अनु	-410
ूल	-411
दि	-412
ial	-413
ud	-414
ong	-415
▁whe	-416
▁साथ	-417
ीन	-418
्ह	-419
▁दो	-420
ाप	-421
▁किसी	-422
▁मे	-423
ame	-424
ंद	-425
ोज	-426
देश	-427
▁Th	-428
ome	-429
▁घ	-430
खा	-431
▁We	-432
म्	-433
▁रूप	-434
▁U	-435
श्	-436
ार्	-437
ंड	-438
▁And	-439
▁अधिक	-440
▁wor	-441
▁चाह	-442
▁तुम्ह	-443
▁कोई	-444
ated	-445
ाय	-446
▁जब	-447
▁निर्	-448
को	-449
ुर	-450
द्ध	-451
cc	-452
ance	-453
ans	-454
ount	-455
▁ख़	-456
▁ट	-457
भी	-458
गी	-459
av	-460
▁me	-461
▁ला	-462
▁थे	-463
▁विश	-464
▁pl	-465
ect	-466
▁करें	-467
ip	-468
▁उनके	-469
न्द	-470
▁Allah	-471
▁go	-472
ुदा	-473
▁द्वारा	-474
▁तक	-475
▁your	-476
ढ़	-477
rou	-478
▁राज	-479
▁dis	-480
▁पा	-481
▁ab	-482
▁भा	-483
▁क्ष	-484
▁India	-485
ाना	-486
▁व्य	-487
▁sa	-488
ry	-489
▁बना	-490
ast	-491
▁करते	-492
▁परि	-493
▁प्रति	-494
ुत	-495
▁भारत	-496
▁वर्	-497
ंत्र	-498
▁im	-499
ide	-500
ost	-501
able	-502
गर	-503
▁can	-504
▁दिया	-505
▁us	-506
▁बह	-507
▁लोगों	-508
त्त	-509
ear	-510
योग	-511
ff	-512
ok	-513
जी	-514
ाद	-515
▁pe	-516
▁ad	-517
▁राष्ट	-518
▁un	-519
▁there	-520
▁comp	-521
▁मा	-522
▁दि	-523
▁en	-524
▁but	-525
now	-526
..	-527
▁जाए	-528
▁man	-529
og	-530
▁कार्य	-531
धार	-532
nder	-533
ish	-534
▁कह	-535
ap	-536
▁up	-537
ary	-538
▁फिर	-539
क़	-540
क्	-541
▁मैं	-542
लाह	-543
▁V	-544
रण	-545
▁सि	-546
▁स्थ	-547
्ञ	-548
ुन	-549
क्र	-550
ult	-551
▁कहा	-552
नों	-553
▁any	-554
▁जाता	-555
▁j	-556
▁अव	-557
▁one	-558
ice	-559
▁तर	-560
▁him	-561
बंध	-562
so	-563
▁J	-564
▁ये	-565
▁been	-566
चा	-567
ष्	-568
▁क्या	-569
▁रहे	-570
▁इन	-571
▁अल्	-572
▁so	-573
ूर	-574
per	-575
ical	-576
▁per	-577
ब्	-578
क्ति	-579
out	-580
▁करना	-581
ru	-582
▁were	-583
द्य	-584
ople	-585
one	-586
▁It	-587
▁res	-588
▁other	-589
ik	-590
ress	-591
gh	-592
ions	-593
▁थी	-594
ence	-595
ib	-596
▁रख	-597
ail	-598
pl	-599
न्न	-600
ड़ा	-601
▁cont	-602
जा	-603
▁had	-604
▁सर	-605
▁उसके	-606
vel	-607
ire	-608
iz	-609
▁मह	-610
ानी	-611
▁फ़	-612
ृत	-613
ine	-614
▁सब	-615
▁जी	-616
are	-617
▁ई	-618
स्थ	-619
au	-620
ime	-621
च्छ	-622
▁पू	-623
फ़	-624
▁अपनी	-625
ations	-626
ake	-627
▁अल्लाह	-628
very	-629
नि	-630
▁said	-631
्यों	-632
▁Y	-633
मी	-634
▁people	-635
ase	-636
▁ज़	-637
▁ag	-638
orm	-639
्रे	-640
ign	-641
▁विक	-642
▁am	-643
▁/	-644
ang	-645
ue	-646
ile	-647
▁when	-648
▁हुए	-649
▁those	-650
▁know	-651
▁बात	-652
दी	-653
▁ind	-654
▁होता	-655
▁सी	-656
ेत्र	-657
पर	-658
▁out	-659
▁उन्हें	-660
ade	-661
ub	-662
▁करता	-663
ये	-664
ath	-665
चार	-666
▁रहा	-667
ोंने	-668
ens	-669
ings	-670
▁part	-671
▁सू	-672
rit	-673
▁also	-674
▁inc	-675
vers	-676
वाल	-677
▁shall	-678
ाइ	-679
▁cl	-680
▁under	-681
▁int	-682
ace	-683
▁no	-684
िका	-685
▁co	-686
▁सकता	-687
ach	-688
▁ar	-689
ep	-690
▁ओ	-691
ड़े	-692
act	-693
▁Ch	-694
▁ख़ुदा	-695
▁our	-696
ian	-697
▁_	-698
ाप्त	-699
र्थ	-700
▁क्षेत्र	-701
ass	-702
▁उसे	-703
▁what	-704
ber	-705
टा	-706
▁बी	-707
▁its	-708
वर्	-709
▁St	-710
▁दी	-711
▁राष्ट्र	-712
▁हि	-713
▁मान	-714
▁bel	-715
▁ev	-716
▁गु	-717
वे	-718
ूर्ण	-719
▁बहुत	-720
▁देख	-721
▁क़	-722
बर	-723
▁te	-724
▁समय	-725
▁comm	-726
दान	-727
ज्ञ	-728
▁जान	-729
ड़ी	-730
मे	-731
▁God	-732
ren	-733
lic	-734
▁मि	-735
ious	-736
reat	-737
▁“	-738
▁पु	-739
ूस	-740
du	-741
वन	-742
▁if	-743
ोल	-744
ident	-745
त्य	-746
ual	-747
भि	-748
ise	-749
ory	-750
ंच	-751
port	-752
र्म	-753
▁sc	-754
वी	-755
vern	-756
कों	-757
▁जै	-758
▁Lord	-759
erv	-760
टी	-761
▁app	-762
▁पै	-763
शन	-764
▁This	-765
▁दिन	-766
पति	-767
हर	-768
ition	-769
ook	-770
▁बाद	-771
fe	-772
ack	-773
▁may	-774
ree	-775
▁Sh	-776
ियम	-777
▁सह	-778
old	-779
fore	-780
▁acc	-781
▁उन्होंने	-782
▁देश	-783
च्च	-784
▁आय	-785
▁वाले	-786
▁तरह	-787
▁काम	-788
fter	-789
ject	-790
▁हुआ	-791
प्र	-792
▁spe	-793
ove	-794
▁बे	-795
▁sp	-796
ike	-797
श्च	-798
▁would	-799
▁उत्	-800
▁year	-801
▁only	-802
चना	-803
▁पहले	-804
▁पास	-805
form	-806
ेष	-807
urn	-808
ोक	-809
्रीय	-810
▁bec	-811
hed	-812
▁अंत	-813
िप	-814
वर	-815
स्था	-816
▁work	-817
▁time	-818
▁हमने	-819
▁rel	-820
ुल	-821
ric	-822
▁po	-823
ational	-824
▁Go	-825
ater	-826
▁ना	-827
▁गई	-828
▁tw	-829
्रा	-830
क्षा	-831
▁sub	-832
झे	-833
▁qu	-834
▁बि	-835
ted	-836
ौर	-837
▁होगा	-838
▁pre	-839
ities	-840
▁rec	-841
▁संबंध	-842
▁उनकी	-843
▁प्राप्त	-844
▁सरकार	-845
▁हू	-846
▁सभी	-847
धान	-848
▁prov	-849
sel	-850
िक्ष	-851
▁over	-852
एँ	-853
▁जिन	-854
▁गए	-855
lect	-856
we	-857
▁राष्ट्रपति	-858
rib	-859
▁”	-860
▁होने	-861
▁विश्व	-862
तीय	-863
▁fo	-864
▁पी	-865
वं	-866
ause	-867
▁ear	-868
ound	-869
▁वर्ष	-870
▁ओर	-871
▁नाम	-872
करण	-873
ild	-874
▁As	-875
▁अन्य	-876
▁कम	-877
▁day	-878
▁छो	-879
▁made	-880
▁सम्	-881
स्ता	-882
एं	-883
▁such	-884
▁should	-885
न्त	-886
▁हमारे	-887
▁यदि	-888
धि	-889
▁then	-890
ख़	-891
गत	-892
श्य	-893
ward	-894
▁चु	-895
▁प्रा	-896
row	-897
▁new	-898
▁like	-899
▁झ	-900
▁my	-901
ीय	-902
vernment	-903
ces	-904
हां	-905
▁चाहिए	-906
▁more	-907
टे	-908
▁about	-909
ंक	-910
ied	-911
▁साम	-912
ark	-913
सर	-914
▁सकते	-915
▁some	-916
▁Pro	-917
ife	-918
ert	-919
aj	-920
▁count	-921
tern	-922
भाव	-923
▁into	-924
ank	-925
▁बद	-926
ite	-927
▁प्रकार	-928
▁em	-929
ग्र	-930
▁belie	-931
▁ऊ	-932
ution	-933
▁लि	-934
▁मिल	-935
स्ट	-936
दार	-937
▁तुम्हारे	-938
▁Wh	-939
▁bet	-940
▁निक	-941
▁करो	-942
▁fe	-943
▁Com	-944
velop	-945
way	-946
▁&	-947
▁rem	-948
▁इसके	-949
▁off	-950
▁ता	-951
ोजना	-952
▁But	-953
▁ऐसे	-954
▁बढ़	-955
▁cons	-956
िश	-957
▁trans	-958
▁Se	-959
तर	-960
ful	-961
▁होती	-962
sh	-963
uth	-964
▁They	-965
▁say	-966
▁बु	-967
▁जाने	-968
▁किए	-969
▁pr	-970
दर्	-971
जन	-972
्स	-973
▁भारतीय	-974
ंप	-975
iss	-976
ूर्व	-977
gr	-978
▁हर	-979
ific	-980
ूम	-981
ness	-982
लय	-983
ons	-984
▁नी	-985
▁[	-986
माण	-987
लि	-988
oy	-989
▁ass	-990
▁अच्छ	-991
शा	-992
▁reg	-993
द्योग	-994
stit	-995
▁एवं	-996
हाँ	-997
बा	-998
own	-999
▁(_	-1000
शी	-1001
▁two	-1002
▁उसकी	-1003
पूर्ण	-1004
पाद	-1005
ments	-1006
me	-1007
▁विकास	-1008
▁these	-1009
ोध	-1010
hen	-1011
▁than	-1012
िति	-1013
cept	-1014
यी	-1015
▁Re	-1016
▁ची	-1017
बी	-1018
▁ठ	-1019
▁form	-1020
▁दूस	-1021
▁act	-1022
▁good	-1023
ची	-1024
ient	-1025
▁So	-1026
मत	-1027
▁कारण	-1028
ily	-1029
▁Un	-1030
▁राज्य	-1031
ph	-1032
▁अब	-1033
त्व	-1034
▁De	-1035
▁लग	-1036
गार	-1037
ाइल	-1038
▁हों	-1039
ास्त	-1040
सार	-1041
led	-1042
्यू	-1043
▁des	-1044
ond	-1045
▁मुझे	-1046
▁सर्	-1047
ाली	-1048
▁ent	-1049
cess	-1050
द्र	-1051
▁ऐसा	-1052
▁रस	-1053
▁समझ	-1054
त्म	-1055
वल	-1056
टर	-1057
ates	-1058
▁ro	-1059
resident	-1060
),	-1061
▁पहु	-1062
wn	-1063
▁ob	-1064
▁करे	-1065
ध्य	-1066
ेंगे	-1067
ne	-1068
वार	-1069
▁व्यक्ति	-1070
ple	-1071
▁after	-1072
▁जन	-1073
▁हुई	-1074
ors	-1075
▁before	-1076
ts	-1077
ेज	-1078
▁pers	-1079
किन	-1080
ष्ठ	-1081
▁अगर	-1082
cy	-1083
▁मो	-1084
llow	-1085
▁sy	-1086
▁व्या	-1087
▁स्त	-1088
▁ईमान	-1089
यन	-1090
eng	-1091
ुक्त	-1092
▁dec	-1093
▁bl	-1094
ink	-1095
धा	-1096
ave	-1097
ved	-1098
▁again	-1099
ां	-1100
▁An	-1101
कृत	-1102
▁fir	-1103
तन	-1104
पी	-1105
▁मूल	-1106
▁लगा	-1107
▁see	-1108
rough	-1109
▁right	-1110
ेल	-1111
ower	-1112
▁Indian	-1113
▁Con	-1114
ght	-1115
▁ra	-1116
▁दु	-1117
▁ac	-1118
cial	-1119
▁लेकिन	-1120
...	-1121
▁life	-1122
▁‘	-1123
्ल	-1124
मु	-1125
▁His	-1126
▁Pr	-1127
ener	-1128
▁her	-1129
▁दिखा	-1130
ोर	-1131
▁क्यों	-1132
ob	-1133
▁उसने	-1134
▁बन	-1135
▁हा	-1136
क्रम	-1137
तः	-1138
erm	-1139
▁gu	-1140
िये	-1141
▁रसूल	-1142
arm	-1143
ced	-1144
▁world	-1145
ज़ा	-1146
▁दोनों	-1147
▁कृ	-1148
▁à	-1149
rent	-1150
▁fl	-1151
▁call	-1152
eth	-1153
िम	-1154
▁develop	-1155
▁मौ	-1156
▁through	-1157
▁अस	-1158
▁वै	-1159
▁जाती	-1160
▁जीवन	-1161
▁लिया	-1162
▁आव	-1163
▁giv	-1164
्ड	-1165
▁सद	-1166
▁विशेष	-1167
ange	-1168
▁क्र	-1169
▁set	-1170
▁उपयोग	-1171
pect	-1172
▁ग्र	-1173
▁need	-1174
ism	-1175
▁Bh	-1176
▁चल	-1177
▁cre	-1178
▁every	-1179
हाय	-1180
aw	-1181
▁great	-1182
▁खा	-1183
ning	-1184
▁There	-1185
▁अपना	-1186
▁वा	-1187
▁inv	-1188
▁dif	-1189
uc	-1190
दे	-1191
ally	-1192
▁pres	-1193
िंग	-1194
व्य	-1195
▁being	-1196
xt	-1197
▁प्रदान	-1198
तों	-1199
▁where	-1200
चे	-1201
end	-1202
▁रही	-1203
▁होते	-1204
▁way	-1205
▁ढ	-1206
int	-1207
▁You	-1208
igh	-1209
ft	-1210
ating	-1211
li	-1212
▁अभि	-1213
▁तुम्हें	-1214
ative	-1215
uring	-1216
▁बीच	-1217
▁शिक्ष	-1218
▁मुख	-1219
▁बारे	-1220
).	-1221
▁श्री	-1222
eed	-1223
olog	-1224
les	-1225
▁country	-1226
▁बै	-1227
वाद	-1228
धिक	-1229
oth	-1230
▁serv	-1231
▁रु	-1232
▁President	-1233
ull	-1234
ages	-1235
other	-1236
▁add	-1237
ित्र	-1238
फल	-1239
▁name	-1240
▁मन	-1241
▁produ	-1242
▁समा	-1243
▁मार्	-1244
कारी	-1245
▁बार	-1246
▁पूर्व	-1247
▁उत्त	-1248
▁भाग	-1249
ेक	-1250
▁cent	-1251
▁Government	-1252
hi	-1253
ंभ	-1254
▁वाला	-1255
ever	-1256
ween	-1257
वेश	-1258
ular	-1259
▁जैसे	-1260
काश	-1261
▁ऑ	-1262
▁used	-1263
▁सहाय	-1264
▁निय	-1265
pen	-1266
▁br	-1267
ves	-1268
▁यु	-1269
▁ऐसी	-1270
▁att	-1271
कृ	-1272
डी	-1273
▁आज	-1274
pr	-1275
▁If	-1276
its	-1277
▁sec	-1278
▁स्था	-1279
▁En	-1280
▁make	-1281
ural	-1282
stem	-1283
तना	-1284
▁Min	-1285
▁खु	-1286
पा	-1287
▁पर्	-1288
▁thou	-1289
▁down	-1290
ible	-1291
▁आधार	-1292
।"	-1293
▁सेवा	-1294
ख्या	-1295
ाला	-1296
▁between	-1297
तिक	-1298
कता	-1299
▁pol	-1300
▁कै	-1301
ood	-1302
▁does	-1303
▁follow	-1304
ax	-1305
षण	-1306
ublic	-1307
▁well	-1308
ided	-1309
▁ke	-1310
▁could	-1311
षा	-1312
लों	-1313
gan	-1314
तु	-1315
ठा	-1316
ble	-1317
▁first	-1318
▁वास्त	-1319
िस	-1320
▁col	-1321
oss	-1322
als	-1323
ised	-1324
▁दृ	-1325
oci	-1326
▁Ex	-1327
हित	-1328
▁अल	-1329
▁most	-1330
lp	-1331
▁आर	-1332
▁eff	-1333
▁केवल	-1334
▁did	-1335
▁प्रयोग	-1336
▁देने	-1337
▁many	-1338
und	-1339
▁उसका	-1340
ल्प	-1341
ार्थ	-1342
▁न्या	-1343
▁years	-1344
ज्ञान	-1345
ोप	-1346
pport	-1347
▁आवश्य	-1348
▁very	-1349
con	-1350
ents	-1351
ty	-1352
▁जाएगा	-1353
ature	-1354
ility	-1355
िला	-1356
▁Act	-1357
▁For	-1358
▁come	-1359
▁हमें	-1360
▁dist	-1361
▁रब	-1362
क्षण	-1363
▁Him	-1364
णी	-1365
▁ed	-1366
▁sign	-1367
ून	-1368
▁mess	-1369
▁person	-1370
▁मेरे	-1371
▁सो	-1372
▁inte	-1373
▁how	-1374
ियां	-1375
▁उनका	-1376
any	-1377
▁स्थान	-1378
▁back	-1379
ुट	-1380
▁num	-1381
iew	-1382
▁get	-1383
ha	-1384
▁माल	-1385
▁विचार	-1386
▁ret	-1387
▁Comm	-1388
▁even	-1389
▁जिसमें	-1390
▁हूँ	-1391
▁चीज़	-1392
▁<	-1393
▁tra	-1394
lud	-1395
ck	-1396
ven	-1397
ूद	-1398
चित	-1399
ोर्	-1400
▁निश्च	-1401
ather	-1402
▁दर	-1403
▁upon	-1404
ting	-1405
िता	-1406
▁earth	-1407
ister	-1408
ati	-1409
▁पैदा	-1410
▁सबसे	-1411
▁प्रत्य	-1412
िकी	-1413
ूत	-1414
▁rep	-1415
ited	-1416
▁वाली	-1417
▁स्प	-1418
्यालय	-1419
▁वही	-1420
▁इसे	-1421
यास	-1422
ग़	-1423
लब्	-1424
▁जाना	-1425
▁मै	-1426
▁help	-1427
amm	-1428
air	-1429
chn	-1430
कर्	-1431
▁own	-1432
self	-1433
▁बड़ा	-1434
▁हमारी	-1435
uch	-1436
▁ord	-1437
ेर	-1438
▁imp	-1439
▁राष्ट्रीय	-1440
irect	-1441
ंस	-1442
▁Ad	-1443
ute	-1444
▁डि	-1445
▁inst	-1446
aking	-1447
▁ref	-1448
ving	-1449
▁among	-1450
▁pur	-1451
hes	-1452
▁पं	-1453
ures	-1454
▁योजना	-1455
हार	-1456
▁विष	-1457
▁प्रश	-1458
▁अथ	-1459
▁पार	-1460
भाग	-1461
▁unt	-1462
र्क	-1463
▁Ne	-1464
▁val	-1465
get	-1466
▁उत्पाद	-1467
▁उपलब्	-1468
▁अधिन	-1469
▁against	-1470
▁शु	-1471
लिए	-1472
ract	-1473
त्ता	-1474
▁end	-1475
ision	-1476
ased	-1477
▁ताकि	-1478
▁तब	-1479
▁writ	-1480
▁फ़ाइल	-1481
न्तु	-1482
▁संदेश	-1483
▁system	-1484
▁जाते	-1485
▁mem	-1486
▁exp	-1487
▁अधिकार	-1488
▁sent	-1489
▁माम	-1490
▁mod	-1491
▁use	-1492
▁उसी	-1493
▁हे	-1494
▁hand	-1495
formation	-1496
ee	-1497
▁take	-1498
▁इसमें	-1499
▁disc	-1500
▁दा	-1501
ission	-1502
round	-1503
ब्द	-1504
सं	-1505
▁व्यव	-1506
▁gr	-1507
▁कंप	-1508
डर	-1509
▁देता	-1510
पित	-1511
▁import	-1512
ick	-1513
▁अधिनियम	-1514
not	-1515
▁she	-1516
▁Is	-1517
ices	-1518
▁bu	-1519
▁आस	-1520
ants	-1521
read	-1522
▁On	-1523
ock	-1524
▁लिख	-1525
▁char	-1526
▁To	-1527
ोह	-1528
▁अथवा	-1529
ुनिया	-1530
elie	-1531
of	-1532
▁Sc	-1533
▁शुर	-1534
ताओं	-1535
▁must	-1536
▁requ	-1537
ूह	-1538
क्रिया	-1539
▁ins	-1540
वरण	-1541
▁State	-1542
्यान	-1543
▁सूचना	-1544
▁ph	-1545
▁दर्	-1546
up	-1547
वान	-1548
▁शाम	-1549
▁given	-1550
▁ap	-1551
रिक	-1552
▁महत्व	-1553
▁बस	-1554
▁सामान	-1555
▁just	-1556
▁mon	-1557
ियाँ	-1558
रों	-1559
ished	-1560
▁ज्ञ	-1561
िट	-1562
rong	-1563
ash	-1564
▁cert	-1565
काल	-1566
मिक	-1567
▁child	-1568
▁diffe	-1569
त्रा	-1570
बे	-1571
▁तै	-1572
श्व	-1573
▁lit	-1574
▁because	-1575
ari	-1576
▁hum	-1577
pend	-1578
भव	-1579
▁शिक्षा	-1580
ital	-1581
▁mat	-1582
▁रो	-1583
▁मंत्र	-1584
arch	-1585
▁pass	-1586
▁क्योंकि	-1587
▁जिसे	-1588
ES	-1589
▁संप	-1590
▁turn	-1591
▁स्ट	-1592
▁हाल	-1593
▁विषय	-1594
▁उपलब्ध	-1595
भिन्न	-1596
▁सकती	-1597
alth	-1598
ctions	-1599
त्या	-1600
▁जर	-1601
▁डा	-1602
▁बैं	-1603
ides	-1604
▁believe	-1605
ोट	-1606
▁मार्ग	-1607
tt	-1608
ivers	-1609
युक्त	-1610
▁av	-1611
▁दौर	-1612
▁व्याप	-1613
▁:	-1614
▁कें	-1615
▁car	-1616
▁sm	-1617
ouse	-1618
ives	-1619
ene	-1620
▁बल्	-1621
ata	-1622
iness	-1623
▁वृ	-1624
▁स्थिति	-1625
ries	-1626
यार	-1627
▁मद	-1628
▁करती	-1629
▁equ	-1630
▁योग	-1631
▁पुर	-1632
▁अर्	-1633
▁place	-1634
▁account	-1635
ral	-1636
▁gener	-1637
ten	-1638
▁निर्धार	-1639
▁min	-1640
▁When	-1641
▁परवर	-1642
ix	-1643
arn	-1644
▁लोक	-1645
▁cond	-1646
▁होना	-1647
tle	-1648
▁इसलिए	-1649
▁महा	-1650
▁long	-1651
▁Hind	-1652
rest	-1653
▁उससे	-1654
▁Day	-1655
ug	-1656
ट्ट	-1657
दिगार	-1658
▁%	-1659
▁हूं	-1660
▁भर	-1661
▁पुन	-1662
▁Al	-1663
एस	-1664
▁cap	-1665
ional	-1666
ुक	-1667
▁स्वा	-1668
इन	-1669
▁उनसे	-1670
uk	-1671
▁power	-1672
ork	-1673
न्द्र	-1674
▁परवरदिगार	-1675
क्ट	-1676
ii	-1677
▁प्रण	-1678
▁सहायता	-1679
ror	-1680
▁No	-1681
▁प्रभाव	-1682
▁conf	-1683
ंज	-1684
▁water	-1685
▁gl	-1686
▁विभिन्न	-1687
▁कई	-1688
ana	-1689
▁Am	-1690
▁बड़ी	-1691
▁वित	-1692
▁give	-1693
▁अर्थ	-1694
▁includ	-1695
▁found	-1696
pos	-1697
▁गा	-1698
ष्टि	-1699
▁जु	-1700
▁कभी	-1701
▁inter	-1702
▁वस्त	-1703
▁जिन्ह	-1704
▁sure	-1705
स्थान	-1706
▁now	-1707
▁संग	-1708
▁उद्	-1709
▁lar	-1710
▁धारा	-1711
day	-1712
▁inf	-1713
lease	-1714
▁डाल	-1715
ars	-1716
belie	-1717
ety	-1718
roup	-1719
दन	-1720
ared	-1721
▁want	-1722
▁prom	-1723
conom	-1724
▁शामिल	-1725
तान	-1726
angu	-1727
कृति	-1728
▁दूसरे	-1729
▁cle	-1730
▁ye	-1731
▁मेरी	-1732
▁होगी	-1733
▁छोड़	-1734
ुष	-1735
▁आया	-1736
▁away	-1737
ूट	-1738
त्मक	-1739
तम	-1740
ale	-1741
नेवाल	-1742
▁number	-1743
▁उच्च	-1744
ern	-1745
▁पहुँ	-1746
ined	-1747
▁भाषा	-1748
tc	-1749
ified	-1750
▁किस	-1751
यं	-1752
मुख	-1753
ship	-1754
▁पता	-1755
oun	-1756
▁fore	-1757
▁lo	-1758
▁अति	-1759
▁दौरान	-1760
▁अंतर	-1761
▁अभ	-1762
धन	-1763
ण्ड	-1764
▁fam	-1765
▁fin	-1766
:%	-1767
ody	-1768
▁अनुस	-1769
▁>	-1770
▁सदस	-1771
▁हाथ	-1772
ेम	-1773
▁ब्र	-1774
ology	-1775
▁let	-1776
▁सुर	-1777
ेट	-1778
हत	-1779
▁बता	-1780
ंट	-1781
▁Our	-1782
▁दूर	-1783
▁अवसर	-1784
▁बल्कि	-1785
▁सूची	-1786
▁occ	-1787
ruct	-1788
▁nor	-1789
uthor	-1790
▁Cent	-1791
▁अंग	-1792
ys	-1793
▁heav	-1794
रूप	-1795
▁development	-1796
▁same	-1797
▁main	-1798
▁cur	-1799
▁state	-1800
▁lead	-1801
▁during	-1802
▁Q	-1803
▁इससे	-1804
कट	-1805
ron	-1806
imes	-1807
▁आगे	-1808
▁भूम	-1809
selves	-1810
द्धि	-1811
ters	-1812
▁here	-1813
▁शी	-1814
▁कहते	-1815
स्व	-1816
▁अग	-1817
▁कर्म	-1818
▁उनमें	-1819
वाह	-1820
▁पि	-1821
▁बच्च	-1822
har	-1823
ict	-1824
▁करके	-1825
▁det	-1826
▁यहाँ	-1827
ोजन	-1828
▁process	-1829
ग्रह	-1830
ya	-1831
▁मुख्य	-1832
▁while	-1833
ledge	-1834
यर	-1835
ists	-1836
▁सके	-1837
▁आई	-1838
▁बैठ	-1839
EN	-1840
ासन	-1841
▁conc	-1842
▁wom	-1843
▁present	-1844
less	-1845
ेह	-1846
▁ser	-1847
ैन	-1848
▁इसी	-1849
▁men	-1850
▁land	-1851
शि	-1852
▁होंगे	-1853
ption	-1854
▁stud	-1855
ired	-1856
▁प्रक्रिया	-1857
."	-1858
▁इसका	-1859
▁अं	-1860
फी	-1861
▁organ	-1862
▁loc	-1863
ताब	-1864
iod	-1865
aken	-1866
▁शै	-1867
▁१	-1868
▁file	-1869
▁परिवर्	-1870
▁def	-1871
▁book	-1872
ered	-1873
▁grow	-1874
▁heart	-1875
ality	-1876
▁अनुसार	-1877
▁each	-1878
▁Te	-1879
▁art	-1880
▁cor	-1881
▁etc	-1882
▁यही	-1883
▁adv	-1884
▁पड़	-1885
▁est	-1886
▁स्वी	-1887
▁सामान्य	-1888
▁जल	-1889
▁called	-1890
▁उत्तर	-1891
▁तैयार	-1892
न्ध	-1893
▁open	-1894
▁संबंधित	-1895
ience	-1896
ोड	-1897
▁चुन	-1898
▁spec	-1899
▁educ	-1900
ize	-1901
र्ष	-1902
▁Ar	-1903
▁cour	-1904
▁सामने	-1905
सि	-1906
▁resp	-1907
▁ऋ	-1908
▁चि	-1909
▁याद	-1910
▁–	-1911
▁लाभ	-1912
▁mark	-1913
▁Res	-1914
जे	-1915
▁indust	-1916
▁start	-1917
▁पूर्ण	-1918
▁संस्	-1919
▁both	-1920
▁संख्या	-1921
▁ask	-1922
ov	-1923
▁निर्माण	-1924
▁rece	-1925
▁घर	-1926
ins	-1927
▁पद	-1928
ित्व	-1929
su	-1930
ालय	-1931
ज्य	-1932
▁बदल	-1933
▁जहां	-1934
▁different	-1935
▁प्रौ	-1936
the	-1937
▁उठा	-1938
▁word	-1939
▁ce	-1940
ains	-1941
▁sur	-1942
▁आपको	-1943
▁wind	-1944
जार	-1945
ियो	-1946
तंत्र	-1947
▁dev	-1948
▁fac	-1949
▁fil	-1950
wards	-1951
▁पूरा	-1952
▁त्र	-1953
amp	-1954
▁अनुम	-1955
▁स्पष्ट	-1956
लेख	-1957
▁नई	-1958
▁रंग	-1959
▁dem	-1960
▁लिये	-1961
सम	-1962
ics	-1963
▁बाहर	-1964
मीन	-1965
▁जाएँ	-1966
▁शि	-1967
▁भेज	-1968
▁partic	-1969
lish	-1970
▁Par	-1971
▁वास्तव	-1972
▁तरफ	-1973
गम	-1974
ोल्	-1975
टना	-1976
▁उनको	-1977
▁पत्र	-1978
▁list	-1979
▁things	-1980
▁देते	-1981
▁comple	-1982
▁Tr	-1983
bers	-1984
ंतु	-1985
▁प्रत्येक	-1986
man	-1987
▁National	-1988
▁Then	-1989
▁बढ़ा	-1990
▁Do	-1991
▁पृ	-1992
▁जिसके	-1993
rop	-1994
▁चाहते	-1995
▁OF	-1996
त्ति	-1997
▁order	-1998
आई	-1999
प्त	-2000
▁another	-2001
▁play	-2002
▁techn	-2003
हास	-2004
संद	-2005
▁econom	-2006
ेद	-2007
▁aff	-2008
सल	-2009
▁term	-2010
्न	-2011
▁बो	-2012
▁अलग	-2013
erg	-2014
▁कान	-2015
▁indeed	-2016
▁commun	-2017
▁came	-2018
▁whom	-2019
▁bus	-2020
▁कौ	-2021
▁करेगा	-2022
▁truth	-2023
▁पुस्त	-2024
▁ty	-2025
▁fact	-2026
▁case	-2027
दर्श	-2028
ध्यम	-2029
हरा	-2030
ines	-2031
▁गुण	-2032
▁सुन	-2033
▁संर	-2034
▁best	-2035
▁public	-2036
▁return	-2037
▁कार्यक्रम	-2038
▁certain	-2039
ूँ	-2040
▁three	-2041
▁बनाने	-2042
▁शुरू	-2043
▁अध्य	-2044
▁अने	-2045
▁अधीन	-2046
▁show	-2047
ai	-2048
▁read	-2049
▁pay	-2050
▁आदि	-2051
▁period	-2052
▁शब्द	-2053
▁without	-2054
▁उसमें	-2055
▁avail	-2056
▁find	-2057
वास	-2058
▁'%	-2059
▁दिल	-2060
▁progr	-2061
▁Shri	-2062
इट	-2063
▁ग़	-2064
esh	-2065
▁Mah	-2066
ained	-2067
मंत्र	-2068
ालन	-2069
▁प्रौद्योग	-2070
▁लगे	-2071
▁बड़े	-2072
▁high	-2073
▁langu	-2074
▁प्रार	-2075
▁knowledge	-2076
ात	-2077
▁beh	-2078
्ला	-2079
▁आपके	-2080
▁तीन	-2081
ीक	-2082
▁जारी	-2083
▁पढ़	-2084
▁आद	-2085
▁look	-2086
▁विर	-2087
▁sou	-2088
▁tem	-2089
▁Mess	-2090
ived	-2091
▁vis	-2092
ploy	-2093
ियोजना	-2094
▁मौज	-2095
ield	-2096
▁ext	-2097
▁फै	-2098
▁law	-2099
▁{	-2100
द्यालय	-2101
▁कॉ	-2102
▁रे	-2103
और	-2104
mit	-2105
▁नियम	-2106
ince	-2107
▁डर	-2108
ंब	-2109
▁अच्छा	-2110
टन	-2111
▁poss	-2112
▁prev	-2113
▁means	-2114
▁support	-2115
्यादा	-2116
यों	-2117
▁अत्य	-2118
ination	-2119
ament	-2120
▁प्रकाश	-2121
ention	-2122
▁परियोजना	-2123
छे	-2124
▁gra	-2125
▁प्रयास	-2126
▁चार	-2127
▁हेतु	-2128
टक	-2129
ूरी	-2130
ocial	-2131
▁much	-2132
▁information	-2133
lim	-2134
▁कल	-2135
riend	-2136
ough	-2137
ैर	-2138
AR	-2139
ually	-2140
▁वस्तु	-2141
▁Minister	-2142
▁relig	-2143
▁med	-2144
म्प	-2145
▁interest	-2146
▁गये	-2147
▁स्वयं	-2148
ूं	-2149
हन	-2150
▁ऊपर	-2151
▁var	-2152
▁ज्ञान	-2153
▁stand	-2154
▁contin	-2155
▁fa	-2156
पत्र	-2157
▁sl	-2158
▁मी	-2159
र्इ	-2160
▁fear	-2161
▁शक्ति	-2162
▁उद्योग	-2163
▁निश्चय	-2164
▁incre	-2165
ner	-2166
▁मदद	-2167
▁अनेक	-2168
aid	-2169
▁पूरी	-2170
स्थित	-2171
▁रखा	-2172
ER	-2173
ized	-2174
ccess	-2175
▁सौ	-2176
▁direct	-2177
▁महत्वपूर्ण	-2178
stitution	-2179
▁project	-2180
▁Man	-2181
ND	-2182
्रो	-2183
षि	-2184
▁human	-2185
▁वी	-2186
▁bro	-2187
क्षित	-2188
iving	-2189
stand	-2190
▁सर्व	-2191
▁pun	-2192
rence	-2193
▁पानी	-2194
▁बनाया	-2195
शत	-2196
oh	-2197
▁full	-2198
▁संस्था	-2199
▁गति	-2200
▁ली	-2201
▁चला	-2202
णाम	-2203
ोल्डर	-2204
▁धर्म	-2205
▁sk	-2206
▁small	-2207
▁oper	-2208
▁प्रधान	-2209
रती	-2210
▁बन्द	-2211
▁meet	-2212
▁ते	-2213
ज़ाब	-2214
▁स्क	-2215
▁section	-2216
भार	-2217
ither	-2218
▁श्रे	-2219
▁Or	-2220
▁स्तर	-2221
ms	-2222
ool	-2223
ros	-2224
▁जग	-2225
▁che	-2226
▁रुप	-2227
▁दुनिया	-2228
अप	-2229
gg	-2230
▁संस्थान	-2231
▁किताब	-2232
asht	-2233
▁think	-2234
▁author	-2235
▁group	-2236
▁जोड़	-2237
▁करा	-2238
शील	-2239
हम	-2240
पन	-2241
▁यहां	-2242
rap	-2243
बाद	-2244
▁भवन	-2245
▁message	-2246
AT	-2247
older	-2248
▁important	-2249
▁न्याया	-2250
▁respect	-2251
ware	-2252
▁वित्त	-2253
mb	-2254
ify	-2255
▁डे	-2256
▁गयी	-2257
▁government	-2258
here	-2259
olution	-2260
▁प्रबंध	-2261
ctor	-2262
lected	-2263
बार	-2264
्म	-2265
▁happ	-2266
ंजी	-2267
▁cult	-2268
▁अंतर्	-2269
▁created	-2270
▁except	-2271
▁last	-2272
▁बैंक	-2273
▁What	-2274
▁प्रो	-2275
नीय	-2276
▁समूह	-2277
▁करेंगे	-2278
▁संघ	-2279
▁som	-2280
▁प्रौद्योगिकी	-2281
▁समाज	-2282
ID	-2283
cl	-2284
▁New	-2285
▁गो	-2286
▁क्षेत्रों	-2287
▁That	-2288
तिहास	-2289
लन	-2290
stitut	-2291
▁How	-2292
▁ध्यान	-2293
ency	-2294
▁आवश्यकता	-2295
र्थिक	-2296
▁प्रमाण	-2297
ret	-2298
▁ver	-2299
ways	-2300
▁विदेश	-2301
▁cannot	-2302
ffic	-2303
▁sim	-2304
द्व	-2305
▁exam	-2306
▁तू	-2307
धे	-2308
ेशक	-2309
ried	-2310
▁प्रमुख	-2311
▁today	-2312
▁व्यक्त	-2313
▁मैंने	-2314
▁आए	-2315
▁करनेवाल	-2316
ोन	-2317
▁Le	-2318
▁परिणाम	-2319
▁Mus	-2320
▁become	-2321
eds	-2322
▁rest	-2323
▁पाठ	-2324
▁बेह	-2325
दाय	-2326
▁नीचे	-2327
ल्क	-2328
crib	-2329
▁अन्त	-2330
▁Be	-2331
enef	-2332
▁देना	-2333
▁er	-2334
▁जिसने	-2335
▁My	-2336
▁effect	-2337
▁सफल	-2338
जिक	-2339
▁Pl	-2340
▁मत	-2341
▁देखा	-2342
tend	-2343
▁माध्यम	-2344
विधा	-2345
▁चाहता	-2346
भग	-2347
▁झु	-2348
▁appe	-2349
स्प	-2350
inal	-2351
por	-2352
▁#	-2353
मित	-2354
▁सिवा	-2355
▁तुम्हारा	-2356
ामी	-2357
hip	-2358
▁लेख	-2359
▁गिर	-2360
▁बिना	-2361
▁known	-2362
▁खुदा	-2363
धी	-2364
▁prof	-2365
▁proper	-2366
र्य	-2367
▁disbelie	-2368
▁These	-2369
ining	-2370
▁bring	-2371
▁never	-2372
स्या	-2373
▁विंड	-2374
▁clear	-2375
ode	-2376
▁taken	-2377
lf	-2378
▁Say	-2379
▁विश्वास	-2380
▁बर	-2381
▁जमा	-2382
▁मू	-2383
▁सार	-2384
▁प्रतिशत	-2385
▁PR	-2386
▁ठीक	-2387
▁निर्धारित	-2388
ज़ी	-2389
▁केंद्र	-2390
▁ca	-2391
work	-2392
▁तुम्हारी	-2393
ल्ली	-2394
ember	-2395
▁समान	-2396
▁नीति	-2397
▁pat	-2398
RB	-2399
ider	-2400
erc	-2401
▁Ram	-2402
▁various	-2403
▁कृषि	-2404
thing	-2405
▁unto	-2406
क्स	-2407
▁जिसका	-2408
▁div	-2409
स्क	-2410
ases	-2411
min	-2412
दारी	-2413
विद्यालय	-2414
▁pri	-2415
▁विस्त	-2416
▁fun	-2417
ote	-2418
पि	-2419
▁किन्तु	-2420
▁मज	-2421
▁window	-2422
निर्	-2423
gress	-2424
▁head	-2425
▁समर्थ	-2426
istr	-2427
▁den	-2428
▁ele	-2429
▁पिछ	-2430
▁सीमा	-2431
alk	-2432
▁business	-2433
▁estab	-2434
▁बेशक	-2435
▁कला	-2436
bs	-2437
▁transl	-2438
▁ज्यादा	-2439
▁शरी	-2440
▁sch	-2441
▁धरती	-2442
put	-2443
▁activ	-2444
▁surely	-2445
rol	-2446
▁old	-2447
ask	-2448
az	-2449
ON	-2450
तियों	-2451
▁punish	-2452
ably	-2453
▁ती	-2454
ोर्ट	-2455
▁आर्थिक	-2456
▁सुधार	-2457
गू	-2458
▁times	-2459
वृ	-2460
इस	-2461
▁Book	-2462
ternal	-2463
▁रोग	-2464
icy	-2465
▁प्रय	-2466
्यता	-2467
▁जनता	-2468
avan	-2469
▁Raj	-2470
▁might	-2471
ल्म	-2472
akes	-2473
▁श्र	-2474
▁applic	-2475
▁bank	-2476
▁Me	-2477
▁view	-2478
▁social	-2479
▁खोल	-2480
▁Z	-2481
▁दिए	-2482
▁company	-2483
▁wrong	-2484
बन्ध	-2485
▁उद्देश	-2486
▁पीछे	-2487
▁four	-2488
▁लेकर	-2489
मता	-2490
▁large	-2491
▁friend	-2492
▁हिस्	-2493
▁हिन्द	-2494
▁फ़ोल्डर	-2495
▁भे	-2496
▁proble	-2497
?"	-2498
ateg	-2499
▁सिं	-2500
▁मूल्य	-2501
▁लगभग	-2502
▁जबकि	-2503
▁अतः	-2504
▁कर्	-2505
▁ज़र	-2506
▁होकर	-2507
ttp	-2508
▁days	-2509
▁अम	-2510
▁कठ	-2511
▁children	-2512
▁जानकारी	-2513
▁http	-2514
ियन	-2515
reed	-2516
णा	-2517
ething	-2518
▁dest	-2519
▁sit	-2520
▁विद्य	-2521
▁going	-2522
▁women	-2523
fer	-2524
विध	-2525
▁education	-2526
AN	-2527
षित	-2528
▁body	-2529
▁accept	-2530
▁address	-2531
▁इसकी	-2532
▁निम्	-2533
▁done	-2534
▁level	-2535
▁लो	-2536
▁put	-2537
▁पर्या	-2538
▁move	-2539
▁month	-2540
line	-2541
▁भाव	-2542
ium	-2543
ense	-2544
▁मंद	-2545
ानों	-2546
ॉल	-2547
म्बर	-2548
▁mind	-2549
▁ide	-2550
▁Gu	-2551
माजिक	-2552
▁success	-2553
▁evil	-2554
▁लौ	-2555
▁Eng	-2556
jee	-2557
बद्ध	-2558
▁amount	-2559
▁साल	-2560
▁सुविधा	-2561
▁real	-2562
▁ज़मीन	-2563
ator	-2564
▁गण	-2565
▁employ	-2566
den	-2567
▁x	-2568
▁मिला	-2569
आर	-2570
▁समस्या	-2571
▁सारे	-2572
▁बदला	-2573
दिष्ट	-2574
▁विज्ञान	-2575
▁left	-2576
▁better	-2577
ेशन	-2578
//	-2579
▁within	-2580
▁खोज	-2581
ENT	-2582
▁मानव	-2583
▁कंपनी	-2584
ram	-2585
▁चौ	-2586
▁स्वीकार	-2587
▁अभी	-2588
▁अज़ाब	-2589
▁कोश	-2590
▁appro	-2591
):	-2592
▁आने	-2593
पुर	-2594
▁काफी	-2595
▁प्रस्त	-2596
▁चयन	-2597
ख्त	-2598
▁विभाग	-2599
ठन	-2600
rought	-2601
lished	-2602
▁सामाजिक	-2603
▁अच्छे	-2604
▁सहयोग	-2605
ंख	-2606
▁Ab	-2607
▁Im	-2608
▁par	-2609
▁नियंत्र	-2610
▁प्रणाली	-2611
▁exper	-2612
¤¾	-2613
▁उल्	-2614
▁बरा	-2615
▁विश्वविद्यालय	-2616
ery	-2617
▁छा	-2618
▁themselves	-2619
▁soci	-2620
▁too	-2621
://	-2622
▁At	-2623
ulation	-2624
ged	-2625
वादी	-2626
ically	-2627
▁ऋण	-2628
ls	-2629
▁bo	-2630
▁इनकार	-2631
to	-2632
▁मेरा	-2633
▁व्यापार	-2634
▁bas	-2635
ues	-2636
par	-2637
▁लक्ष	-2638
ृत्य	-2639
▁कवि	-2640
ization	-2641
oin	-2642
चान	-2643
▁निश	-2644
iron	-2645
oint	-2646
▁पक्ष	-2647
▁available	-2648
▁तरी	-2649
na	-2650
▁इं	-2651
cri	-2652
र्फ	-2653
▁जगह	-2654
प्	-2655
▁वाय	-2656
▁निकल	-2657
▁दक्ष	-2658
▁परिवर्तन	-2659
▁आध	-2660
▁chang	-2661
▁आम	-2662
▁सभा	-2663
▁build	-2664
▁invest	-2665
पाल	-2666
मंत्री	-2667
▁health	-2668
▁Del	-2669
▁sche	-2670
ey	-2671
▁tre	-2672
हरी	-2673
▁खंड	-2674
▁मगर	-2675
atic	-2676
▁पहुंच	-2677
ury	-2678
land	-2679
▁जैसा	-2680
▁trad	-2681
▁वर्ग	-2682
▁pop	-2683
▁निम्न	-2684
▁faith	-2685
ूर्ति	-2686
med	-2687
▁लागू	-2688
▁क्रिया	-2689
▁keep	-2690
ंदर	-2691
▁रखते	-2692
श्चा	-2693
▁लड़	-2694
ng	-2695
▁language	-2696
▁आदेश	-2697
गें	-2698
▁वेब	-2699
▁अच्छी	-2700
▁dep	-2701
itions	-2702
▁dra	-2703
▁mar	-2704
न्म	-2705
▁अवधि	-2706
ailed	-2707
▁others	-2708
▁allow	-2709
ala	-2710
▁यू	-2711
▁अतिरिक	-2712
▁शा	-2713
▁चाहे	-2714
▁मध्य	-2715
ukher	-2716
▁benef	-2717
▁आवश्यक	-2718
▁result	-2719
▁जीव	-2720
▁स्थापित	-2721
▁towards	-2722
▁leg	-2723
ुग	-2724
▁quest	-2725
उस	-2726
▁निकाल	-2727
▁धन	-2728
▁hist	-2729
ukherjee	-2730
nic	-2731
▁One	-2732
▁रोक	-2733
एम	-2734
ूब	-2735
osition	-2736
ंधान	-2737
चन	-2738
▁दें	-2739
▁सिद्ध	-2740
▁Who	-2741
▁मामले	-2742
inc	-2743
▁आग	-2744
rah	-2745
irc	-2746
▁डी	-2747
▁light	-2748
▁offic	-2749
मेर	-2750
स्तान	-2751
दर्शन	-2752
▁poet	-2753
▁forg	-2754
▁प्रती	-2755
चि	-2756
लो	-2757
▁due	-2758
▁She	-2759
▁rev	-2760
▁mo	-2761
▁kg	-2762
▁स्थित	-2763
▁समाप्त	-2764
पना	-2765
▁''	-2766
▁वर्त	-2767
▁गुना	-2768
▁टे	-2769
ौम	-2770
डियो	-2771
▁issu	-2772
ran	-2773
¥	-2774
▁polit	-2775
▁नया	-2776
IN	-2777
▁आकार	-2778
▁less	-2779
▁घो	-2780
▁सुरक्षा	-2781
▁विवरण	-2782
र्च	-2783
▁national	-2784
▁Bhavan	-2785
▁cal	-2786
▁टी	-2787
▁चे	-2788
ief	-2789
▁Sub	-2790
ructure	-2791
iversity	-2792
ross	-2793
▁पे	-2794
▁राम	-2795
anab	-2796
▁Central	-2797
opt	-2798
uss	-2799
▁kind	-2800
द्द	-2801
बल	-2802
▁फर	-2803
▁नए	-2804
मार	-2805
ान्त	-2806
▁income	-2807
▁हिंद	-2808
▁निर्ण	-2809
दम	-2810
ering	-2811
▁value	-2812
▁कुल	-2813
▁जानते	-2814
भर	-2815
▁understand	-2816
कृतिक	-2817
ason	-2818
▁पूछ	-2819
▁prote	-2820
▁str	-2821
▁class	-2822
▁न्यायालय	-2823
ेंट	-2824
हरण	-2825
▁त्रुट	-2826
▁heavens	-2827
ances	-2828
जों	-2829
▁Add	-2830
▁उत्पादन	-2831
▁जानता	-2832
क्ता	-2833
▁मर	-2834
▁तुमसे	-2835
▁रहने	-2836
▁family	-2837
उन	-2838
▁अनुसंधान	-2839
▁मंदिर	-2840
▁देशों	-2841
▁Dep	-2842
▁जाएगी	-2843
▁brought	-2844
▁met	-2845
▁जिससे	-2846
▁।	-2847
enger	-2848
▁वहां	-2849
ोस	-2850
▁market	-2851
ेशा	-2852
ording	-2853
▁jud	-2854
▁exist	-2855
▁विन	-2856
ource	-2857
▁Rasht	-2858
rie	-2859
ajor	-2860
ंधी	-2861
लत	-2862
▁vill	-2863
▁एन	-2864
▁अतिरिक्त	-2865
▁जाओ	-2866
▁Rs	-2867
तें	-2868
▁Ass	-2869
कु	-2870
▁free	-2871
cut	-2872
तार	-2873
ष्ण	-2874
िश्त	-2875
ricult	-2876
▁special	-2877
▁निवेश	-2878
▁यात्रा	-2879
▁something	-2880
▁उदा	-2881
राम	-2882
▁अर	-2883
▁const	-2884
ternational	-2885
iful	-2886
▁यक़	-2887
rict	-2888
ird	-2889
▁आकाश	-2890
▁house	-2891
फा	-2892
▁change	-2893
▁food	-2894
▁bre	-2895
वाई	-2896
▁यातना	-2897
▁war	-2898
▁ri	-2899
ग्री	-2900
▁बराबर	-2901
ification	-2902
▁plan	-2903
जर	-2904
बू	-2905
rapati	-2906
▁सां	-2907
ष्ट्रीय	-2908
▁Dis	-2909
▁रखने	-2910
िष्ट	-2911
▁send	-2912
▁वक्त	-2913
▁punishment	-2914
सित	-2915
ट्टी	-2916
▁सही	-2917
▁क्षमता	-2918
▁Can	-2919
वेदन	-2920
▁program	-2921
ential	-2922
▁संपर्क	-2923
▁प्रदेश	-2924
▁संवि	-2925
▁संस	-2926
ising	-2927
स्थ्य	-2928
ज़र	-2929
nect	-2930
हित्य	-2931
str	-2932
▁कहीं	-2933
ready	-2934
▁महान	-2935
▁product	-2936
ocu	-2937
▁निर	-2938
agement	-2939
▁उद्देश्य	-2940
▁ter	-2941
पन्न	-2942
▁command	-2943
▁service	-2944
▁data	-2945
▁run	-2946
▁पृष्ठ	-2947
▁व्यवस्था	-2948
▁रहते	-2949
ठला	-2950
▁Sing	-2951
▁field	-2952
urity	-2953
rial	-2954
▁object	-2955
▁पो	-2956
▁supp	-2957
▁area	-2958
▁ey	-2959
▁charact	-2960
डा	-2961
ately	-2962
▁net	-2963
▁Ag	-2964
▁Mu	-2965
▁भू	-2966
क्षम	-2967
itte	-2968
eric	-2969
धारा	-2970
io	-2971
▁जरूर	-2972
▁पश्चा	-2973
▁चुके	-2974
ali	-2975
▁गर्	-2976
han	-2977
▁रि	-2978
▁self	-2979
▁एस	-2980
्रिय	-2981
▁अंतर्गत	-2982
▁बाल	-2983
▁non	-2984
iqu	-2985
used	-2986
▁महिला	-2987
▁Rashtrapati	-2988
tal	-2989
uty	-2990
श्र	-2991
¤	-2992
▁Gand	-2993
▁Cont	-2994
▁लेने	-2995
▁cause	-2996
▁death	-2997
▁परी	-2998
¤°	-2999
▁associ	-3000
▁थीं	-3001
▁lim	-3002
ured	-3003
aim	-3004
ME	-3005
तनी	-3006
▁op	-3007
▁खेल	-3008
▁पड़े	-3009
▁Delhi	-3010
hing	-3011
लग	-3012
मन	-3013
com	-3014
ma	-3015
▁वर्तमान	-3016
alf	-3017
▁Muslim	-3018
जि	-3019
▁बचा	-3020
ivid	-3021
▁ru	-3022
▁इतिहास	-3023
▁परिवार	-3024
▁समु	-3025
▁क़ौम	-3026
raph	-3027
▁rese	-3028
▁सका	-3029
reen	-3030
▁मनुष	-3031
▁प्रारंभ	-3032
▁already	-3033
▁बुरा	-3034
▁Sec	-3035
▁mer	-3036
कर्ता	-3037
▁त्रुटि	-3038
▁निस्	-3039
▁चुका	-3040
▁विशिष्ट	-3041
orn	-3042
▁far	-3043
irit	-3044
▁hig	-3045
▁आरंभ	-3046
्‍	-3047
ability	-3048
ference	-3049
▁राशि	-3050
▁इन्	-3051
▁बहु	-3052
▁Us	-3053
▁निष्	-3054
▁बनाए	-3055
▁Pre	-3056
reng	-3057
aring	-3058
▁उठ	-3059
ards	-3060
ait	-3061
▁सदस्य	-3062
IT	-3063
दू	-3064
▁पत्	-3065
▁love	-3066
▁kgm	-3067
▁liter	-3068
urther	-3069
▁दिल्ली	-3070
▁common	-3071
▁लाए	-3072
वों	-3073
▁Spe	-3074
▁साहित्य	-3075
OR	-3076
▁सन्	-3077
▁eng	-3078
▁जाये	-3079
▁subject	-3080
▁second	-3081
▁प्रशिक्ष	-3082
▁स्वास्थ्य	-3083
▁स्वतंत्र	-3084
▁comput	-3085
▁झुठला	-3086
▁वालों	-3087
▁नही	-3088
▁care	-3089
▁उसको	-3090
▁निर्देश	-3091
र्स	-3092
▁वर्षों	-3093
▁matter	-3094
▁services	-3095
▁Your	-3096
▁true	-3097
▁ann	-3098
▁hard	-3099
htm	-3100
▁अमेर	-3101
▁near	-3102
ंश	-3103
▁सिर्फ	-3104
▁areas	-3105
▁पश्च	-3106
▁countries	-3107
▁perform	-3108
▁कहने	-3109
▁god	-3110
itor	-3111
▁worship	-3112
ope	-3113
रि	-3114
डे	-3115
▁few	-3116
▁ज़ि	-3117
ek	-3118
▁based	-3119
▁members	-3120
▁sw	-3121
त्मा	-3122
▁प्रस्तुत	-3123
▁night	-3124
▁gave	-3125
पूर्व	-3126
HE	-3127
cing	-3128
AL	-3129
ceed	-3130
oney	-3131
ancial	-3132
थम	-3133
▁prob	-3134
▁pract	-3135
तिम	-3136
गल	-3137
तक	-3138
▁२	-3139
▁विधि	-3140
▁तु	-3141
▁cr	-3142
▁वर्ण	-3143
▁following	-3144
gether	-3145
▁together	-3146
ems	-3147
ांत	-3148
▁little	-3149
▁पेश	-3150
▁father	-3151
▁प्रधानमंत्री	-3152
iding	-3153
▁type	-3154
▁वाप	-3155
▁provide	-3156
▁शरीर	-3157
come	-3158
▁path	-3159
▁economic	-3160
ानीय	-3161
▁जिन्हें	-3162
ently	-3163
धारण	-3164
ीकरण	-3165
▁del	-3166
▁Brit	-3167
▁चा	-3168
ज्	-3169
▁streng	-3170
▁दृष्टि	-3171
ners	-3172
▁Rep	-3173
▁nation	-3174
▁ple	-3175
▁Indeed	-3176
▁अंग्रे	-3177
▁श्रेणी	-3178
▁वहाँ	-3179
▁above	-3180
ogn	-3181
iver	-3182
मिल	-3183
▁fund	-3184
▁particular	-3185
▁लाख	-3186
adesh	-3187
▁मंत्रालय	-3188
isation	-3189
ilities	-3190
्रै	-3191
▁capital	-3192
▁एक्स	-3193
▁दक्षि	-3194
क्षर	-3195
val	-3196
▁संसा	-3197
▁major	-3198
ोजित	-3199
▁चित्र	-3200
liament	-3201
▁age	-3202
▁provided	-3203
▁न्याय	-3204
नाथ	-3205
ख़िर	-3206
aining	-3207
isions	-3208
artment	-3209
▁दुर्	-3210
▁respons	-3211
▁कैसे	-3212
ंचा	-3213
lection	-3214
▁himself	-3215
istry	-3216
ुद्ध	-3217
▁तुमने	-3218
ying	-3219
▁दूसरी	-3220
▁शहर	-3221
▁init	-3222
▁signs	-3223
▁बच्चों	-3224
▁कौन	-3225
▁आन	-3226
eous	-3227
▁expl	-3228
▁sector	-3229
▁प्रश्	-3230
▁thought	-3231
▁सत्य	-3232
दर	-3233
▁Acc	-3234
▁plac	-3235
▁मूसा	-3236
▁action	-3237
▁cost	-3238
▁farm	-3239
▁हमेशा	-3240
▁whole	-3241
▁reve	-3242
▁अपे	-3243
viron	-3244
झा	-3245
▁occas	-3246
▁eas	-3247
▁Cl	-3248
▁Gener	-3249
▁देखते	-3250
▁sol	-3251
▁hold	-3252
▁मार	-3253
▁dou	-3254
ession	-3255
▁seek	-3256
▁society	-3257
het	-3258
▁काल	-3259
ara	-3260
▁current	-3261
osed	-3262
▁स्थानीय	-3263
तने	-3264
▁शिक	-3265
ividual	-3266
akh	-3267
▁शे	-3268
▁PRES	-3269
▁words	-3270
chie	-3271
▁beg	-3272
००	-3273
ww	-3274
play	-3275
▁able	-3276
▁ve	-3277
▁aut	-3278
मि	-3279
▁नौ	-3280
▁mus	-3281
▁कोर्इ	-3282
▁शीर्ष	-3283
▁seen	-3284
▁making	-3285
निश्च	-3286
▁still	-3287
▁निर्णय	-3288
ories	-3289
▁विकसित	-3290
▁Em	-3291
oses	-3292
▁अधिकारी	-3293
▁around	-3294
वाब	-3295
▁instru	-3296
लू	-3297
ger	-3298
▁रात	-3299
ुओं	-3300
▁तौर	-3301
▁Those	-3302
▁प्रस	-3303
▁बंद	-3304
▁pain	-3305
▁belong	-3306
जित	-3307
▁consider	-3308
▁बंग	-3309
▁परन्तु	-3310
शल	-3311
ड़ों	-3312
गति	-3313
▁घटना	-3314
ling	-3315
oura	-3316
शिया	-3317
▁sing	-3318
▁folder	-3319
▁हमारा	-3320
▁बेहतर	-3321
यान	-3322
▁el	-3323
▁जिन्होंने	-3324
eness	-3325
शोध	-3326
र्जा	-3327
▁सेट	-3328
▁अला	-3329
▁युद्ध	-3330
खित	-3331
▁राह	-3332
▁भूमि	-3333
vironment	-3334
▁प्रस्ता	-3335
▁तहत	-3336
lam	-3337
▁रचना	-3338
▁mult	-3339
संदेह	-3340
▁always	-3341
▁test	-3342
¥	-3343
ges	-3344
▁जिनके	-3345
▁pray	-3346
▁regard	-3347
▁policy	-3348
▁@	-3349
साय	-3350
▁along	-3351
▁report	-3352
▁छोटे	-3353
▁express	-3354
▁संच	-3355
af	-3356
▁अंतिम	-3357
oad	-3358
▁took	-3359
ians	-3360
▁Show	-3361
▁प्रेम	-3362
▁गांधी	-3363
▁local	-3364
▁necess	-3365
▁रू	-3366
hy	-3367
▁effort	-3368
▁देगा	-3369
icult	-3370
जो	-3371
यात	-3372
▁Cour	-3373
br	-3374
▁गं	-3375
▁post	-3376
▁Beng	-3377
▁छवि	-3378
ribut	-3379
ोक्ता	-3380
▁भि	-3381
▁चिक	-3382
▁दिशा	-3383
▁आसमान	-3384
▁मिले	-3385
▁enc	-3386
▁tax	-3387
▁लं	-3388
▁ever	-3389
hat	-3390
▁date	-3391
veral	-3392
▁Rem	-3393
▁बल	-3394
▁माँ	-3395
bo	-3396
▁meas	-3397
▁Please	-3398
▁उदाहरण	-3399
▁Americ	-3400
▁दस्ता	-3401
▁सार्व	-3402
लाई	-3403
▁भेजा	-3404
▁मांग	-3405
▁control	-3406
idence	-3407
▁भूमिका	-3408
▁individual	-3409
els	-3410
ises	-3411
▁rul	-3412
ष्य	-3413
▁विदेशी	-3414
ैस	-3415
▁create	-3416
यां	-3417
्रेस	-3418
▁repres	-3419
ustom	-3420
▁सक्रिय	-3421
be	-3422
cil	-3423
▁though	-3424
▁having	-3425
▁young	-3426
ण्	-3427
▁spirit	-3428
▁लगता	-3429
ज्ञा	-3430
▁Col	-3431
uct	-3432
ails	-3433
▁अनुभव	-3434
▁इंड	-3435
▁जन्म	-3436
▁Gandhi	-3437
▁achie	-3438
▁Reg	-3439
▁growth	-3440
▁X	-3441
▁With	-3442
▁दया	-3443
ोर्ड	-3444
▁school	-3445
▁therefore	-3446
itness	-3447
▁नव	-3448
ames	-3449
▁creat	-3450
▁इस्त	-3451
umb	-3452
▁पहचान	-3453
▁मौजूद	-3454
▁सम्बन्ध	-3455
▁ut	-3456
रीब	-3457
ेंस	-3458
▁आधारित	-3459
एल	-3460
ication	-3461
▁क्ल	-3462
▁enter	-3463
▁वाद	-3464
सू	-3465
▁कृप	-3466
▁including	-3467
pportun	-3468
▁mill	-3469
▁thing	-3470
▁संबंधी	-3471
वासी	-3472
भू	-3473
▁अफ	-3474
▁अनि	-3475
्श	-3476
▁विस्तार	-3477
ta	-3478
▁point	-3479
eration	-3480
▁पाया	-3481
▁States	-3482
▁उन्	-3483
▁संभव	-3484
IDENT	-3485
IS	-3486
▁five	-3487
▁थो	-3488
तो	-3489
▁बाजार	-3490
▁प्रवेश	-3491
ilit	-3492
uro	-3493
▁विकल्प	-3494
▁hearts	-3495
ched	-3496
ned	-3497
ier	-3498
▁institut	-3499
▁mean	-3500
▁तत्व	-3501
दय	-3502
▁vers	-3503
▁डाक	-3504
▁किये	-3505
▁Ph	-3506
▁घा	-3507
▁परंतु	-3508
opy	-3509
▁निस्संदेह	-3510
aled	-3511
▁nothing	-3512
ील	-3513
ैंड	-3514
▁further	-3515
▁पक	-3516
ream	-3517
ours	-3518
्राम	-3519
▁orig	-3520
वीं	-3521
च्छा	-3522
▁Commission	-3523
▁live	-3524
न्ट	-3525
▁THE	-3526
▁port	-3527
▁निश्चित	-3528
▁जल्	-3529
▁later	-3530
गु	-3531
ources	-3532
▁तुमको	-3533
▁home	-3534
िकों	-3535
वस्था	-3536
▁whether	-3537
▁PRESIDENT	-3538
▁translation	-3539
▁whose	-3540
▁British	-3541
▁सिंह	-3542
▁दस्तावे	-3543
रो	-3544
▁probably	-3545
▁Bank	-3546
▁z	-3547
aste	-3548
ार्ड	-3549
▁impro	-3550
चल	-3551
ंतर	-3552
स्म	-3553
itional	-3554
▁fav	-3555
▁स्थापना	-3556
▁प्रगति	-3557
ittee	-3558
▁लक्ष्य	-3559
▁asse	-3560
▁मित्र	-3561
वरी	-3562
▁वित्तीय	-3563
▁नागर	-3564
▁तंत्र	-3565
▁बोल	-3566
▁सोच	-3567
▁जांच	-3568
▁political	-3569
▁opportun	-3570
▁deeds	-3571
▁English	-3572
▁Hindi	-3573
▁सहायक	-3574
reme	-3575
▁तकनी	-3576
▁inde	-3577
▁नियंत्रण	-3578
▁function	-3579
▁रिप	-3580
▁संक	-3581
▁रहता	-3582
▁हुक्	-3583
▁short	-3584
▁Not	-3585
▁side	-3586
▁"%	-3587
राही	-3588
म्ब	-3589
lling	-3590
▁प्रबंधन	-3591
▁Sy	-3592
▁Singh	-3593
▁es	-3594
▁mor	-3595
▁कमी	-3596
▁held	-3597
▁key	-3598
arent	-3599
▁became	-3600
▁docu	-3601
वत	-3602
outh	-3603
साइट	-3604
▁संयुक्त	-3605
▁circ	-3606
▁वास्ते	-3607
▁selected	-3608
▁अनुमति	-3609
▁मनुष्य	-3610
ude	-3611
▁जह	-3612
ached	-3613
▁Prov	-3614
▁After	-3615
▁next	-3616
▁received	-3617
▁guid	-3618
चर	-3619
optional	-3620
ribution	-3621
▁occasion	-3622
▁Prime	-3623
▁Name	-3624
▁जहाँ	-3625
▁thee	-3626
▁believers	-3627
▁cred	-3628
▁nature	-3629
▁industry	-3630
▁diff	-3631
▁yet	-3632
▁माना	-3633
घा	-3634
▁प्राधिक	-3635
▁कृपया	-3636
▁वृद्धि	-3637
bar	-3638
▁equal	-3639
▁record	-3640
▁विंडो	-3641
plement	-3642
ergy	-3643
र्जी	-3644
ammad	-3645
ministr	-3646
atch	-3647
फिर	-3648
▁until	-3649
▁भाई	-3650
▁समिति	-3651
बत	-3652
ead	-3653
्टी	-3654
pose	-3655
ृत्यु	-3656
▁अग्र	-3657
▁पुकार	-3658
▁उपकरण	-3659
▁question	-3660
udd	-3661
▁Most	-3662
▁Develop	-3663
▁बच	-3664
लिखित	-3665
ोगे	-3666
ION	-3667
▁केन्द्र	-3668
▁required	-3669
erve	-3670
ंगे	-3671
भूत	-3672
▁अलावा	-3673
▁प्रथम	-3674
▁since	-3675
▁वार	-3676
earch	-3677
bt	-3678
ज़िल	-3679
▁मिटा	-3680
▁feel	-3681
▁सर्वर	-3682
▁सुनिश्च	-3683
ences	-3684
▁जिसकी	-3685
ibility	-3686
The	-3687
न्यास	-3688
▁strong	-3689
▁पिछले	-3690
▁एम	-3691
▁Ministry	-3692
gu	-3693
▁राजनी	-3694
▁खाता	-3695
▁Hindu	-3696
▁हुक्म	-3697
IA	-3698
वस	-3699
▁संविधान	-3700
IC	-3701
▁फल	-3702
▁लेते	-3703
▁connect	-3704
incip	-3705
ats	-3706
▁mater	-3707
ches	-3708
म्मे	-3709
▁dr	-3710
▁dise	-3711
▁religion	-3712
▁several	-3713
▁ill	-3714
द्रा	-3715
men	-3716
सलमान	-3717
▁प्रशिक्षण	-3718
▁i	-3719
▁error	-3720
▁peace	-3721
for	-3722
▁access	-3723
▁ur	-3724
र्श	-3725
ann	-3726
uation	-3727
▁Sw	-3728
▁पहली	-3729
▁possible	-3730
atever	-3731
▁Cong	-3732
change	-3733
stitute	-3734
▁activities	-3735
▁दिनों	-3736
dom	-3737
टल	-3738
▁research	-3739
दारों	-3740
▁text	-3741
section	-3742
▁character	-3743
▁मृत्यु	-3744
ुआ	-3745
▁न्यू	-3746
▁progress	-3747
ior	-3748
▁राजा	-3749
▁सहित	-3750
▁’	-3751
▁contact	-3752
▁complete	-3753
▁technology	-3754
▁पुस्तक	-3755
▁चिकित	-3756
▁गुम	-3757
▁reward	-3758
ुगतान	-3759
▁अध्ययन	-3760
▁देव	-3761
▁अमेरिका	-3762
▁सुनिश्चित	-3763
▁ऊर्जा	-3764
कम	-3765
▁मंत्री	-3766
illed	-3767
▁dom	-3768
▁पहुँच	-3769
▁पौ	-3770
▁refer	-3771
▁मॉ	-3772
▁task	-3773
शाली	-3774
▁कांग	-3775
otion	-3776
▁संभाव	-3777
▁प्रश्न	-3778
▁money	-3779
▁झू	-3780
▁हिस्सा	-3781
▁प्रस्ताव	-3782
ंसा	-3783
ivil	-3784
▁witness	-3785
▁Comp	-3786
ouncil	-3787
▁उत्पन्न	-3788
्रोत	-3789
ापन	-3790
just	-3791
▁हटा	-3792
▁यक़ीन	-3793
▁समर्थन	-3794
र्द	-3795
पु	-3796
▁flow	-3797
hammad	-3798
▁total	-3799
▁पुनः	-3800
most	-3801
▁फाइल	-3802
▁son	-3803
▁संग्रह	-3804
▁कार्यालय	-3805
▁relations	-3806
hold	-3807
▁चाल	-3808
▁तुल	-3809
▁चुनें	-3810
after	-3811
cell	-3812
aster	-3813
्ले	-3814
▁application	-3815
▁कप	-3816
▁सरकारी	-3817
स्कार	-3818
▁cro	-3819
▁दक्षिण	-3820
▁lab	-3821
▁योग्य	-3822
▁Parliament	-3823
ring	-3824
▁मात्रा	-3825
ault	-3826
यामत	-3827
▁Messenger	-3828
जह	-3829
rodu	-3830
▁खुल	-3831
जनिक	-3832
uf	-3833
cious	-3834
cribed	-3835
ेमाल	-3836
▁Some	-3837
▁priv	-3838
arat	-3839
ively	-3840
▁निर्दिष्ट	-3841
▁सफलता	-3842
▁जाएँगे	-3843
त्सा	-3844
जरा	-3845
▁share	-3846
▁production	-3847
▁समुदा	-3848
▁उपधारा	-3849
▁mis	-3850
▁link	-3851
▁पुरा	-3852
ानि	-3853
▁University	-3854
▁stat	-3855
गाह	-3856
▁don	-3857
▁इस्तेमाल	-3858
▁*	-3859
▁लें	-3860
गि	-3861
▁visit	-3862
▁हैः	-3863
ँच	-3864
▁inn	-3865
▁भावना	-3866
aries	-3867
▁concern	-3868
▁recogn	-3869
▁खे	-3870
▁वेबसाइट	-3871
▁fut	-3872
▁बिल	-3873
▁निशान	-3874
▁reason	-3875
ibr	-3876
▁Pe	-3877
▁agricult	-3878
▁भुगतान	-3879
▁Bo	-3880
▁went	-3881
▁App	-3882
▁sat	-3883
▁+	-3884
cent	-3885
▁plant	-3886
▁आधुन	-3887
▁foreign	-3888
▁गां	-3889
▁जाय	-3890
▁दृश्य	-3891
▁पहुँचा	-3892
▁राज्यों	-3893
▁Des	-3894
▁line	-3895
▁elect	-3896
bsite	-3897
mber	-3898
▁आत्म	-3899
▁युवा	-3900
▁image	-3901
▁विप	-3902
▁प्रदर्श	-3903
ony	-3904
▁IND	-3905
▁प्रे	-3906
क्या	-3907
▁using	-3908
imum	-3909
▁financial	-3910
▁Pradesh	-3911
▁वन	-3912
▁विरोध	-3913
राह	-3914
▁भीतर	-3915
▁quality	-3916
▁सिर	-3917
ograph	-3918
▁ति	-3919
▁सम्मान	-3920
ton	-3921
▁हक़	-3922
▁face	-3923
▁leave	-3924
▁clause	-3925
▁working	-3926
▁बच्चे	-3927
lu	-3928
▁certainly	-3929
▁संपाद	-3930
▁Could	-3931
▁hands	-3932
▁nat	-3933
▁Open	-3934
्ष्	-3935
urely	-3936
▁commit	-3937
▁history	-3938
▁सार्वजनिक	-3939
ामीण	-3940
▁brother	-3941
▁mag	-3942
▁शुभ	-3943
▁दिखाएँ	-3944
पे	-3945
▁itself	-3946
खी	-3947
▁खो	-3948
omes	-3949
▁Dr	-3950
▁forth	-3951
ully	-3952
▁Serv	-3953
▁पूंजी	-3954
▁प्ल	-3955
▁हस्ता	-3956
▁anim	-3957
▁सेना	-3958
▁हित	-3959
▁आदमी	-3960
श्छ	-3961
द्रीय	-3962
▁Af	-3963
▁fall	-3964
ॉर्	-3965
isl	-3966
▁difficult	-3967
▁files	-3968
▁either	-3969
▁air	-3970
▁मही	-3971
▁कमा	-3972
▁knows	-3973
▁ens	-3974
▁लिखा	-3975
▁hy	-3976
▁big	-3977
▁ident	-3978
▁उद्य	-3979
▁वास्तविक	-3980
▁जरूरत	-3981
सान	-3982
mission	-3983
▁Fin	-3984
ण्श्छ	-3985
▁कोशिश	-3986
ण्श्छ्ष्	-3987
▁गुर	-3988
ऊण्श्छ्ष्	-3989
ape	-3990
▁example	-3991
▁started	-3992
▁meeting	-3993
▁Co	-3994
▁सत	-3995
aun	-3996
▁भिन्न	-3997
irth	-3998
obal	-3999
ारोह	-4000
▁obs	-4001
▁Direct	-4002
▁represent	-4003
▁खरी	-4004
▁rate	-4005
▁अधि	-4006
ension	-4007
विष्य	-4008
▁works	-4009
▁दाय	-4010
▁कम्प	-4011
स्थिति	-4012
▁जैसी	-4013
च्चा	-4014
्यूटर	-4015
▁उल्लेख	-4016
▁लाल	-4017
▁entire	-4018
▁scheme	-4019
▁General	-4020
▁material	-4021
▁top	-4022
▁रखता	-4023
ened	-4024
icle	-4025
▁Ver	-4026
acity	-4027
▁position	-4028
aps	-4029
ets	-4030
▁deal	-4031
▁नाज़िल	-4032
▁रिपोर्ट	-4033
ills	-4034
ियान	-4035
une	-4036
▁मामलों	-4037
लाइन	-4038
▁धार	-4039
▁Congress	-4040
▁ग्रामीण	-4041
▁authority	-4042
know	-4043
olk	-4044
▁By	-4045
▁Development	-4046
▁उम्	-4047
word	-4048
▁network	-4049
pur	-4050
▁वापस	-4051
▁पूरे	-4052
▁grant	-4053
▁established	-4054
▁वैज्ञान	-4055
▁related	-4056
▁implement	-4057
▁आख़िर	-4058
श्वर	-4059
iation	-4060
▁डॉ	-4061
त्त्व	-4062
ायद	-4063
ethod	-4064
mend	-4065
▁ऑफ	-4066
▁continu	-4067
▁sum	-4068
एफ	-4069
▁got	-4070
▁Court	-4071
▁Here	-4072
बूत	-4073
▁सुना	-4074
र्ण	-4075
टवर्	-4076
▁वो	-4077
ारों	-4078
▁नदी	-4079
▁suff	-4080
augh	-4081
▁समारोह	-4082
▁students	-4083
ilt	-4084
We	-4085
▁गी	-4086
▁पुनर्	-4087
▁course	-4088
▁future	-4089
itiz	-4090
▁भविष्य	-4091
▁necessary	-4092
ंडल	-4093
▁List	-4094
▁mother	-4095
▁प्रकृति	-4096
▁institutions	-4097
▁fire	-4098
▁Now	-4099
▁पर्य	-4100
बान	-4101
▁संरचना	-4102
▁निर्धारण	-4103
ीप	-4104
▁करोड़	-4105
वाले	-4106
दर्भ	-4107
▁dri	-4108
▁High	-4109
▁save	-4110
▁उनपर	-4111
osp	-4112
स्ती	-4113
▁opp	-4114
▁close	-4115
ung	-4116
र्चा	-4117
िको	-4118
ipp	-4119
Name	-4120
▁purpose	-4121
गीत	-4122
▁क्षमा	-4123
ड़क	-4124
ँह	-4125
तुम	-4126
▁खाते	-4127
urs	-4128
▁Ev	-4129
▁bar	-4130
▁अह	-4131
▁जहन्न	-4132
▁सामग्री	-4133
▁बने	-4134
idd	-4135
▁Mar	-4136
▁खुद	-4137
ज़े	-4138
▁संके	-4139
शु	-4140
थि	-4141
ani	-4142
मू	-4143
-#	-4144
▁Offic	-4145
▁अत्यन्त	-4146
ल्ल	-4147
▁higher	-4148
ilar	-4149
▁Islam	-4150
▁गुनाह	-4151
mitted	-4152
▁पुरस्कार	-4153
▁Su	-4154
▁संगठन	-4155
▁Cal	-4156
▁चले	-4157
▁सक्षम	-4158
▁सत्ता	-4159
▁संदर्भ	-4160
▁सदस्यों	-4161
▁शासन	-4162
▁रिक	-4163
▁asked	-4164
▁स्कूल	-4165
चारी	-4166
▁news	-4167
▁जिनमें	-4168
bit	-4169
esides	-4170
▁living	-4171
▁website	-4172
▁community	-4173
▁written	-4174
▁मश	-4175
▁देखने	-4176
airs	-4177
▁सहेज	-4178
▁court	-4179
▁mount	-4180
▁hon	-4181
▁ten	-4182
▁उचित	-4183
▁security	-4184
▁यूर	-4185
मह	-4186
▁जे	-4187
▁टै	-4188
▁संशोध	-4189
▁साफ	-4190
▁once	-4191
▁treat	-4192
▁पहा	-4193
▁demand	-4194
▁property	-4195
ौती	-4196
rast	-4197
▁केंद्रीय	-4198
action	-4199
--	-4200
ोग्राम	-4201
▁mail	-4202
▁warn	-4203
हे	-4204
▁city	-4205
▁इतना	-4206
निक	-4207
▁प्रोत्सा	-4208
▁खाद	-4209
ji	-4210
▁therein	-4211
▁निर्यात	-4212
urope	-4213
▁story	-4214
aged	-4215
▁फ़र	-4216
▁जवाब	-4217
▁संसद	-4218
▁sal	-4219
▁चुना	-4220
▁कांग्रेस	-4221
▁mercy	-4222
▁दिखाई	-4223
▁behind	-4224
¤	-4225
▁मालूम	-4226
▁खिला	-4227
▁soul	-4228
▁अध्यक्ष	-4229
▁प्रशासन	-4230
▁अपेक्षा	-4231
▁redu	-4232
गो	-4233
erciful	-4234
▁आधुनिक	-4235
▁प्रतिनि	-4236
▁योगदान	-4237
▁anything	-4238
थमिक	-4239
▁greater	-4240
▁RRB	-4241
▁कानून	-4242
▁बातें	-4243
ategory	-4244
anch	-4245
▁Committee	-4246
▁डिस्क	-4247
▁step	-4248
▁आँ	-4249
▁modern	-4250
▁role	-4251
▁needs	-4252
▁औद्योग	-4253
▁Er	-4254
▁soon	-4255
rish	-4256
by	-4257
▁Pol	-4258
fully	-4259
▁leaders	-4260
ront	-4261
▁enj	-4262
▁मुद्रा	-4263
AP	-4264
▁harm	-4265
itive	-4266
टों	-4267
▁देती	-4268
▁environment	-4269
▁अपरा	-4270
▁बातों	-4271
sw	-4272
▁हास	-4273
▁lay	-4274
▁निजी	-4275
ृह	-4276
▁रोज	-4277
▁Sat	-4278
▁आयु	-4279
▁सच्च	-4280
बि	-4281
कान	-4282
▁pot	-4283
एक	-4284
▁initi	-4285
▁पथ	-4286
▁cell	-4287
▁previous	-4288
der	-4289
▁मुक़	-4290
▁व्यापक	-4291
▁Department	-4292
मय	-4293
▁Sp	-4294
▁prep	-4295
▁ones	-4296
acher	-4297
▁चयनित	-4298
▁told	-4299
orrow	-4300
▁goods	-4301
▁lot	-4302
▁computer	-4303
▁रक्षा	-4304
▁शायद	-4305
atives	-4306
▁Thus	-4307
▁trust	-4308
▁decl	-4309
▁Bengal	-4310
▁six	-4311
▁पूर्	-4312
काम	-4313
▁method	-4314
▁Nor	-4315
ones	-4316
side	-4317
▁यक़ीनन	-4318
ont	-4319
ina	-4320
ुप	-4321
abha	-4322
▁abs	-4323
engers	-4324
वधान	-4325
▁eyes	-4326
▁प्रकट	-4327
ल्पना	-4328
ointed	-4329
ंकन	-4330
पूर्वक	-4331
▁transfer	-4332
▁Select	-4333
▁लॉ	-4334
▁House	-4335
राज	-4336
▁tell	-4337
▁ध्व	-4338
▁सर्वो	-4339
िब	-4340
चीन	-4341
▁check	-4342
▁pub	-4343
▁vari	-4344
▁पड़ा	-4345
▁स्वतंत्रता	-4346
▁recom	-4347
▁एशिया	-4348
cription	-4349
प्रे	-4350
▁comes	-4351
unt	-4352
reedom	-4353
▁repl	-4354
सत	-4355
uly	-4356
▁particip	-4357
▁Union	-4358
▁past	-4359
▁जित	-4360
वालों	-4361
▁ख़ु	-4362
ruction	-4363
▁problem	-4364
▁प्राथमिक	-4365
▁कट	-4366
▁Know	-4367
istic	-4368
▁Govern	-4369
▁arch	-4370
▁संगीत	-4371
▁रेल	-4372
▁extend	-4373
istan	-4374
▁design	-4375
एन	-4376
ंगी	-4377
▁talk	-4378
itation	-4379
▁रखना	-4380
▁century	-4381
ैतिक	-4382
▁बाप	-4383
▁doing	-4384
▁separ	-4385
ita	-4386
▁दौ	-4387
▁आयात	-4388
ival	-4389
▁stri	-4390
▁energy	-4391
▁Mad	-4392
▁निकट	-4393
▁प्राय	-4394
▁Europe	-4395
▁righteous	-4396
ison	-4397
▁bea	-4398
▁imm	-4399
▁paid	-4400
▁गैर	-4401
▁vi	-4402
▁phys	-4403
idered	-4404
▁verily	-4405
▁इनमें	-4406
▁whatever	-4407
स्ति	-4408
▁invol	-4409
hood	-4410
▁office	-4411
म्भ	-4412
▁Such	-4413
ृति	-4414
▁री	-4415
बह	-4416
▁ess	-4417
▁learn	-4418
▁guidance	-4419
▁believed	-4420
ग़म्बर	-4421
aves	-4422
▁king	-4423
▁wis	-4424
▁भग	-4425
▁agree	-4426
▁hath	-4427
▁problems	-4428
▁आवेदन	-4429
▁thy	-4430
▁months	-4431
दृ	-4432
lled	-4433
▁लौट	-4434
▁why	-4435
▁dele	-4436
▁Techn	-4437
lier	-4438
▁bra	-4439
ूदा	-4440
!"	-4441
▁LRB	-4442
▁Let	-4443
▁ded	-4444
▁किंतु	-4445
▁मुँह	-4446
▁determ	-4447
▁रहो	-4448
▁tree	-4449
▁पालन	-4450
oid	-4451
▁basis	-4452
▁destro	-4453
▁आयोजित	-4454
▁तय	-4455
▁रहेंगे	-4456
▁विनिर्	-4457
▁Sche	-4458
▁औद्योगिक	-4459
इयों	-4460
▁squ	-4461
▁समझा	-4462
मक	-4463
श्त	-4464
▁Cor	-4465
▁अर्था	-4466
▁movement	-4467
ored	-4468
ideo	-4469
▁super	-4470
▁सृ	-4471
▁vol	-4472
▁server	-4473
▁Constitution	-4474
html	-4475
▁छिप	-4476
▁custom	-4477
▁changes	-4478
▁considered	-4479
▁fr	-4480
▁मुसलमान	-4481
▁parts	-4482
▁provisions	-4483
▁Part	-4484
घु	-4485
्सा	-4486
▁village	-4487
▁building	-4488
▁rele	-4489
▁किन	-4490
rab	-4491
▁blood	-4492
▁(%	-4493
▁लेखा	-4494
▁कहो	-4495
hether	-4496
▁उद्यम	-4497
▁international	-4498
irt	-4499
▁राय	-4500
▁till	-4501
ological	-4502
▁however	-4503
▁turned	-4504
मेल	-4505
▁रखे	-4506
सन	-4507
फ्	-4508
▁आवा	-4509
▁शर्	-4510
▁forward	-4511
▁व्यक्तियों	-4512
▁scient	-4513
▁Information	-4514
ोलन	-4515
ांति	-4516
▁शता	-4517
▁claim	-4518
▁बंगाल	-4519
amb	-4520
▁display	-4521
▁Council	-4522
▁revealed	-4523
▁Lo	-4524
▁sun	-4525
rs	-4526
वाही	-4527
लिस	-4528
रल	-4529
▁बज	-4530
▁administr	-4531
पक	-4532
▁ange	-4533
▁ground	-4534
▁messages	-4535
ush	-4536
रोध	-4537
▁केन्द	-4538
▁discuss	-4539
▁trade	-4540
vi	-4541
▁आशा	-4542
▁बोर्ड	-4543
ires	-4544
▁deep	-4545
▁पांच	-4546
पट	-4547
▁INDIA	-4548
▁speak	-4549
▁However	-4550
▁according	-4551
▁anc	-4552
▁loss	-4553
▁assist	-4554
▁size	-4555
▁Ed	-4556
▁मुखर्जी	-4557
anabm	-4558
pranabm	-4559
pranabmukherjee	-4560
ificate	-4561
City	-4562
यु	-4563
▁दल	-4564
िल्म	-4565
स्‍	-4566
▁ईसा	-4567
न्व	-4568
वेद	-4569
medi	-4570
▁प्रभावित	-4571
▁असम	-4572
्वी	-4573
aint	-4574
▁बर्	-4575
▁दिवस	-4576
▁begin	-4577
vey	-4578
▁काफ़	-4579
▁crit	-4580
▁नेटवर्	-4581
▁Verily	-4582
▁management	-4583
▁उपबंध	-4584
▁Public	-4585
▁single	-4586
▁लागत	-4587
▁पश्चात	-4588
▁citiz	-4589
▁sound	-4590
▁Surely	-4591
▁यूरोप	-4592
▁दश	-4593
▁terms	-4594
▁विधान	-4595
▁Bl	-4596
asing	-4597
▁cho	-4598
▁बुला	-4599
▁princip	-4600
▁प्रभा	-4601
▁स्रोत	-4602
▁वजह	-4603
▁force	-4604
▁often	-4605
▁मुझ	-4606
va	-4607
▁ठहरा	-4608
▁पर्याप्त	-4609
कल	-4610
aper	-4611
▁भौ	-4612
▁gre	-4613
न्दा	-4614
▁Set	-4615
▁fru	-4616
▁आयतों	-4617
▁ढंग	-4618
▁प्रकाशित	-4619
▁tor	-4620
▁पुरुष	-4621
▁Qur	-4622
कला	-4623
िक्	-4624
▁Chand	-4625
धाई	-4626
▁spread	-4627
पात	-4628
▁रक्त	-4629
▁सकें	-4630
▁समुदाय	-4631
ousand	-4632
ript	-4633
▁शांति	-4634
ड्ड	-4635
▁sin	-4636
सु	-4637
poses	-4638
राज्य	-4639
▁press	-4640
▁अनुप्र	-4641
ज़ार	-4642
RI	-4643
ड़ाई	-4644
▁तारी	-4645
रीय	-4646
▁appointed	-4647
▁पर्यावरण	-4648
▁low	-4649
▁red	-4650
▁books	-4651
्टर	-4652
▁निदेश	-4653
▁Fire	-4654
▁firm	-4655
▁प्रतिक	-4656
ंथ	-4657
▁इब	-4658
krit	-4659
▁fel	-4660
sue	-4661
▁आपकी	-4662
▁depend	-4663
▁चाहिये	-4664
▁general	-4665
▁उल	-4666
▁sense	-4667
ixed	-4668
▁अवश्य	-4669
▁देंगे	-4670
▁मुक्त	-4671
▁बधाई	-4672
▁बयान	-4673
▁assess	-4674
▁poor	-4675
▁विभा	-4676
▁mention	-4677
▁carry	-4678
▁पदार्थ	-4679
▁दशा	-4680
▁बदले	-4681
ियर	-4682
▁natural	-4683
▁specified	-4684
atory	-4685
▁प्रभ	-4686
▁इका	-4687
▁सुरक्षित	-4688
सिक	-4689
rect	-4690
▁sav	-4691
▁संरक्षण	-4692
▁चर	-4693
▁अवस्था	-4694
▁दृष्ट	-4695
▁region	-4696
▁अध्या	-4697
inary	-4698
▁सलाह	-4699
imate	-4700
ेप	-4701
▁संस्कृति	-4702
▁aud	-4703
क्रमण	-4704
▁व्यवहार	-4705
▁referred	-4706
▁डाला	-4707
▁destroy	-4708
acy	-4709
hara	-4710
▁freedom	-4711
घ्र	-4712
▁pet	-4713
▁Moses	-4714
▁norm	-4715
▁party	-4716
▁patient	-4717
▁efforts	-4718
▁remember	-4719
▁निम्नलिखित	-4720
▁expect	-4721
▁integr	-4722
go	-4723
मीद	-4724
▁issued	-4725
▁religious	-4726
▁लाने	-4727
▁manner	-4728
▁really	-4729
▁नर	-4730
▁fight	-4731
▁डेटा	-4732
▁protect	-4733
rec	-4734
▁हासिल	-4735
▁Whether	-4736
▁Error	-4737
ift	-4738
▁week	-4739
▁तौ	-4740
▁धी	-4741
▁host	-4742
▁तत्	-4743
▁बैठक	-4744
व्यवस्था	-4745
▁conduct	-4746
षद	-4747
▁चर्चा	-4748
▁persons	-4749
नेवाला	-4750
क्शन	-4751
▁thus	-4752
▁acqu	-4753
▁सेवाओं	-4754
राष्ट्रीय	-4755
ंद्र	-4756
▁संसाधन	-4757
▁culture	-4758
▁साह	-4759
itude	-4760
▁भारी	-4761
▁Cannot	-4762
app	-4763
▁विशाल	-4764
ख्स	-4765
▁compan	-4766
ama	-4767
▁maint	-4768
ulf	-4769
▁source	-4770
▁America	-4771
his	-4772
▁undert	-4773
लब	-4774
ech	-4775
iles	-4776
▁असफल	-4777
क्टर	-4778
▁search	-4779
ples	-4780
वत्ता	-4781
▁establish	-4782
▁नगर	-4783
ilk	-4784
▁चुकी	-4785
बाह	-4786
▁Bi	-4787
orld	-4788
▁fig	-4789
▁इस्ला	-4790
कत	-4791
▁सच	-4792
फ्ट	-4793
▁पंजी	-4794
भाल	-4795
द्यपि	-4796
▁opens	-4797
▁क्रम	-4798
▁increase	-4799
▁global	-4800
▁संय	-4801
हीन	-4802
र्ग	-4803
ठी	-4804
▁mach	-4805
▁अनुक	-4806
▁aware	-4807
फर	-4808
नेट	-4809
▁पाल	-4810
फ्त	-4811
▁everything	-4812
▁भंड	-4813
ptions	-4814
▁conditions	-4815
ुता	-4816
▁ज़रूर	-4817
▁स्म	-4818
▁wish	-4819
.)	-4820
▁training	-4821
▁निधि	-4822
कीय	-4823
▁pen	-4824
then	-4825
▁gives	-4826
▁di	-4827
▁thousand	-4828
ख़ुदा	-4829
▁File	-4830
▁condition	-4831
▁developed	-4832
nam	-4833
खंड	-4834
▁benefit	-4835
ke	-4836
▁chall	-4837
ग्	-4838
चक	-4839
ots	-4840
▁सीधे	-4841
▁प्रमाणपत्र	-4842
▁तेल	-4843
soever	-4844
▁छात्र	-4845
▁दूसरा	-4846
▁Trans	-4847
▁passed	-4848
▁बनी	-4849
▁गि	-4850
▁पसंद	-4851
tings	-4852
▁sac	-4853
▁शख्स	-4854
ols	-4855
▁उपस्थित	-4856
ैव	-4857
▁programm	-4858
▁none	-4859
▁आता	-4860
नेवाले	-4861
▁early	-4862
▁पस	-4863
▁matters	-4864
मो	-4865
क्का	-4866
किंग	-4867
new	-4868
cies	-4869
▁विविध	-4870
▁temple	-4871
▁purposes	-4872
▁सिद्धांत	-4873
▁प्राकृतिक	-4874
णि	-4875
खे	-4876
▁यद्यपि	-4877
्यो	-4878
ental	-4879
▁नेटवर्क	-4880
▁gen	-4881
▁cover	-4882
▁छोटी	-4883
▁तीस	-4884
AS	-4885
ात्मक	-4886
▁अधिकां	-4887
▁प्रदर्शन	-4888
▁civil	-4889
phet	-4890
▁reach	-4891
्ब	-4892
▁रखो	-4893
▁विद्यार्थ	-4894
▁शब्दों	-4895
▁प्राचीन	-4896
use	-4897
adem	-4898
भूति	-4899
▁log	-4900
▁कदम	-4901
alay	-4902
▁literature	-4903
▁industrial	-4904
▁Are	-4905
▁गुणवत्ता	-4906
त्री	-4907
▁महारा	-4908
▁consum	-4909
वर्ती	-4910
▁भागी	-4911
▁taking	-4912
▁जाति	-4913
लाम	-4914
▁कहना	-4915
▁independ	-4916
sequ	-4917
भीर	-4918
▁pros	-4919
▁million	-4920
▁इला	-4921
ows	-4922
क्षक	-4923
▁अंक	-4924
वर्ष	-4925
itable	-4926
aught	-4927
▁आयोग	-4928
▁makes	-4929
▁केन्द्रीय	-4930
▁least	-4931
मेलन	-4932
▁हाला	-4933
▁आंद	-4934
▁अत्या	-4935
▁समृ	-4936
▁partners	-4937
▁Int	-4938
▁पेट	-4939
ब्दी	-4940
▁भोजन	-4941
वेयर	-4942
uses	-4943
▁duty	-4944
पो	-4945
ह्न	-4946
▁grie	-4947
▁उपाय	-4948
▁हल	-4949
▁Ap	-4950
नो	-4951
▁soft	-4952
ane	-4953
▁Qu	-4954
▁राजनीतिक	-4955
gment	-4956
▁तरीके	-4957
▁शिकाय	-4958
▁प्रोग्राम	-4959
▁जोड़ें	-4960
▁alone	-4961
▁creation	-4962
▁बौ	-4963
abad	-4964
स्पर	-4965
▁समझौ	-4966
over	-4967
▁disease	-4968
न्स	-4969
▁Mon	-4970
च्छेद	-4971
चारियों	-4972
▁credit	-4973
उट	-4974
▁गतिविध	-4975
प्ता	-4976
▁अगले	-4977
▁reject	-4978
▁१९	-4979
vent	-4980
▁प्रसन्न	-4981
▁programme	-4982
▁achieve	-4983
attle	-4984
▁बन्दों	-4985
▁पल	-4986
डिया	-4987
ंबर	-4988
▁Kh	-4989
▁जिला	-4990
▁birth	-4991
▁कंप्यूटर	-4992
▁वैज्ञानिक	-4993
कारों	-4994
▁दस	-4995
▁बाग़	-4996
▁Mod	-4997
▁रखी	-4998
▁member	-4999
बोध	-5000
ouses	-5001
▁wealth	-5002
▁capacity	-5003
▁लघु	-5004
▁Aut	-5005
iction	-5006
ार्मिक	-5007
▁Mukherjee	-5008
▁छोड़कर	-5009
▁तुलना	-5010
▁हस्ताक्षर	-5011
CT	-5012
▁exc	-5013
▁आते	-5014
ump	-5015
▁पृथ	-5016
▁कुंजी	-5017
▁TO	-5018
वाला	-5019
▁अधिकांश	-5020
▁आपका	-5021
yle	-5022
with	-5023
rael	-5024
▁doubt	-5025
▁neither	-5026
र्व	-5027
▁संस्थानों	-5028
थर	-5029
नाम	-5030
▁li	-5031
▁आत्मा	-5032
▁अनिवार	-5033
▁सम्मेलन	-5034
mon	-5035
▁हृ	-5036
▁मिली	-5037
▁arr	-5038
▁followed	-5039
▁mode	-5040
▁प्रणब	-5041
▁ant	-5042
▁बढ	-5043
▁Rec	-5044
▁event	-5045
▁वर्णन	-5046
यक	-5047
▁neg	-5048
uration	-5049
▁मशीन	-5050
▁रखें	-5051
ada	-5052
▁ब्या	-5053
ique	-5054
नाएं	-5055
▁हट	-5056
▁May	-5057
▁शैली	-5058
▁बनाना	-5059
▁jour	-5060
▁town	-5061
▁वीडियो	-5062
ालिम	-5063
▁enjoy	-5064
▁शीघ्र	-5065
▁ऊँ	-5066
▁इच्छा	-5067
▁resources	-5068
Ex	-5069
....	-5070
▁san	-5071
▁Even	-5072
▁dire	-5073
▁दर्शा	-5074
▁अधिकारियों	-5075
▁ईश्वर	-5076
▁श्रेणीः	-5077
▁अता	-5078
▁innov	-5079
▁allowed	-5080
oke	-5081
▁dead	-5082
▁aim	-5083
ava	-5084
स्य	-5085
▁मजबूत	-5086
▁Muhammad	-5087
यह	-5088
साथ	-5089
▁sust	-5090
▁hope	-5091
▁हिन्दी	-5092
ंपरा	-5093
▁IN	-5094
▁प्रभावी	-5095
▁अक	-5096
anskrit	-5097
ell	-5098
▁लेना	-5099
▁ir	-5100
▁trib	-5101
ल्स	-5102
ॉप	-5103
▁कविता	-5104
rastructure	-5105
face	-5106
▁sea	-5107
press	-5108
▁आत	-5109
▁बताया	-5110
▁stay	-5111
▁Section	-5112
▁धार्मिक	-5113
▁wide	-5114
▁typ	-5115
▁कूट	-5116
▁compet	-5117
▁document	-5118
▁request	-5119
▁मना	-5120
duc	-5121
▁उत	-5122
झी	-5123
याँ	-5124
्रीन	-5125
▁Per	-5126
▁Project	-5127
▁लगी	-5128
धिकार	-5129
▁जरूरी	-5130
▁संस्कृत	-5131
▁Mr	-5132
iii	-5133
▁आकर्	-5134
स्टम	-5135
▁user	-5136
दो	-5137
endar	-5138
usion	-5139
▁personal	-5140
▁उम्मीद	-5141
ल्ड	-5142
▁Mem	-5143
▁पाए	-5144
▁पकड़	-5145
▁परीक्षा	-5146
▁पद्ध	-5147
see	-5148
▁उपभ	-5149
▁pal	-5150
▁gard	-5151
▁lakh	-5152
vere	-5153
-#-#	-5154
▁saw	-5155
ex	-5156
omb	-5157
न्नत	-5158
▁democ	-5159
▁write	-5160
▁population	-5161
▁stra	-5162
▁mass	-5163
▁मिलता	-5164
िकोण	-5165
▁viol	-5166
▁ग्रह	-5167
▁बैठे	-5168
न्दर	-5169
▁Div	-5170
▁across	-5171
▁जल्दी	-5172
▁parent	-5173
▁अनिवार्य	-5174
▁answ	-5175
▁farmers	-5176
▁चिकित्सा	-5177
स्टर	-5178
▁insp	-5179
▁lost	-5180
जूद	-5181
▁शक	-5182
▁पहल	-5183
▁सात	-5184
▁Mahar	-5185
▁wife	-5186
▁Sabha	-5187
▁tou	-5188
▁संसार	-5189
▁tar	-5190
IL	-5191
फे	-5192
▁products	-5193
▁कने	-5194
▁projects	-5195
▁Tra	-5196
▁वैश्व	-5197
▁almost	-5198
▁cut	-5199
ufact	-5200
ल्कुल	-5201
▁district	-5202
▁science	-5203
▁ढा	-5204
▁bur	-5205
▁multip	-5206
▁समाधान	-5207
uge	-5208
▁boy	-5209
▁Budd	-5210
▁outside	-5211
▁official	-5212
ler	-5213
▁दिख	-5214
▁खरीद	-5215
▁भंडार	-5216
औन	-5217
मेंट	-5218
pecial	-5219
▁Muslims	-5220
▁विफल	-5221
alse	-5222
gest	-5223
▁विज	-5224
▁kept	-5225
▁पिता	-5226
▁space	-5227
▁अनुप्रयोग	-5228
▁संत	-5229
▁include	-5230
▁propos	-5231
्वेष	-5232
▁दबा	-5233
▁structure	-5234
believers	-5235
कालीन	-5236
▁cases	-5237
▁Israel	-5238
],	-5239
जली	-5240
▁job	-5241
▁मुह	-5242
▁stru	-5243
▁Afric	-5244
▁angels	-5245
▁Fl	-5246
▁दू	-5247
▁अक्	-5248
धनों	-5249
▁फरमा	-5250
विक	-5251
ulated	-5252
▁remain	-5253
vert	-5254
▁exe	-5255
▁पाने	-5256
▁seven	-5257
▁experience	-5258
▁deny	-5259
▁price	-5260
रित	-5261
ज्ञात	-5262
ताल	-5263
▁सारी	-5264
▁ब्रिट	-5265
▁ज़ालिम	-5266
▁provision	-5267
षणा	-5268
▁laun	-5269
▁saying	-5270
.,	-5271
my	-5272
▁अप्र	-5273
▁कार्यों	-5274
▁Institute	-5275
▁bal	-5276
▁lear	-5277
▁परंपरा	-5278
ालित	-5279
▁नमा	-5280
iveness	-5281
lebr	-5282
▁इन्ह	-5283
▁खर्च	-5284
▁continue	-5285
idden	-5286
▁cast	-5287
्प	-5288
▁झूठ	-5289
AY	-5290
▁ख़बर	-5291
▁निर्भर	-5292
ables	-5293
सिद्ध	-5294
▁आपने	-5295
▁bless	-5296
▁drink	-5297
▁eat	-5298
▁निर्मित	-5299
▁try	-5300
▁शाखा	-5301
▁enough	-5302
▁fast	-5303
▁खुलती	-5304
▁half	-5305
▁subs	-5306
▁install	-5307
देव	-5308
undred	-5309
यें	-5310
▁डरा	-5311
▁वार्ष	-5312
▁teacher	-5313
▁अर्थव्यवस्था	-5314
कुल	-5315
kind	-5316
uary	-5317
▁Work	-5318
▁परिच	-5319
▁strength	-5320
दूस	-5321
▁युग	-5322
▁पुलिस	-5323
▁आती	-5324
▁सख्त	-5325
▁accom	-5326
▁पश्चिम	-5327
▁किसानों	-5328
▁affect	-5329
▁विध	-5330
gn	-5331
▁एज	-5332
ares	-5333
ging	-5334
▁Pers	-5335
II	-5336
▁छोटा	-5337
ivity	-5338
▁आदर्श	-5339
▁require	-5340
anda	-5341
▁समझते	-5342
ees	-5343
मर	-5344
▁अंदर	-5345
▁Jan	-5346
▁रहती	-5347
aff	-5348
▁deli	-5349
▁rights	-5350
▁संपत्ति	-5351
▁People	-5352
वै	-5353
▁करनी	-5354
▁प्रवि	-5355
ठित	-5356
rote	-5357
erved	-5358
▁fem	-5359
▁rural	-5360
▁विंडों	-5361
▁writing	-5362
▁tour	-5363
▁शताब्दी	-5364
▁operation	-5365
ार्क	-5366
▁sugg	-5367
▁introdu	-5368
ंति	-5369
▁ब्रिटिश	-5370
ager	-5371
let	-5372
▁अभिलेख	-5373
▁Off	-5374
▁suggest	-5375
▁Asia	-5376
agar	-5377
▁भगवान	-5378
empt	-5379
▁मौजूदा	-5380
▁institution	-5381
▁गिरोह	-5382
▁draw	-5383
rences	-5384
▁earlier	-5385
मीर	-5386
▁Che	-5387
▁क़ुर	-5388
▁investment	-5389
▁अस्त	-5390
▁पैग़म्बर	-5391
▁भ्र	-5392
▁वायु	-5393
▁private	-5394
राहीम	-5395
▁raised	-5396
▁उन्हीं	-5397
▁तथ	-5398
umn	-5399
▁Brah	-5400
▁torment	-5401
▁एव	-5402
▁Sur	-5403
▁below	-5404
▁ancient	-5405
▁Republic	-5406
▁चीज	-5407
स्कृतिक	-5408
▁बिल्कुल	-5409
▁signific	-5410
ब्र	-5411
UR	-5412
ंगल	-5413
▁Pun	-5414
▁pra	-5415
▁दुख	-5416
ators	-5417
▁अनुप	-5418
▁Merciful	-5419
▁अंश	-5420
rist	-5421
शय	-5422
्‍य	-5423
दों	-5424
▁Med	-5425
▁reform	-5426
स्वरूप	-5427
▁आंदोलन	-5428
▁प्रदर्शित	-5429
▁rule	-5430
▁influ	-5431
▁विरुद्ध	-5432
gram	-5433
▁music	-5434
▁revel	-5435
▁Sanskrit	-5436
त्तर	-5437
▁हजार	-5438
भूम	-5439
लग्न	-5440
्राष्ट्रीय	-5441
िश्ते	-5442
▁Ins	-5443
▁front	-5444
▁immedi	-5445
isf	-5446
▁eight	-5447
▁economy	-5448
▁शेष	-5449
दर्शी	-5450
▁आख़िरत	-5451
▁Use	-5452
▁says	-5453
ल्लाह	-5454
ED	-5455
▁चरण	-5456
▁From	-5457
▁forms	-5458
▁साधारण	-5459
▁US	-5460
ifest	-5461
igation	-5462
▁pow	-5463
▁अंग्रेजी	-5464
▁विचारों	-5465
वृत्ति	-5466
म्र	-5467
ेक्ट	-5468
▁सम्मिल	-5469
▁समुद्र	-5470
राब	-5471
▁rad	-5472
▁page	-5473
▁Ak	-5474
▁Gur	-5475
▁Pranab	-5476
▁Up	-5477
▁महत्त्व	-5478
▁गलत	-5479
▁करनेवालों	-5480
▁decided	-5481
▁hundred	-5482
▁Board	-5483
▁judge	-5484
▁woman	-5485
▁provides	-5486
▁प्रतिष्ठ	-5487
्वा	-5488
▁सित	-5489
▁crop	-5490
▁color	-5491
तया	-5492
▁इंडिया	-5493
tax	-5494
estic	-5495
pril	-5496
rection	-5497
▁खड़े	-5498
▁disbelieve	-5499
▁रहना	-5500
ban	-5501
▁हवा	-5502
▁इंटर	-5503
▁states	-5504
▁similar	-5505
▁hear	-5506
▁South	-5507
▁prepared	-5508
▁संकेत	-5509
▁coop	-5510
▁सीमित	-5511
▁स्थायी	-5512
ंगा	-5513
▁conne	-5514
well	-5515
्यान्व	-5516
▁अपील	-5517
▁सैन	-5518
▁Where	-5519
▁अपराध	-5520
▁विद्व	-5521
न्‍	-5522
▁built	-5523
▁improve	-5524
aka	-5525
mir	-5526
ष्ट्र	-5527
▁निर्वा	-5528
pecially	-5529
▁कीमत	-5530
▁फी	-5531
▁failed	-5532
▁जहन्नुम	-5533
osop	-5534
urance	-5535
▁payment	-5536
▁मानते	-5537
ades	-5538
▁तेजी	-5539
▁King	-5540
ports	-5541
▁Educ	-5542
▁Technology	-5543
वह	-5544
▁शो	-5545
श्ले	-5546
धर	-5547
haps	-5548
▁रकम	-5549
▁निगम	-5550
▁places	-5551
िना	-5552
▁mankind	-5553
बाहरी	-5554
▁सच्चे	-5555
▁कार्यान्व	-5556
oud	-5557
wise	-5558
▁ign	-5559
▁Cert	-5560
▁पहुंचा	-5561
▁व्यक्तिगत	-5562
▁शैतान	-5563
fficient	-5564
सब	-5565
▁खास	-5566
▁बढ़ाने	-5567
ँकि	-5568
▁Pur	-5569
fo	-5570
▁ताल	-5571
▁नसी	-5572
▁ensure	-5573
▁Po	-5574
eb	-5575
▁कठिन	-5576
▁carried	-5577
▁नमाज़	-5578
▁शुल्क	-5579
gar	-5580
▁happy	-5581
▁इबराहीम	-5582
'.	-5583
▁astr	-5584
▁wait	-5585
▁popular	-5586
रज़	-5587
▁Jud	-5588
▁World	-5589
ंबई	-5590
▁exchange	-5591
▁strengthen	-5592
▁charge	-5593
▁अत्यंत	-5594
▁संशोधन	-5595
▁manufact	-5596
atter	-5597
▁situation	-5598
▁अना	-5599
▁आंक	-5600
▁नोट	-5601
▁instrument	-5602
▁ब्याज	-5603
ourage	-5604
▁घट	-5605
estern	-5606
▁सत्या	-5607
▁da	-5608
▁dark	-5609
▁जिम्मे	-5610
ibrary	-5611
▁जोर	-5612
nding	-5613
▁issues	-5614
mark	-5615
▁दृष्टिकोण	-5616
्रेड	-5617
▁पंजा	-5618
▁actually	-5619
र्न	-5620
▁कृत	-5621
▁शक़	-5622
chan	-5623
▁नेता	-5624
▁मेहर	-5625
▁रास्त	-5626
▁relating	-5627
lear	-5628
iddle	-5629
ew	-5630
भूमि	-5631
▁crore	-5632
▁विल	-5633
▁status	-5634
mes	-5635
▁जाँच	-5636
bed	-5637
▁Rel	-5638
▁View	-5639
खर	-5640
▁guide	-5641
▁लोड	-5642
adu	-5643
owed	-5644
▁Har	-5645
jab	-5646
▁id	-5647
▁foc	-5648
▁सदैव	-5649
▁Account	-5650
▁approach	-5651
▁बाज़	-5652
▁एल	-5653
▁depos	-5654
▁आकाशों	-5655
अपने	-5656
ici	-5657
▁सरल	-5658
▁West	-5659
दाता	-5660
▁essential	-5661
▁हालत	-5662
▁astray	-5663
▁road	-5664
▁Category	-5665
▁decision	-5666
ilosop	-5667
▁values	-5668
nds	-5669
ales	-5670
▁काट	-5671
▁फेर	-5672
मैं	-5673
emed	-5674
▁led	-5675
itle	-5676
▁rich	-5677
▁bound	-5678
▁CO	-5679
▁यथा	-5680
▁लेखक	-5681
▁published	-5682
▁एह	-5683
संग	-5684
▁study	-5685
▁सांस्कृतिक	-5686
▁receive	-5687
ल्ला	-5688
▁बख	-5689
▁बीमा	-5690
▁stop	-5691
▁produce	-5692
शाला	-5693
▁Income	-5694
▁लगाया	-5695
▁वाक़	-5696
▁details	-5697
▁नागरिक	-5698
कृष्ट	-5699
्यूशन	-5700
▁सम्मिलित	-5701
यण	-5702
▁मोह	-5703
▁बढ़ावा	-5704
);	-5705
▁परिषद	-5706
▁रुपये	-5707
eral	-5708
▁आतंक	-5709
▁rules	-5710
▁अफ्री	-5711
▁desire	-5712
oe	-5713
ume	-5714
▁apply	-5715
amed	-5716
ening	-5717
▁गंभीर	-5718
▁Indust	-5719
▁celebr	-5720
कात	-5721
जनक	-5722
▁dig	-5723
▁चढ़	-5724
▁third	-5725
▁बुद्धि	-5726
जीव	-5727
▁रोजगार	-5728
▁Every	-5729
▁प्रतीक	-5730
▁meaning	-5731
▁river	-5732
▁देखें	-5733
▁तकनीकी	-5734
▁नये	-5735
External	-5736
▁issue	-5737
▁बौद्ध	-5738
ेगा	-5739
▁lives	-5740
▁subst	-5741
▁ग्राह	-5742
▁मार्च	-5743
▁rain	-5744
▁पहला	-5745
इड	-5746
▁Cre	-5747
▁indic	-5748
▁letter	-5749
▁Cons	-5750
ney	-5751
भाषा	-5752
▁उपयुक्त	-5753
ATION	-5754
परि	-5755
लिक	-5756
▁defe	-5757
हाद	-5758
मारी	-5759
▁load	-5760
ंचे	-5761
भारत	-5762
▁tele	-5763
▁संघर्ष	-5764
▁opportunity	-5765
▁Def	-5766
▁fulf	-5767
ोजनों	-5768
▁Their	-5769
▁regular	-5770
▁वैश्विक	-5771
▁फैला	-5772
दायत	-5773
▁मालिक	-5774
de	-5775
म्म	-5776
▁पड़ता	-5777
▁प्रत्यक्ष	-5778
नर	-5779
ूनी	-5780
light	-5781
▁April	-5782
▁Right	-5783
▁निशानियाँ	-5784
र्ट	-5785
▁बाव	-5786
ैक	-5787
ley	-5788
▁Net	-5789
▁wid	-5790
uck	-5791
▁groups	-5792
▁परिवर्त	-5793
्रैल	-5794
▁महीने	-5795
▁गाय	-5796
सूस	-5797
▁नाटक	-5798
ocation	-5799
▁friends	-5800
▁wall	-5801
▁अप्रैल	-5802
▁संभावना	-5803
▁occur	-5804
▁सॉ	-5805
▁असा	-5806
▁coming	-5807
▁stage	-5808
ras	-5809
▁क्षेत्रीय	-5810
▁झग	-5811
▁Save	-5812
क्षेत्र	-5813
▁especially	-5814
ादी	-5815
ulate	-5816
▁गांव	-5817
▁guard	-5818
▁providing	-5819
▁खुश	-5820
▁bear	-5821
▁खोलें	-5822
▁मिट्टी	-5823
ार्म	-5824
▁Leg	-5825
▁room	-5826
▁घोषणा	-5827
▁रहेगा	-5828
ोने	-5829
▁facilities	-5830
दूर	-5831
ितीय	-5832
▁Dist	-5833
▁खाद्य	-5834
▁physical	-5835
प्ताह	-5836
▁quot	-5837
▁attend	-5838
isk	-5839
▁bit	-5840
▁During	-5841
▁Prophet	-5842
fort	-5843
िकाओं	-5844
▁महिलाओं	-5845
▁accepted	-5846
ott	-5847
▁साझी	-5848
▁पात्र	-5849
▁प्रयासों	-5850
▁names	-5851
▁promise	-5852
▁मिलने	-5853
▁univers	-5854
▁copy	-5855
▁programmes	-5856
att	-5857
hest	-5858
▁ste	-5859
▁दायित्व	-5860
तरा	-5861
▁video	-5862
न्त्र	-5863
▁प्लग	-5864
▁Secret	-5865
▁concerned	-5866
▁har	-5867
enty	-5868
▁guided	-5869
ंदा	-5870
load	-5871
▁Under	-5872
▁प्रसार	-5873
▁शुभकाम	-5874
▁अनुवाद	-5875
▁sens	-5876
▁इनके	-5877
▁Chief	-5878
cle	-5879
▁हृदय	-5880
▁Krish	-5881
▁wrote	-5882
▁besides	-5883
▁अनुच्छेद	-5884
▁Sign	-5885
▁गुजरा	-5886
▁morning	-5887
▁तर्क	-5888
▁बनाई	-5889
▁false	-5890
सभा	-5891
क्ष्म	-5892
वें	-5893
▁Child	-5894
reg	-5895
▁While	-5896
▁specific	-5897
फार	-5898
war	-5899
▁सश	-5900
▁ड्र	-5901
inion	-5902
▁Fore	-5903
▁सत्र	-5904
▁break	-5905
▁तुमपर	-5906
लिम	-5907
▁वस्तुओं	-5908
धानी	-5909
▁सिस्टम	-5910
abled	-5911
▁International	-5912
".	-5913
▁satisf	-5914
▁Guj	-5915
▁teach	-5916
▁कहानी	-5917
साब	-5918
head	-5919
▁obt	-5920
▁विस्तृत	-5921
▁बिजली	-5922
▁विवाह	-5923
▁terror	-5924
essee	-5925
▁ग्राम	-5926
▁enem	-5927
▁Service	-5928
▁पत्थर	-5929
▁infrastructure	-5930
▁dam	-5931
▁अधिकतर	-5932
▁disbelievers	-5933
▁Mo	-5934
ास्त्र	-5935
▁मस	-5936
oday	-5937
▁अधिकतम	-5938
▁conscious	-5939
aving	-5940
iture	-5941
▁cultural	-5942
▁lower	-5943
▁Sm	-5944
▁हालाँकि	-5945
हरे	-5946
▁इंज	-5947
▁जादू	-5948
बु	-5949
▁“%	-5950
▁forest	-5951
▁East	-5952
िमी	-5953
▁चिह्न	-5954
▁नसीहत	-5955
aughter	-5956
llah	-5957
एँगे	-5958
▁त्व	-5959
▁सूर्	-5960
▁increased	-5961
मिन	-5962
ervation	-5963
EE	-5964
▁कार्र	-5965
ॉन	-5966
▁शिव	-5967
▁easy	-5968
ground	-5969
▁व्याव	-5970
▁citizens	-5971
▁ways	-5972
ुमार	-5973
▁पद्धति	-5974
भाष	-5975
▁कहेंगे	-5976
ंह	-5977
▁दोष	-5978
▁conv	-5979
▁हिदायत	-5980
▁अंतरराष्ट्रीय	-5981
▁deb	-5982
▁remind	-5983
▁behalf	-5984
ांकि	-5985
▁लेता	-5986
त्‍	-5987
▁व्यय	-5988
▁reached	-5989
▁Ma	-5990
▁शास	-5991
प्रिय	-5992
व्र	-5993
दूसरे	-5994
asure	-5995
mbly	-5996
▁Val	-5997
▁चलते	-5998
encies	-5999
▁ट्र	-6000
मल	-6001
▁दिलों	-6002
▁बनाकर	-6003
षक	-6004
urrection	-6005
क्षेप	-6006
▁खाली	-6007
▁assessment	-6008
▁पढ़ा	-6009
▁Will	-6010
▁निरंतर	-6011
▁languages	-6012
नु	-6013
▁एच	-6014
sect	-6015
▁arri	-6016
▁मोड	-6017
▁device	-6018
▁बुनिया	-6019
▁central	-6020
rog	-6021
▁bi	-6022
▁origin	-6023
▁Failed	-6024
▁proceed	-6025
▁नियुक्त	-6026
▁password	-6027
RO	-6028
yond	-6029
▁giving	-6030
▁दिये	-6031
▁जिनका	-6032
▁importance	-6033
india	-6034
▁song	-6035
▁stone	-6036
▁तारीख	-6037
abor	-6038
▁उत्तम	-6039
साद	-6040
▁समाचार	-6041
▁caused	-6042
वृत्त	-6043
▁डाटा	-6044
▁शेयर	-6045
▁रोज़ी	-6046
amil	-6047
▁सीख	-6048
▁Bal	-6049
anks	-6050
▁स्वामी	-6051
▁…	-6052
▁Sam	-6053
▁Have	-6054
ढ़ी	-6055
सों	-6056
▁छु	-6057
▁secret	-6058
▁becomes	-6059
▁टुक	-6060
▁अधिस	-6061
▁Governor	-6062
▁देखो	-6063
▁Africa	-6064
लिंग	-6065
▁Sim	-6066
▁lib	-6067
एगा	-6068
▁began	-6069
▁rather	-6070
resh	-6071
▁दीर्	-6072
▁दर्शन	-6073
▁attack	-6074
▁die	-6075
▁mut	-6076
vant	-6077
▁अनुकूल	-6078
▁हालांकि	-6079
कद	-6080
ule	-6081
ites	-6082
vest	-6083
▁fair	-6084
▁वाता	-6085
▁बावजूद	-6086
त्न	-6087
▁भूल	-6088
▁coll	-6089
▁prayer	-6090
▁instead	-6091
▁measure	-6092
वहन	-6093
तृत	-6094
▁व्याख्या	-6095
ुब	-6096
▁दिखाया	-6097
hib	-6098
न्ना	-6099
िक्री	-6100
▁Fir	-6101
known	-6102
▁prim	-6103
ोसा	-6104
खिल	-6105
ober	-6106
rows	-6107
▁खूब	-6108
▁comb	-6109
ुत्व	-6110
▁United	-6111
omet	-6112
गिज़	-6113
▁मिशन	-6114
▁संलग्न	-6115
ाब	-6116
स्वी	-6117
anation	-6118
▁Centre	-6119
▁प्रसिद्ध	-6120
▁ho	-6121
▁पाय	-6122
▁संस्करण	-6123
ध्या	-6124
▁सरक	-6125
▁appear	-6126
▁प्रयोजनों	-6127
▁bill	-6128
▁feed	-6129
▁यंत्र	-6130
▁प्रयुक्त	-6131
ST	-6132
▁एफ	-6133
नियों	-6134
▁Gang	-6135
▁walk	-6136
▁रेखा	-6137
▁भली	-6138
▁विमान	-6139
▁Art	-6140
▁फैस	-6141
▁स्वरूप	-6142
▁निर्धारिती	-6143
▁Ge	-6144
▁इतनी	-6145
▁वार्षिक	-6146
▁assessee	-6147
▁सज़ा	-6148
▁प्रेर	-6149
raw	-6150
▁Plan	-6151
▁fort	-6152
▁manifest	-6153
▁shown	-6154
किल	-6155
▁बुरी	-6156
▁style	-6157
▁ऑन	-6158
ूंगा	-6159
ection	-6160
▁अनुसू	-6161
▁कल्या	-6162
▁अवै	-6163
चित्र	-6164
▁folk	-6165
▁गहरा	-6166
▁पार्टी	-6167
▁मूल्या	-6168
¤¤	-6169
▁belongs	-6170
▁Education	-6171
दिक	-6172
▁March	-6173
▁संचार	-6174
icro	-6175
ूँगा	-6176
▁रहें	-6177
▁तुममें	-6178
▁दीवार	-6179
rug	-6180
ोकन	-6181
▁North	-6182
▁इत्या	-6183
▁unbelievers	-6184
▁गतिविधियों	-6185
पुट	-6186
▁vict	-6187
▁प्रच	-6188
que	-6189
oice	-6190
▁अंध	-6191
inn	-6192
EL	-6193
iting	-6194
▁emerg	-6195
▁मॉड	-6196
▁Hell	-6197
▁नियत	-6198
▁Group	-6199
रान	-6200
रिया	-6201
▁माह	-6202
▁clean	-6203
▁भय	-6204
▁accord	-6205
▁Pak	-6206
▁Move	-6207
▁महसूस	-6208
▁Other	-6209
▁हिन्दू	-6210
जिए	-6211
▁prior	-6212
▁आसान	-6213
▁प्रतिनिध	-6214
▁effective	-6215
band	-6216
▁द्वार	-6217
▁प्राण	-6218
▁Gl	-6219
▁sky	-6220
▁placed	-6221
RA	-6222
▁oil	-6223
▁answer	-6224
▁हार	-6225
ोल्यूशन	-6226
▁servants	-6227
▁disp	-6228
▁idea	-6229
▁evidence	-6230
▁करनेवाला	-6231
▁bird	-6232
▁schol	-6233
ंटे	-6234
▁सचि	-6235
▁स्‍	-6236
▁कठोर	-6237
तृत्व	-6238
▁सामना	-6239
▁Ac	-6240
▁Scheme	-6241
▁परिस्थित	-6242
▁सज	-6243
▁अंड	-6244
▁govern	-6245
▁accounts	-6246
▁potential	-6247
''	-6248
्रिया	-6249
▁प्रेष	-6250
▁मेल	-6251
▁Arab	-6252
▁aver	-6253
▁famil	-6254
▁राजन	-6255
▁इस्लाम	-6256
▁hor	-6257
▁System	-6258
ंकर	-6259
▁अधिसू	-6260
▁स्त्र	-6261
▁heaven	-6262
▁treatment	-6263
▁मार्गदर्शन	-6264
oom	-6265
▁Expl	-6266
▁क्लिक	-6267
▁वातावरण	-6268
▁Of	-6269
▁ge	-6270
▁gir	-6271
▁समर्	-6272
▁Evolution	-6273
स्लिम	-6274
▁mere	-6275
▁स्वागत	-6276
▁Hereafter	-6277
iff	-6278
anced	-6279
▁burn	-6280
▁अद्य	-6281
▁percent	-6282
▁ख्या	-6283
▁नियमित	-6284
▁शुभकामनाएं	-6285
▁beyond	-6286
▁philosop	-6287
▁उपचार	-6288
▁शिकायत	-6289
पास	-6290
▁परीक्षण	-6291
▁फे	-6292
▁नामक	-6293
)।	-6294
्ति	-6295
ंखला	-6296
▁शख़	-6297
▁सच्चा	-6298
▁समक्ष	-6299
▁सहेजें	-6300
▁contribut	-6301
▁शक्त	-6302
ून्य	-6303
▁टाइ	-6304
लोड	-6305
▁prevent	-6306
▁IS	-6307
▁चलता	-6308
▁क़यामत	-6309
▁whoever	-6310
▁कर्मचारियों	-6311
body	-6312
▁default	-6313
▁heard	-6314
▁nar	-6315
▁Dele	-6316
▁बनाएँ	-6317
▁सूक्ष्म	-6318
▁responsible	-6319
िज	-6320
ctors	-6321
▁धा	-6322
▁आंत	-6323
▁appoint	-6324
haraoh	-6325
▁Director	-6326
किस्तान	-6327
▁Out	-6328
▁camp	-6329
▁कार्ड	-6330
▁und	-6331
▁सूर	-6332
elf	-6333
बूद	-6334
▁bad	-6335
▁original	-6336
▁beginning	-6337
▁खी	-6338
▁सारा	-6339
▁sn	-6340
▁loan	-6341
अल्लाह	-6342
▁round	-6343
▁Kash	-6344
▁takes	-6345
do	-6346
▁पंच	-6347
▁fail	-6348
▁poin	-6349
▁justice	-6350
▁गर्इ	-6351
▁deg	-6352
▁पंक्ति	-6353
▁returned	-6354
ियत	-6355
▁Many	-6356
▁ट्रै	-6357
ami	-6358
▁वेतन	-6359
▁सम्प	-6360
▁quite	-6361
▁prop	-6362
▁अवैध	-6363
▁बख्श	-6364
▁possess	-6365
शब्द	-6366
▁मज़	-6367
▁दर्द	-6368
▁अफ्रीका	-6369
▁Research	-6370
CC	-6371
▁चै	-6372
वासियों	-6373
co	-6374
▁Ser	-6375
▁बजा	-6376
▁झुठलाया	-6377
टिल	-6378
ट्र	-6379
▁chast	-6380
▁spiritual	-6381
ML	-6382
▁उपय	-6383
▁सुंदर	-6384
▁नियमों	-6385
▁agricultural	-6386
ूक	-6387
kar	-6388
▁माता	-6389
ration	-6390
wh	-6391
irm	-6392
▁बंध	-6393
▁मास	-6394
▁Christ	-6395
▁मंज	-6396
नेवालों	-6397
▁संपूर्ण	-6398
▁added	-6399
▁साम्रा	-6400
▁understanding	-6401
ero	-6402
▁colle	-6403
▁youth	-6404
ेंशन	-6405
icles	-6406
▁existing	-6407
la	-6408
▁ज़ु	-6409
▁वाह	-6410
▁mom	-6411
etail	-6412
▁पाठ्य	-6413
▁activity	-6414
टेड	-6415
▁ग्रहण	-6416
▁expend	-6417
▁histor	-6418
्वे	-6419
▁lies	-6420
▁coun	-6421
▁कितने	-6422
▁simple	-6423
▁अभिव्य	-6424
▁employment	-6425
▁weak	-6426
▁speech	-6427
वट	-6428
ताव	-6429
▁चैन	-6430
▁मिलकर	-6431
▁Search	-6432
ancy	-6433
न्या	-6434
▁win	-6435
inate	-6436
▁Air	-6437
▁Moh	-6438
▁सर्वा	-6439
▁व्यवसाय	-6440
TP	-6441
▁ep	-6442
▁अनुमान	-6443
▁learning	-6444
▁स्पष्टीकरण	-6445
racy	-6446
▁कल्याण	-6447
▁Punjab	-6448
ष्क	-6449
▁उद	-6450
▁emp	-6451
▁felt	-6452
▁forb	-6453
▁unit	-6454
▁पत्त	-6455
▁सुझा	-6456
though	-6457
ING	-6458
▁der	-6459
▁Sar	-6460
▁खुशी	-6461
▁proced	-6462
iva	-6463
▁विश्ले	-6464
▁करी	-6465
▁connection	-6466
ंव	-6467
▁कथ	-6468
▁अके	-6469
▁plus	-6470
▁बदलें	-6471
▁vision	-6472
बरी	-6473
▁pack	-6474
▁लिखने	-6475
▁स्वच्छ	-6476
▁समस्याओं	-6477
▁अद	-6478
▁चम	-6479
्वाह	-6480
▁कथा	-6481
▁black	-6482
▁Bar	-6483
ropri	-6484
▁पंचा	-6485
▁सूर्य	-6486
▁Author	-6487
▁परियोजनाओं	-6488
▁बाहरी	-6489
▁mot	-6490
▁beaut	-6491
अपनी	-6492
▁scale	-6493
▁संबोध	-6494
▁प्राप्ति	-6495
▁इन्हें	-6496
',	-6497
▁भला	-6498
नांक	-6499
▁अवि	-6500
▁सबको	-6501
▁परस्पर	-6502
▁else	-6503
▁basic	-6504
▁प्रजा	-6505
▁ढूं	-6506
▁goes	-6507
▁excell	-6508
रेट	-6509
ules	-6510
▁Utt	-6511
ressed	-6512
▁Dev	-6513
▁फाय	-6514
▁अक्सर	-6515
▁जनवरी	-6516
▁चलो	-6517
▁कार्यक्रमों	-6518
छा	-6519
िफ	-6520
▁compl	-6521
▁engine	-6522
▁टन	-6523
फ़ार	-6524
▁powers	-6525
▁कार्रवाई	-6526
क्ट्र	-6527
▁मात्र	-6528
▁प्रावधान	-6529
▁आयोजन	-6530
▁content	-6531
▁मल	-6532
बादत	-6533
▁तिथि	-6534
▁wanted	-6535
▁Sup	-6536
▁Ved	-6537
▁inform	-6538
▁getting	-6539
▁Cur	-6540
▁obey	-6541
▁contract	-6542
▁वर	-6543
▁strugg	-6544
▁कल्पना	-6545
▁गणराज्य	-6546
▁अंतर्राष्ट्रीय	-6547
▁संदे	-6548
▁commer	-6549
▁Kal	-6550
▁पश्चिमी	-6551
.'	-6552
▁न्यून	-6553
ँव	-6554
हि	-6555
▁बॉ	-6556
▁gone	-6557
लाल	-6558
▁विनि	-6559
▁legal	-6560
▁मिलती	-6561
\\	-6562
▁swe	-6563
▁Gard	-6564
▁Prof	-6565
▁हिंदू	-6566
▁अस्प	-6567
▁खड़ा	-6568
▁आइ	-6569
arge	-6570
▁aspect	-6571
road	-6572
▁भौतिक	-6573
तिहासिक	-6574
वान्वेष	-6575
▁प्रसन्नता	-6576
cember	-6577
AB	-6578
ृंखला	-6579
▁Corpor	-6580
▁इत्यादि	-6581
▁द्र	-6582
▁वितरण	-6583
▁मिस	-6584
▁cy	-6585
▁क्रा	-6586
▁systems	-6587
▁पाक	-6588
▁मौसम	-6589
▁भेजे	-6590
▁fif	-6591
▁ID	-6592
▁rivers	-6593
▁निर्देशिका	-6594
ंका	-6595
▁Pri	-6596
umbai	-6597
▁जिसको	-6598
▁remove	-6599
ायक	-6600
▁Enter	-6601
▁शुरुआ	-6602
ofindia	-6603
▁करनेवाले	-6604
▁स्त्री	-6605
▁directory	-6606
धीन	-6607
▁भु	-6608
▁परा	-6609
▁पुराने	-6610
▁prosper	-6611
▁ब्रह	-6612
▁जीवित	-6613
िपि	-6614
president	-6615
▁sil	-6616
▁Asse	-6617
▁हिसाब	-6618
दिन	-6619
वाली	-6620
▁गोप	-6621
This	-6622
▁पीठ	-6623
▁warm	-6624
▁पट्टी	-6625
▁बजे	-6626
▁ब्रा	-6627
▁ON	-6628
▁कोड	-6629
▁Quran	-6630
▁एवोल्यूशन	-6631
ingu	-6632
▁sle	-6633
▁novel	-6634
▁लगाने	-6635
▁usually	-6636
▁direction	-6637
क्षी	-6638
▁plants	-6639
▁पर्यटन	-6640
णु	-6641
पू	-6642
▁Sch	-6643
▁white	-6644
▁unjust	-6645
▁Program	-6646
▁उत्कृष्ट	-6647
▁running	-6648
▁उपन्यास	-6649
भु	-6650
▁मुला	-6651
ulations	-6652
▁agreement	-6653
presidentofindia	-6654
porary	-6655
▁Why	-6656
▁छुट	-6657
▁bond	-6658
▁fest	-6659
release	-6660
▁option	-6661
ze	-6662
▁मध	-6663
▁Tem	-6664
",	-6665
▁exerc	-6666
▁निभा	-6667
▁setting	-6668
▁addition	-6669
lt	-6670
sy	-6671
ियोग	-6672
्यार	-6673
▁pie	-6674
▁Therefore	-6675
▁generally	-6676
▁certificate	-6677
▁Today	-6678
▁आये	-6679
▁born	-6680
माम	-6681
णिज्य	-6682
▁जिनकी	-6683
▁favour	-6684
▁collect	-6685
▁produced	-6686
▁opportunities	-6687
नाक	-6688
▁उर्	-6689
detail	-6690
▁प्रभार	-6691
▁मिटाएँ	-6692
rew	-6693
वेक्षण	-6694
▁assign	-6695
पादन	-6696
▁Unt	-6697
antly	-6698
ength	-6699
▁अल्प	-6700
▁मतलब	-6701
▁fixed	-6702
▁poetry	-6703
खों	-6704
▁क्षति	-6705
▁parties	-6706
मीटर	-6707
▁lie	-6708
▁award	-6709
▁formed	-6710
▁emb	-6711
▁मनो	-6712
atures	-6713
Ind	-6714
oured	-6715
▁खेती	-6716
▁पंचांग	-6717
▁practice	-6718
▁फूल	-6719
श्मीर	-6720
▁मानसिक	-6721
▁mand	-6722
▁plug	-6723
▁responsibility	-6724
▁तरफ़	-6725
▁हाथों	-6726
▁Pal	-6727
▁Forg	-6728
▁symb	-6729
▁धीरे	-6730
▁existence	-6731
▁generation	-6732
ूबर	-6733
▁Conf	-6734
बारा	-6735
▁गवाह	-6736
AD	-6737
rim	-6738
▁कमांड	-6739
▁सप्ताह	-6740
वक	-6741
www	-6742
चीत	-6743
▁फ़ैस	-6744
▁ideas	-6745
▁units	-6746
▁मुस्लिम	-6747
▁नवान्वेष	-6748
▁दावा	-6749
▁Kashmir	-6750
▁associated	-6751
▁Mark	-6752
▁safe	-6753
ips	-6754
rem	-6755
▁फिल	-6756
▁Trib	-6757
▁anal	-6758
▁शून्य	-6759
▁industries	-6760
▁insect	-6761
▁विद्यार्थियों	-6762
view	-6763
▁limit	-6764
▁aw	-6765
▁offer	-6766
▁version	-6767
ils	-6768
▁गंगा	-6769
▁जानी	-6770
ctober	-6771
isement	-6772
ियल	-6773
▁pos	-6774
▁यूनि	-6775
▁banks	-6776
istered	-6777
▁Ay	-6778
ogle	-6779
▁female	-6780
घाटन	-6781
where	-6782
▁प्रार्थ	-6783
▁continued	-6784
▁destroyed	-6785
▁खाना	-6786
▁गुरु	-6787
▁stor	-6788
▁Chair	-6789
▁concer	-6790
▁दस्तावेज	-6791
▁;	-6792
▁आपस	-6793
▁कदा	-6794
▁base	-6795
▁fold	-6796
▁चुनाव	-6797
etic	-6798
▁tri	-6799
▁नेतृत्व	-6800
▁३	-6801
▁knew	-6802
ज्ज	-6803
▁बू	-6804
▁famous	-6805
▁अत्यधिक	-6806
AME	-6807
मंडल	-6808
▁विवाद	-6809
IR	-6810
▁cove	-6811
▁tried	-6812
▁पश्चात्	-6813
▁संस्थाओं	-6814
मार्	-6815
▁जानवर	-6816
शो	-6817
▁उत्स	-6818
▁अभियान	-6819
▁दंड	-6820
▁होनी	-6821
▁लक्षण	-6822
अलग	-6823
▁note	-6824
▁active	-6825
uls	-6826
▁हस्त	-6827
▁Sri	-6828
sc	-6829
oting	-6830
▁इकाई	-6831
▁इबादत	-6832
▁विशेषता	-6833
▁traditional	-6834
asa	-6835
text	-6836
▁विद्युत	-6837
▁virt	-6838
▁wishes	-6839
▁स्क्रीन	-6840
rep	-6841
त्मिक	-6842
▁छिपा	-6843
▁कराने	-6844
▁पत्नी	-6845
▁Address	-6846
▁Pat	-6847
▁हानि	-6848
▁कितनी	-6849
▁माबूद	-6850
▁notice	-6851
ाले	-6852
oved	-6853
▁ऊंचा	-6854
▁प्ले	-6855
▁dream	-6856
▁contains	-6857
वर्तन	-6858
▁मूल्यांकन	-6859
परिक	-6860
uction	-6861
ुस	-6862
र्र	-6863
▁देकर	-6864
▁Start	-6865
▁Wind	-6866
▁workers	-6867
▁According	-6868
▁अनुमो	-6869
▁वायदा	-6870
▁संकल्प	-6871
ae	-6872
▁जून	-6873
▁पैर	-6874
▁serious	-6875
▁tradition	-6876
▁Resurrection	-6877
].	-6878
set	-6879
▁Ty	-6880
aksh	-6881
▁उड़	-6882
▁फसल	-6883
▁gold	-6884
▁काव्य	-6885
▁petition	-6886
▁yourselves	-6887
▁सदन	-6888
▁Create	-6889
लम	-6890
ipur	-6891
▁दयाल	-6892
▁presence	-6893
्वर	-6894
▁Any	-6895
▁हाँ	-6896
ching	-6897
▁जुड़े	-6898
ovember	-6899
▁Tag	-6900
▁pict	-6901
▁mentioned	-6902
▁Fund	-6903
▁बैंकों	-6904
▁Hy	-6905
▁Shah	-6906
RL	-6907
rown	-6908
▁पराम	-6909
▁देखभाल	-6910
▁thereof	-6911
वां	-6912
▁शीर्षक	-6913
▁particularly	-6914
▁wise	-6915
▁संबंधों	-6916
गण	-6917
EM	-6918
यल	-6919
▁CD	-6920
▁sight	-6921
मान्य	-6922
शक्ति	-6923
▁animals	-6924
▁argu	-6925
क्सी	-6926
▁Red	-6927
▁fra	-6928
▁मिन	-6929
▁imag	-6930
▁किसान	-6931
▁assistance	-6932
▁सुख	-6933
▁बुनियादी	-6934
पान	-6935
▁निरा	-6936
▁cross	-6937
▁चारों	-6938
▁बातचीत	-6939
▁हिस्से	-6940
rick	-6941
▁फ्ल	-6942
▁साधन	-6943
▁Legisl	-6944
▁legisl	-6945
cribe	-6946
▁कक्ष	-6947
▁वाणिज्य	-6948
▁कर्मचारी	-6949
▁अरब	-6950
▁घरों	-6951
▁विवे	-6952
▁स्तंभ	-6953
▁normal	-6954
करी	-6955
cutta	-6956
▁Tamil	-6957
▁शख़्श	-6958
चाई	-6959
lict	-6960
▁जायेगा	-6961
▁Supreme	-6962
लेज	-6963
▁max	-6964
वित्र	-6965
▁Officer	-6966
▁खुले	-6967
▁भरोसा	-6968
▁ऐतिहासिक	-6969
▁दोस्त	-6970
▁unless	-6971
▁correct	-6972
▁companies	-6973
पै	-6974
raham	-6975
▁code	-6976
▁गरीब	-6977
▁मुद्द	-6978
▁regarding	-6979
top	-6980
▁फिल्म	-6981
▁Message	-6982
▁prescribed	-6983
▁तेज	-6984
osing	-6985
▁parents	-6986
▁प्रारूप	-6987
▁numbers	-6988
▁IT	-6989
riage	-6990
IV	-6991
▁फा	-6992
▁Just	-6993
,"	-6994
ties	-6995
ateral	-6996
▁प्रोट	-6997
वीय	-6998
▁आउट	-6999
▁लम्	-7000
▁कौशल	-7001
▁मछ	-7002
▁Only	-7003
▁उपयोक्ता	-7004
right	-7005
▁Uttar	-7006
▁verses	-7007
▁collection	-7008
्याग	-7009
▁supply	-7010
▁मंच	-7011
▁लॉग	-7012
▁autom	-7013
▁software	-7014
CH	-7015
▁SA	-7016
▁तुर	-7017
▁HT	-7018
िक्स	-7019
▁concept	-7020
▁चिं	-7021
▁medical	-7022
▁increasing	-7023
यम	-7024
▁माँग	-7025
▁सवाल	-7026
▁Calcutta	-7027
▁लोकप्रिय	-7028
iter	-7029
▁स्थल	-7030
▁अनुसरण	-7031
▁हरगिज़	-7032
िप्प	-7033
itect	-7034
▁fully	-7035
asth	-7036
▁Which	-7037
▁select	-7038
▁painful	-7039
iers	-7040
▁format	-7041
▁प्रार्थना	-7042
▁agriculture	-7043
ुमा	-7044
▁Mal	-7045
▁मानक	-7046
▁बिक्री	-7047
▁scientific	-7048
▁लेन	-7049
▁कुशल	-7050
▁तौबा	-7051
▁बुराई	-7052
▁statement	-7053
aug	-7054
ियार	-7055
vious	-7056
▁dial	-7057
▁Folder	-7058
▁आध्या	-7059
▁बाह	-7060
▁Pakistan	-7061
▁moon	-7062
▁न्यूनतम	-7063
▁प्रेरित	-7064
▁विनिर्दिष्ट	-7065
▁पेज	-7066
▁Commissioner	-7067
▁types	-7068
फ्र	-7069
लेट	-7070
▁साब	-7071
▁निशानी	-7072
▁transport	-7073
ids	-7074
▁Sa	-7075
िकाना	-7076
▁क़सम	-7077
▁अद्यतन	-7078
▁article	-7079
धीश	-7080
▁धो	-7081
▁desp	-7082
▁भाषण	-7083
दुनिया	-7084
▁विशेषज्ञ	-7085
▁please	-7086
▁दिनांक	-7087
▁recommend	-7088
▁memory	-7089
▁ज़ुल्म	-7090
विल	-7091
omen	-7092
▁सुबह	-7093
fect	-7094
▁सकेगा	-7095
SL	-7096
▁prin	-7097
▁उम्र	-7098
▁किरा	-7099
▁medic	-7100
adi	-7101
rav	-7102
रेलू	-7103
▁poll	-7104
▁पुत्र	-7105
जू	-7106
▁आनंद	-7107
▁greet	-7108
▁पाकिस्तान	-7109
cer	-7110
▁includes	-7111
▁तट	-7112
▁Bang	-7113
▁sold	-7114
▁अक्ष	-7115
▁तेरे	-7116
▁मान्यता	-7117
▁प्रभुत्व	-7118
▁successful	-7119
▁पूजा	-7120
ानु	-7121
▁Adv	-7122
▁Yet	-7123
▁Mumbai	-7124
rid	-7125
▁Sah	-7126
क्रिय	-7127
िनी	-7128
cend	-7129
▁challeng	-7130
वित	-7131
standing	-7132
iet	-7133
▁green	-7134
▁villages	-7135
▁contribution	-7136
▁तला	-7137
ribute	-7138
क़यामत	-7139
▁मिश्र	-7140
▁माइ	-7141
ternet	-7142
▁पढ़ने	-7143
▁बढ़कर	-7144
▁मूर्	-7145
िश्तों	-7146
▁session	-7147
व्या	-7148
▁film	-7149
▁भलाई	-7150
▁इंजीन	-7151
▁सेवाएं	-7152
क्षिक	-7153
▁खाने	-7154
equ	-7155
▁January	-7156
miss	-7157
वर्ड	-7158
▁इतने	-7159
nal	-7160
जोर	-7161
▁समी	-7162
▁blind	-7163
▁expression	-7164
▁प्रोत्साहन	-7165
hent	-7166
▁विरा	-7167
▁Pharaoh	-7168
▁feet	-7169
▁Tw	-7170
Allah	-7171
▁जाएं	-7172
▁paper	-7173
▁शुद्ध	-7174
cast	-7175
▁supported	-7176
▁नेहर	-7177
▁बनाते	-7178
ाक	-7179
▁drug	-7180
▁moment	-7181
न्दगी	-7182
▁discip	-7183
▁असमर्थ	-7184
▁लगातार	-7185
adise	-7186
▁circum	-7187
▁Port	-7188
▁phot	-7189
▁final	-7190
▁महत्त्वपूर्ण	-7191
िस्ट	-7192
arily	-7193
मात्र	-7194
▁risk	-7195
▁बनने	-7196
ोम	-7197
पों	-7198
▁नाट	-7199
▁attempt	-7200
▁लोकतंत्र	-7201
▁मंड	-7202
खिम	-7203
dden	-7204
▁मुंबई	-7205
▁प्रचार	-7206
▁इकट	-7207
iverse	-7208
▁स्थिर	-7209
ishn	-7210
uman	-7211
▁immediately	-7212
ini	-7213
▁उसपर	-7214
▁ध्वनि	-7215
▁forces	-7216
▁संसाधनों	-7217
▁mountains	-7218
लील	-7219
oted	-7220
▁स्थानों	-7221
▁दीन	-7222
▁distin	-7223
avi	-7224
▁adop	-7225
▁cities	-7226
▁चेह	-7227
ugust	-7228
▁दूरी	-7229
▁अस्तित्व	-7230
्ठा	-7231
ighty	-7232
ंटी	-7233
▁सौंप	-7234
▁गुप्त	-7235
▁benefits	-7236
▁jo	-7237
▁broad	-7238
▁worth	-7239
▁खिलाफ	-7240
णों	-7241
▁फॉ	-7242
▁purch	-7243
▁police	-7244
ंघ	-7245
oor	-7246
▁relationship	-7247
▁Lok	-7248
▁middle	-7249
ौल	-7250
hru	-7251
▁Management	-7252
ओगे	-7253
चलित	-7254
▁शाह	-7255
▁डरते	-7256
ptember	-7257
has	-7258
izing	-7259
▁item	-7260
▁quick	-7261
▁attract	-7262
▁consist	-7263
▁perhaps	-7264
▁presented	-7265
osis	-7266
▁War	-7267
▁Explanation	-7268
icial	-7269
ईल	-7270
▁माप	-7271
▁gods	-7272
▁रद्द	-7273
▁spend	-7274
▁आंतरिक	-7275
▁जहा	-7276
▁वृक्ष	-7277
▁अन्तर्	-7278
▁निदेशक	-7279
▁उदार	-7280
▁विज्ञ	-7281
ply	-7282
▁सभ	-7283
▁Organ	-7284
▁विषयों	-7285
▁कहता	-7286
▁दिला	-7287
▁भागों	-7288
▁मुसलमानों	-7289
▁cooperation	-7290
OP	-7291
▁गीत	-7292
▁गैस	-7293
▁देवी	-7294
▁granted	-7295
ulpt	-7296
▁Bab	-7297
▁आग्रह	-7298
▁target	-7299
lied	-7300
▁इले	-7301
▁changed	-7302
यत	-7303
▁घरेलू	-7304
▁आध्यात्मिक	-7305
▁revelations	-7306
▁ago	-7307
▁measures	-7308
▁गृह	-7309
iling	-7310
▁Copy	-7311
ellect	-7312
▁serve	-7313
▁severe	-7314
▁लाया	-7315
▁hours	-7316
▁कटौती	-7317
संख्या	-7318
▁looking	-7319
▁उद्घाटन	-7320
ays	-7321
urt	-7322
▁आक	-7323
▁साइ	-7324
आन	-7325
▁एकत्र	-7326
▁प्रायः	-7327
▁covered	-7328
▁laid	-7329
▁attention	-7330
▁परहे	-7331
▁संवर्	-7332
▁ठिकाना	-7333
▁hus	-7334
▁obl	-7335
▁calendar	-7336
▁AND	-7337
▁largest	-7338
▁beautiful	-7339
▁लक	-7340
▁दूध	-7341
▁नजर	-7342
▁बाँ	-7343
verse	-7344
▁अभिप्रे	-7345
▁inside	-7346
▁respond	-7347
▁repe	-7348
▁अर्थात्	-7349
▁Wise	-7350
▁शुक्र	-7351
▁ऑनलाइन	-7352
▁सुल	-7353
▁परामर्श	-7354
▁प्रयोजन	-7355
▁प्रतिक्रिया	-7356
▁dy	-7357
▁कोल	-7358
▁अमरी	-7359
▁डाउन	-7360
▁वादा	-7361
▁strateg	-7362
▁रौ	-7363
▁तभी	-7364
▁बेच	-7365
▁Truth	-7366
कें	-7367
रार	-7368
icit	-7369
▁तरीका	-7370
▁समन्व	-7371
▁anyone	-7372
unk	-7373
▁script	-7374
▁नागरिकों	-7375
In	-7376
ँति	-7377
▁inj	-7378
▁concerning	-7379
mp	-7380
▁बीज	-7381
▁Import	-7382
▁परहेज़	-7383
▁separate	-7384
यू	-7385
▁Ker	-7386
▁बोझ	-7387
▁संगठ	-7388
▁speed	-7389
▁पुस्तिका	-7390
atha	-7391
म्मद	-7392
▁छूट	-7393
pense	-7394
विज्ञान	-7395
illing	-7396
amental	-7397
▁२००	-7398
board	-7399
▁milk	-7400
▁गुजरात	-7401
जात	-7402
▁sex	-7403
▁आठ	-7404
▁north	-7405
iment	-7406
order	-7407
▁denied	-7408
▁ज्ञापन	-7409
▁appropri	-7410
▁ख़ास	-7411
▁opened	-7412
▁भाषाओं	-7413
▁सामर्थ	-7414
▁San	-7415
▁houses	-7416
रणा	-7417
▁PM	-7418
माने	-7419
▁Form	-7420
▁Last	-7421
▁card	-7422
▁qual	-7423
▁ढूंढ	-7424
▁नष्ट	-7425
▁गल	-7426
▁limited	-7427
दु	-7428
▁तीव्र	-7429
▁जाएंगे	-7430
▁advance	-7431
▁रास्ता	-7432
▁highest	-7433
▁directly	-7434
▁Sik	-7435
▁Inst	-7436
▁निपट	-7437
▁standard	-7438
कालिक	-7439
▁कठिना	-7440
▁हद	-7441
▁dram	-7442
▁foot	-7443
▁sufficient	-7444
▁tool	-7445
▁शुरुआत	-7446
▁officers	-7447
धित	-7448
▁Its	-7449
▁बरसा	-7450
▁performance	-7451
OS	-7452
लोग	-7453
▁Text	-7454
▁team	-7455
▁range	-7456
▁आपूर्ति	-7457
▁एका	-7458
ड़ियों	-7459
▁Tax	-7460
▁bow	-7461
▁eye	-7462
▁शोध	-7463
aches	-7464
▁मानो	-7465
▁length	-7466
ुत्	-7467
▁युक्त	-7468
िकल	-7469
महिम	-7470
▁फ़ॉ	-7471
▁Bharat	-7472
▁मूर्ति	-7473
▁विनियम	-7474
▁संचालन	-7475
▁आख	-7476
▁sides	-7477
▁announ	-7478
▁mechan	-7479
ालत	-7480
apan	-7481
▁कुफ्	-7482
▁steps	-7483
▁implementation	-7484
वली	-7485
▁जोखिम	-7486
▁former	-7487
▁arrange	-7488
▁Provided	-7489
मानी	-7490
▁विश्लेषण	-7491
दीय	-7492
▁थोड़ा	-7493
▁travel	-7494
िक्र	-7495
▁पर्व	-7496
▁बदलाव	-7497
▁weight	-7498
▁Vis	-7499
▁Time	-7500
▁occup	-7501
▁पवित्र	-7502
क्षीय	-7503
▁दृढ़	-7504
▁लंबा	-7505
▁ज़रुर	-7506
▁मीटर	-7507
▁स्वतः	-7508
▁स्मृति	-7509
inite	-7510
▁items	-7511
oo	-7512
नल	-7513
▁तमिल	-7514
▁सीधा	-7515
▁वाद्य	-7516
▁centre	-7517
▁connected	-7518
▁लाइ	-7519
तल	-7520
▁Char	-7521
लीफ	-7522
requ	-7523
सायन	-7524
▁academ	-7525
▁भागीदारी	-7526
▁Krishna	-7527
hra	-7528
▁औष	-7529
▁जल्द	-7530
▁साम्राज्य	-7531
sp	-7532
aya	-7533
yan	-7534
▁गुमराही	-7535
▁संबोधित	-7536
▁द्वीप	-7537
icip	-7538
▁pan	-7539
▁देखकर	-7540
▁species	-7541
▁आयतें	-7542
▁height	-7543
▁contain	-7544
▁administration	-7545
▁rail	-7546
PS	-7547
pty	-7548
ैसे	-7549
▁Well	-7550
▁joint	-7551
▁straight	-7552
▁()	-7553
▁मां	-7554
apter	-7555
▁उतार	-7556
▁तुझे	-7557
▁पूछा	-7558
▁Inter	-7559
शनल	-7560
▁Bas	-7561
▁Gujarat	-7562
शे	-7563
ॉक	-7564
▁Dh	-7565
:-	-7566
▁laws	-7567
▁chann	-7568
वंश	-7569
▁काग	-7570
inent	-7571
▁conce	-7572
▁December	-7573
▁अगस्त	-7574
▁Image	-7575
▁Agricult	-7576
▁अज	-7577
▁config	-7578
▁रास्ते	-7579
ilateral	-7580
भाग्य	-7581
ography	-7582
▁अभिप्रेत	-7583
▁परिस्थितियों	-7584
▁apost	-7585
▁minus	-7586
▁export	-7587
▁दस्तावेज़	-7588
▁cam	-7589
▁twenty	-7590
che	-7591
▁प्रि	-7592
▁ख़र्च	-7593
▁विन्यास	-7594
▁सर्वोच्च	-7595
ॉकि	-7596
▁बोले	-7597
▁विजय	-7598
▁राज्यपाल	-7599
▁कलक	-7600
▁समस्त	-7601
▁उपयोगी	-7602
▁Indians	-7603
▁गठन	-7604
▁protection	-7605
▁calc	-7606
▁south	-7607
▁labour	-7608
▁stream	-7609
▁URL	-7610
▁Unable	-7611
▁sudden	-7612
▁महामहिम	-7613
▁block	-7614
▁कॉन्	-7615
▁सहकारी	-7616
pper	-7617
▁Ann	-7618
▁कोवि	-7619
▁प्रका	-7620
▁release	-7621
istration	-7622
▁minister	-7623
▁convey	-7624
▁उत्पादों	-7625
utes	-7626
▁दुआ	-7627
▁nations	-7628
र्या	-7629
ously	-7630
▁shows	-7631
▁longer	-7632
▁expenditure	-7633
ev	-7634
▁II	-7635
▁रुपए	-7636
▁अनुरोध	-7637
▁नक़	-7638
rene	-7639
▁नेहरू	-7640
▁हिंदी	-7641
▁Langu	-7642
▁बुद्ध	-7643
▁अज्ञात	-7644
oga	-7645
hens	-7646
▁complex	-7647
▁Home	-7648
▁Pass	-7649
▁शत्र	-7650
▁advice	-7651
▁Children	-7652
OL	-7653
▁लिखी	-7654
▁मीडिया	-7655
▁मुक़ाब	-7656
▁एकल	-7657
▁सदा	-7658
▁polic	-7659
▁टिप्प	-7660
▁किनारे	-7661
AM	-7662
▁अका	-7663
▁Back	-7664
▁prot	-7665
▁forgive	-7666
And	-7667
▁कानूनी	-7668
▁opinion	-7669
▁forgiveness	-7670
UT	-7671
ालिब	-7672
mical	-7673
▁संवाद	-7674
▁fruit	-7675
▁Assist	-7676
▁apprec	-7677
▁stories	-7678
डु	-7679
गोल	-7680
▁पशु	-7681
▁somet	-7682
▁समृद्ध	-7683
▁Aud	-7684
▁chastisement	-7685
▁कृष्ण	-7686
▁sacr	-7687
▁मैदान	-7688
▁कूटशब्द	-7689
hab	-7690
omin	-7691
द्री	-7692
▁Post	-7693
▁विधे	-7694
▁Policy	-7695
▁completed	-7696
▁wood	-7697
▁फ़ैसला	-7698
▁Pra	-7699
रीक्षण	-7700
▁corru	-7701
▁करीब	-7702
ferences	-7703
▁struggle	-7704
देन	-7705
▁मई	-7706
▁निर्वाचन	-7707
phas	-7708
▁Bomb	-7709
▁यून	-7710
▁करार	-7711
ashtra	-7712
्राफ	-7713
▁हिम	-7714
▁chief	-7715
ula	-7716
▁लाइन	-7717
▁Google	-7718
▁काफ़िर	-7719
▁दयावान	-7720
ratic	-7721
▁बन्दगी	-7722
▁मेन	-7723
▁संगण	-7724
▁प्राथमिकता	-7725
prh	-7726
under	-7727
▁execut	-7728
xy	-7729
▁played	-7730
▁pattern	-7731
▁profess	-7732
▁दयालुता	-7733
▁standing	-7734
कालय	-7735
▁पोर्ट	-7736
▁फैसला	-7737
▁someone	-7738
▁intellect	-7739
oon	-7740
ीनी	-7741
athy	-7742
▁इंग	-7743
▁useful	-7744
▁दूसरों	-7745
▁construction	-7746
▁sons	-7747
▁frame	-7748
▁नृत्य	-7749
▁प्रदू	-7750
▁नोड	-7751
स्तियों	-7752
▁Remove	-7753
▁मेहरबान	-7754
▁documents	-7755
▁ST	-7756
शासन	-7757
▁saved	-7758
▁बीमारी	-7759
▁अधिकारों	-7760
िव	-7761
▁funds	-7762
▁hour	-7763
▁तथ्य	-7764
▁लोगो	-7765
▁drive	-7766
▁watch	-7767
▁मामला	-7768
▁operations	-7769
▁पंजाब	-7770
▁balance	-7771
▁सरदार	-7772
▁Contact	-7773
ंदी	-7774
▁कर्त	-7775
▁mental	-7776
▁अनुरूप	-7777
▁न्यायाधीश	-7778
ifying	-7779
lication	-7780
▁located	-7781
▁टा	-7782
्रांस	-7783
▁ready	-7784
▁दीर्घ	-7785
▁leading	-7786
म्स	-7787
▁hyp	-7788
arer	-7789
▁ton	-7790
▁दवा	-7791
▁hosp	-7792
▁male	-7793
icated	-7794
▁आयुक्त	-7795
थे	-7796
athe	-7797
ड़ने	-7798
▁Nehru	-7799
▁amend	-7800
▁table	-7801
▁schemes	-7802
▁Ur	-7803
▁cry	-7804
▁Delete	-7805
▁तमाम	-7806
▁बेटे	-7807
▁contro	-7808
▁educational	-7809
add	-7810
द्या	-7811
ैर्य	-7812
It	-7813
My	-7814
▁सामर्थ्य	-7815
▁देखता	-7816
▁प्रतिभा	-7817
▁relevant	-7818
▁employees	-7819
urg	-7820
द्धा	-7821
▁जाओगे	-7822
▁functions	-7823
pted	-7824
तुम्ह	-7825
▁unique	-7826
▁democracy	-7827
▁प्रतिनिधित्व	-7828
Com	-7829
घात	-7830
▁Messengers	-7831
▁Gr	-7832
▁rupe	-7833
▁चक्र	-7834
▁appeal	-7835
▁Finance	-7836
▁प्रकाशन	-7837
▁significant	-7838
▁जमीन	-7839
▁दरवा	-7840
▁stock	-7841
ET	-7842
▁जटिल	-7843
▁करवा	-7844
ateful	-7845
asc	-7846
box	-7847
▁esc	-7848
▁Power	-7849
▁sins	-7850
▁आश्च	-7851
▁asset	-7852
▁doers	-7853
▁taste	-7854
▁resident	-7855
शेष	-7856
▁offe	-7857
▁ख्याल	-7858
ken	-7859
▁हल्	-7860
▁commercial	-7861
fall	-7862
▁जंग	-7863
▁बजाय	-7864
▁अंतरण	-7865
▁Excell	-7866
▁belief	-7867
▁named	-7868
▁नैतिक	-7869
▁पॉ	-7870
▁situ	-7871
▁stre	-7872
▁एकता	-7873
▁Science	-7874
▁छह	-7875
▁तार	-7876
▁Hist	-7877
▁pred	-7878
▁extent	-7879
शाह	-7880
▁game	-7881
▁चेतना	-7882
▁प्रशंसा	-7883
ंजन	-7884
▁Inc	-7885
▁आर्	-7886
▁facilit	-7887
▁husband	-7888
▁storage	-7889
▁pure	-7890
▁site	-7891
▁चीन	-7892
▁दर्ज	-7893
▁लड़के	-7894
▁वर्षा	-7895
stituted	-7896
मेन	-7897
▁संकट	-7898
▁पूर्वा	-7899
कारात्मक	-7900
▁Forgiving	-7901
lex	-7902
भेद	-7903
▁ताप	-7904
▁focus	-7905
▁entered	-7906
▁कारबार	-7907
▁vac	-7908
फारिश	-7909
▁results	-7910
▁promised	-7911
गढ़	-7912
▁एंड	-7913
▁Edit	-7914
▁आनन्द	-7915
रस	-7916
▁सै	-7917
enced	-7918
भाषित	-7919
▁पंजीकरण	-7920
▁growing	-7921
▁उतर	-7922
▁dwell	-7923
▁imper	-7924
▁Bombay	-7925
▁Abraham	-7926
▁October	-7927
MS	-7928
ora	-7929
▁temples	-7930
▁कार्यान्वयन	-7931
िड	-7932
▁Ah	-7933
▁ब्ल	-7934
▁util	-7935
▁उद्योगों	-7936
▁accordance	-7937
ष्‍	-7938
▁Sol	-7939
▁सर्वाधिक	-7940
▁Head	-7941
▁अस्थ	-7942
▁assets	-7943
▁domestic	-7944
▁हालॉकि	-7945
atically	-7946
▁आतंकवाद	-7947
▁Assembly	-7948
आप	-7949
ighb	-7950
▁सॉफ्ट	-7951
onse	-7952
roud	-7953
वाना	-7954
odies	-7955
▁Thou	-7956
▁ग़रज़	-7957
कर्ताओं	-7958
▁sculpt	-7959
▁उपभोक्ता	-7960
▁revolution	-7961
अर	-7962
▁June	-7963
▁किलो	-7964
▁जाकर	-7965
▁अस्था	-7966
▁आसानी	-7967
स्त्र	-7968
▁मज़ा	-7969
pir	-7970
alty	-7971
from	-7972
▁आदम	-7973
▁heavy	-7974
▁आवाज़	-7975
▁राजनैतिक	-7976
▁cou	-7977
erous	-7978
▁Office	-7979
ूसु	-7980
▁सुभाष	-7981
▁इलेक्ट्र	-7982
▁architect	-7983
▁hot	-7984
▁First	-7985
▁घोषित	-7986
▁perman	-7987
▁पूर्वी	-7988
▁शारी	-7989
▁साबित	-7990
▁technical	-7991
▁कब	-7992
▁परम	-7993
▁बाग	-7994
▁cells	-7995
▁milit	-7996
▁अक्षम	-7997
▁included	-7998
tered	-7999
▁स्वर	-8000
ensive	-8001
▁आज्ञा	-8002
▁यक़ीनी	-8003
▁गौर	-8004
▁Pand	-8005
▁join	-8006
▁चलने	-8007
ktop	-8008
▁Bill	-8009
▁proof	-8010
▁करेगी	-8011
▁Enable	-8012
▁सिफारिश	-8013
ao	-8014
▁Nath	-8015
▁trees	-8016
▁mighty	-8017
▁तल	-8018
umber	-8019
▁अर्थात	-8020
adh	-8021
ब्ल	-8022
▁Ob	-8023
▁Sal	-8024
▁रजि	-8025
lands	-8026
rance	-8027
▁valid	-8028
▁जय	-8029
▁Nep	-8030
▁आवास	-8031
aran	-8032
त्तम	-8033
▁क़ि	-8034
▁More	-8035
▁Path	-8036
▁मुद्र	-8037
▁repent	-8038
▁डाय	-8039
▁उठाने	-8040
▁पारित	-8041
▁लेंगे	-8042
▁symbol	-8043
▁आश्चर्य	-8044
वायु	-8045
▁Bus	-8046
▁rise	-8047
▁जागर	-8048
▁सृजन	-8049
▁सरकारों	-8050
▁स्त्रियों	-8051
कीम	-8052
▁faces	-8053
▁त्याग	-8054
▁अदा	-8055
▁पाई	-8056
▁कितना	-8057
▁धैर्य	-8058
लीय	-8059
▁pursu	-8060
pro	-8061
▁stated	-8062
▁ग़ालिब	-8063
▁recent	-8064
▁चुने	-8065
▁हैंः	-8066
▁सुविधाओं	-8067
▁नज़र	-8068
▁निगर	-8069
▁प्रिय	-8070
▁temper	-8071
▁सजा	-8072
▁fields	-8073
▁पाठ्यक्रम	-8074
ंडी	-8075
arma	-8076
न्दी	-8077
▁नूह	-8078
obile	-8079
प्रति	-8080
▁relation	-8081
He	-8082
uled	-8083
▁फ़िर	-8084
▁images	-8085
▁secure	-8086
▁अत	-8087
▁तस	-8088
▁शहरी	-8089
▁सर्वेक्षण	-8090
▁transgress	-8091
▁UN	-8092
ष्टा	-8093
▁cra	-8094
▁mid	-8095
▁वहीं	-8096
▁प्रेरणा	-8097
िटी	-8098
aters	-8099
▁सशक्त	-8100
▁adopted	-8101
leg	-8102
यदि	-8103
▁आंख	-8104
▁मुना	-8105
▁praise	-8106
ops	-8107
क़ी	-8108
ruary	-8109
▁knowing	-8110
▁reading	-8111
▁डाउनलोड	-8112
▁circumst	-8113
पथ	-8114
परी	-8115
▁Over	-8116
▁promote	-8117
फ़ा	-8118
cause	-8119
▁track	-8120
▁exists	-8121
▁involved	-8122
▁प्रतीक्षा	-8123
श्रम	-8124
ॉर्ड	-8125
▁दाह	-8126
▁नहर	-8127
▁मिनट	-8128
▁सिक्	-8129
▁उठाए	-8130
▁wills	-8131
▁लड़ाई	-8132
▁जनसंख्या	-8133
You	-8134
ipt	-8135
▁लु	-8136
ुस्तान	-8137
▁शास्त	-8138
pid	-8139
ebruary	-8140
▁hearing	-8141
▁Description	-8142
▁श्रम	-8143
▁जितना	-8144
iled	-8145
▁भेद	-8146
▁उत्सा	-8147
▁emphas	-8148
▁gardens	-8149
▁processing	-8150
▁परिणामस्वरूप	-8151
▁मुद्दों	-8152
▁appropriate	-8153
▁आओ	-8154
सायिक	-8155
▁मुश्	-8156
▁Check	-8157
▁November	-8158
▁स्ना	-8159
▁committed	-8160
▁resol	-8161
▁निहित	-8162
▁helped	-8163
▁खुली	-8164
▁Stand	-8165
▁events	-8166
▁figure	-8167
थी	-8168
▁Law	-8169
▁entry	-8170
▁निकाय	-8171
▁पृथ्वी	-8172
▁सराह	-8173
▁depart	-8174
▁Gandhiji	-8175
जु	-8176
▁input	-8177
▁square	-8178
mer	-8179
क्यों	-8180
▁घंटे	-8181
▁प्रत	-8182
▁गुज़र	-8183
▁Exchange	-8184
▁upd	-8185
▁किस्म	-8186
▁ग्रंथ	-8187
▁रेलवे	-8188
▁ईमानदारों	-8189
rehens	-8190
▁enemy	-8191
▁column	-8192
▁संगठनों	-8193
▁विद्यमान	-8194
▁questions	-8195
ps	-8196
aja	-8197
दास	-8198
▁जैव	-8199
▁पलट	-8200
▁staff	-8201
▁प्रोत्साहित	-8202
fection	-8203
स्तिष्क	-8204
▁neighb	-8205
▁developing	-8206
शीलता	-8207
▁apart	-8208
▁model	-8209
▁तकनीक	-8210
▁छात्रों	-8211
▁pleasure	-8212
ऊँ	-8213
ंगिक	-8214
▁दशक	-8215
▁thinking	-8216
▁श्रृंखला	-8217
▁box	-8218
▁powerful	-8219
▁Secretary	-8220
AG	-8221
रीत	-8222
वियों	-8223
▁seed	-8224
▁lines	-8225
▁बिहार	-8226
itch	-8227
▁वचन	-8228
▁अहम	-8229
▁नमू	-8230
▁magn	-8231
▁खुला	-8232
▁परेश	-8233
▁प्रतीत	-8234
▁शारीरिक	-8235
grat	-8236
▁छाप	-8237
▁मैने	-8238
▁परिवहन	-8239
रू	-8240
▁केरल	-8241
▁शैक्षिक	-8242
न्ड	-8243
▁मौत	-8244
oj	-8245
ESS	-8246
aker	-8247
्यवाद	-8248
▁grace	-8249
▁अध्याय	-8250
▁समीक्षा	-8251
प्ति	-8252
▁नक़ल	-8253
▁होंगी	-8254
▁चुनौती	-8255
▁standards	-8256
ests	-8257
▁सहज	-8258
▁pric	-8259
▁external	-8260
▁rock	-8261
▁कहाँ	-8262
▁सड़क	-8263
iences	-8264
▁leaves	-8265
▁refers	-8266
▁review	-8267
▁threat	-8268
ेंज	-8269
▁AT	-8270
What	-8271
ैनिक	-8272
▁China	-8273
▁Kerala	-8274
▁attach	-8275
▁amongst	-8276
▁expressed	-8277
urk	-8278
▁graph	-8279
▁काफिर	-8280
▁तस्वी	-8281
▁Her	-8282
▁Bihar	-8283
▁dance	-8284
▁कलकत्ता	-8285
▁निगरानी	-8286
▁जनजा	-8287
▁मुझसे	-8288
▁सिवाय	-8289
न्द्रनाथ	-8290
बीर	-8291
▁egg	-8292
▁dece	-8293
▁कनेक्शन	-8294
uff	-8295
▁web	-8296
▁फें	-8297
ंपरिक	-8298
▁लिंक	-8299
▁territ	-8300
▁divided	-8301
ंदन	-8302
▁Fil	-8303
▁जिले	-8304
कभी	-8305
cher	-8306
▁औसत	-8307
▁consult	-8308
▁permission	-8309
दरत	-8310
क़्त	-8311
▁Att	-8312
▁tid	-8313
▁वैध	-8314
▁घड़ी	-8315
▁fruits	-8316
▁महाराष्ट्र	-8317
AC	-8318
भाँति	-8319
▁extreme	-8320
▁location	-8321
▁September	-8322
ti	-8323
▁देर	-8324
▁सें	-8325
icate	-8326
▁earn	-8327
▁एड	-8328
▁suc	-8329
गारों	-8330
▁लौटा	-8331
पालिका	-8332
▁veget	-8333
समय	-8334
▁Roy	-8335
▁ख़ूब	-8336
atma	-8337
rate	-8338
▁कहान	-8339
▁shape	-8340
▁काफ़ी	-8341
▁journey	-8342
▁violence	-8343
ंदु	-8344
▁Car	-8345
▁Nay	-8346
▁prec	-8347
▁लिखित	-8348
▁expand	-8349
▁अश	-8350
दत्त	-8351
संस्	-8352
▁leader	-8353
▁आश	-8354
osen	-8355
▁Web	-8356
▁wel	-8357
reprene	-8358
▁विपरीत	-8359
▁families	-8360
केट	-8361
▁पाते	-8362
▁भेजें	-8363
▁उधार	-8364
▁पूज्य	-8365
▁compon	-8366
▁policies	-8367
▁registered	-8368
inet	-8369
▁कीट	-8370
लोगों	-8371
ुरी	-8372
resp	-8373
▁नयी	-8374
▁अकबर	-8375
▁आबाद	-8376
▁”-	-8377
▁exceed	-8378
▁समझौता	-8379
▁variety	-8380
▁influence	-8381
अमत	-8382
फ़र	-8383
▁नवीन	-8384
▁Nar	-8385
▁fish	-8386
▁lived	-8387
▁समग्र	-8388
चारिक	-8389
▁शिखर	-8390
▁उच्चतम	-8391
aji	-8392
▁animal	-8393
▁Conference	-8394
र्ड	-8395
▁इरा	-8396
▁grad	-8397
.—	-8398
itled	-8399
▁August	-8400
▁wo	-8401
▁miss	-8402
▁पड़ी	-8403
▁extended	-8404
कीन	-8405
▁जरिए	-8406
▁won	-8407
▁नेक	-8408
▁seems	-8409
▁needed	-8410
▁ज़िम्मे	-8411
▁otherwise	-8412
▁बटन	-8413
aging	-8414
▁thir	-8415
▁हार्	-8416
If	-8417
▁inaug	-8418
▁media	-8419
▁समर्पित	-8420
िप्त	-8421
▁सब्	-8422
lying	-8423
▁sectors	-8424
तीत	-8425
▁हथ	-8426
asthan	-8427
▁extra	-8428
▁तथापि	-8429
shipp	-8430
▁corpor	-8431
nes	-8432
▁फिरऔन	-8433
▁बदलने	-8434
लाद	-8435
िक़	-8436
▁स्मार	-8437
▁gather	-8438
▁consequ	-8439
▁sometimes	-8440
▁incl	-8441
▁उठाया	-8442
▁choose	-8443
▁profit	-8444
▁मुश्किल	-8445
▁Inf	-8446
▁वैसे	-8447
▁सुदृ	-8448
enge	-8449
▁आना	-8450
▁skin	-8451
▁पेंशन	-8452
▁causes	-8453
ुक्ति	-8454
▁अगला	-8455
▁बीमार	-8456
▁divine	-8457
ented	-8458
assion	-8459
▁consideration	-8460
▁घटा	-8461
▁cloud	-8462
▁fathers	-8463
▁पृष्ठभूमि	-8464
▁Buddh	-8465
▁remark	-8466
ications	-8467
▁Western	-8468
▁engaged	-8469
▁इंटरनेट	-8470
वण	-8471
▁क़ा	-8472
anges	-8473
▁Satan	-8474
फ़्र	-8475
▁touch	-8476
▁महात्मा	-8477
lick	-8478
चानक	-8479
शुदा	-8480
▁गवाही	-8481
▁medium	-8482
▁Di	-8483
▁Ret	-8484
usive	-8485
▁quar	-8486
sec	-8487
▁dated	-8488
ंटर	-8489
rust	-8490
▁root	-8491
▁sort	-8492
ression	-8493
▁prostr	-8494
▁remained	-8495
lies	-8496
▁उत्तरा	-8497
▁additional	-8498
इश	-8499
ढ़ा	-8500
▁टैग	-8501
▁शिकार	-8502
▁प्रारंभिक	-8503
▁गणना	-8504
▁magic	-8505
▁declared	-8506
▁worshipp	-8507
▁reference	-8508
ili	-8509
lly	-8510
▁School	-8511
▁फ़ॉन्ट	-8512
▁saf	-8513
▁नाथ	-8514
▁master	-8515
▁Maharashtra	-8516
पण	-8517
कां	-8518
▁चालू	-8519
▁proud	-8520
▁अन्दर	-8521
▁response	-8522
▁Guru	-8523
▁हवाई	-8524
▁output	-8525
idy	-8526
▁पति	-8527
▁Also	-8528
▁levels	-8529
▁elements	-8530
▁Det	-8531
▁Ear	-8532
▁रीति	-8533
▁Script	-8534
▁Bhag	-8535
▁सचिव	-8536
▁average	-8537
▁श्रेष्ठ	-8538
▁Corporation	-8539
ोबार	-8540
्यूट	-8541
चालित	-8542
▁शहरों	-8543
▁पूर्ववर्ष	-8544
दंड	-8545
▁pil	-8546
▁टीम	-8547
inery	-8548
▁साथी	-8549
▁Japan	-8550
▁voice	-8551
▁सूत्र	-8552
▁surface	-8553
▁प्रयत्न	-8554
▁partnership	-8555
▁enable	-8556
▁अधिसूचना	-8557
एच	-8558
▁mouth	-8559
▁print	-8560
▁store	-8561
▁मूल्यों	-8562
▁teachers	-8563
ray	-8564
▁Som	-8565
▁तिर	-8566
▁quant	-8567
▁आसपास	-8568
▁युक्ति	-8569
▁Paradise	-8570
.%	-8571
▁gar	-8572
मार्ग	-8573
▁पेड़	-8574
▁Elect	-8575
▁Sum	-8576
▁officer	-8577
▁पारंपरिक	-8578
▁विश्वविद्यालयों	-8579
▁नुक	-8580
क्रिप	-8581
▁excl	-8582
▁series	-8583
▁पहुँचे	-8584
▁evening	-8585
▁मुलाकात	-8586
▁rejected	-8587
▁interests	-8588
UN	-8589
▁सचे	-8590
asons	-8591
▁trying	-8592
▁समाप्ति	-8593
▁निष्क्रिय	-8594
जिस	-8595
मेट	-8596
utions	-8597
▁चुनौ	-8598
▁लंबे	-8599
▁online	-8600
▁उपक्रम	-8601
मोह	-8602
ष्ठा	-8603
▁अचानक	-8604
▁American	-8605
▁circumstances	-8606
DE	-8607
VD	-8608
▁Pan	-8609
▁nuc	-8610
oming	-8611
▁seem	-8612
▁सिखा	-8613
▁poems	-8614
abh	-8615
aur	-8616
▁cop	-8617
▁गुफा	-8618
▁crops	-8619
▁समर्थित	-8620
ius	-8621
uel	-8622
cript	-8623
▁cash	-8624
▁तूने	-8625
▁चीज़ों	-8626
▁portion	-8627
icked	-8628
▁machine	-8629
▁परिवर्तित	-8630
▁distribution	-8631
▁IP	-8632
▁joy	-8633
▁Inte	-8634
▁Mission	-8635
▁योजनाओं	-8636
▁objective	-8637
।-	-8638
unal	-8639
▁उपा	-8640
▁truly	-8641
▁friendly	-8642
▁बग	-8643
olute	-8644
▁Soci	-8645
▁cultiv	-8646
▁इन्कार	-8647
▁element	-8648
▁सॉफ्टवेयर	-8649
ocal	-8650
▁फोन	-8651
▁Hindus	-8652
▁looked	-8653
▁worked	-8654
▁बिलकुल	-8655
▁शिश	-8656
क्ष्य	-8657
▁मिलेगा	-8658
▁constitution	-8659
iry	-8660
rain	-8661
त्कार	-8662
▁Stat	-8663
▁रहमत	-8664
▁applications	-8665
▁साफ़	-8666
▁abroad	-8667
▁advant	-8668
ठे	-8669
▁आकर	-8670
▁capt	-8671
▁independence	-8672
इल	-8673
▁ignor	-8674
▁plain	-8675
▁messengers	-8676
▁consciousness	-8677
पार	-8678
▁इनका	-8679
▁डाले	-8680
▁raise	-8681
▁shares	-8682
▁Chairman	-8683
▁Madh	-8684
▁launched	-8685
ahar	-8686
▁Pres	-8687
▁lack	-8688
जल	-8689
▁जिनसे	-8690
actions	-8691
▁भंडारण	-8692
▁remains	-8693
▁km	-8694
▁सफ	-8695
race	-8696
▁गोल	-8697
▁सिल	-8698
▁होम	-8699
eting	-8700
▁इसको	-8701
▁मांस	-8702
▁जुलाई	-8703
▁विशेषकर	-8704
वधि	-8705
itis	-8706
▁ऑफ़	-8707
uries	-8708
▁withd	-8709
▁Services	-8710
ॉट	-8711
▁सजदा	-8712
▁मुक़ाबले	-8713
isc	-8714
▁आरोप	-8715
▁साझा	-8716
▁waste	-8717
शास्त्र	-8718
▁नेताओं	-8719
▁opening	-8720
▁आकर्षित	-8721
भ्र	-8722
्लो	-8723
मतौर	-8724
▁आलो	-8725
▁जिनको	-8726
▁जलवायु	-8727
च्छे	-8728
▁आस्ति	-8729
▁सेटिंग	-8730
like	-8731
▁fit	-8732
▁characters	-8733
amet	-8734
eties	-8735
▁expected	-8736
▁हराम	-8737
▁Change	-8738
प्रदाय	-8739
▁annual	-8740
▁likely	-8741
व्यव	-8742
▁नाग	-8743
▁मोमिन	-8744
▁अनुदान	-8745
▁distance	-8746
uous	-8747
कारा	-8748
▁Unto	-8749
▁खींच	-8750
ज़त	-8751
स्तु	-8752
▁आराम	-8753
▁Tagore	-8754
▁आमंत्र	-8755
▁झा	-8756
ियामत	-8757
▁कदापि	-8758
▁सुझाव	-8759
▁जेल	-8760
▁hell	-8761
▁हमसे	-8762
▁bount	-8763
atal	-8764
म्मत	-8765
▁Free	-8766
▁prem	-8767
▁Display	-8768
▁succeed	-8769
दित	-8770
▁निच	-8771
▁फोट	-8772
▁pill	-8773
▁Chandra	-8774
▁प्राधिकरण	-8775
▁Gh	-8776
▁af	-8777
▁ईमेल	-8778
▁Great	-8779
▁chosen	-8780
जब	-8781
▁academic	-8782
pped	-8783
▁Emp	-8784
प्राप्त	-8785
▁described	-8786
मण	-8787
▁Av	-8788
▁unf	-8789
द्वीप	-8790
▁remem	-8791
▁दाखिल	-8792
▁button	-8793
▁चन्द्र	-8794
▁विभाजन	-8795
”.	-8796
▁Ke	-8797
▁Network	-8798
llig	-8799
▁खान	-8800
▁समावेश	-8801
apt	-8802
▁SAW	-8803
▁rare	-8804
istics	-8805
▁अनुपात	-8806
▁introduced	-8807
ndra	-8808
विधि	-8809
▁Kum	-8810
▁चिंता	-8811
▁larger	-8812
▁ban	-8813
▁समित	-8814
erative	-8815
▁ग्राहक	-8816
▁tidings	-8817
▁literary	-8818
▁observed	-8819
onal	-8820
▁विधेयक	-8821
▁congrat	-8822
▁अभिव्यक्ति	-8823
लाभ	-8824
▁SH	-8825
▁औप	-8826
▁लै	-8827
iance	-8828
▁ख़ुद	-8829
▁लाते	-8830
▁Islamic	-8831
▁construct	-8832
ARD	-8833
धों	-8834
▁earned	-8835
▁remote	-8836
▁पुरानी	-8837
▁Division	-8838
▁राजस्थान	-8839
▁प्रशासनिक	-8840
मती	-8841
atab	-8842
▁चलाने	-8843
ॉँ	-8844
तावनी	-8845
▁songs	-8846
बाइल	-8847
ception	-8848
ague	-8849
ller	-8850
overy	-8851
▁इनकी	-8852
▁stead	-8853
▁पहाड़	-8854
▁जोड़ने	-8855
▁clearly	-8856
▁reflect	-8857
▁difference	-8858
णन	-8859
सूर	-8860
▁Mag	-8861
▁औऱ	-8862
ousing	-8863
ग्रस्त	-8864
▁removed	-8865
ायी	-8866
▁शान	-8867
ंत्रिक	-8868
▁trial	-8869
▁philosophy	-8870
▁independent	-8871
▁electric	-8872
ंठ	-8873
era	-8874
nel	-8875
▁Nav	-8876
▁sup	-8877
▁Karn	-8878
▁screen	-8879
गामी	-8880
▁avoid	-8881
▁ज्ञात	-8882
ologies	-8883
▁maintain	-8884
▁poly	-8885
▁आमतौर	-8886
▁ब्राह	-8887
▁beauty	-8888
▁contem	-8889
▁safety	-8890
▁आक्रमण	-8891
▁संपादक	-8892
▁Because	-8893
▁ज़िन्दगी	-8894
▁प्रविष्ट	-8895
iny	-8896
olid	-8897
apers	-8898
▁मध्यम	-8899
▁रसूलों	-8900
▁procedure	-8901
न्दु	-8902
▁Rail	-8903
▁Rama	-8904
▁furn	-8905
▁glad	-8906
▁ideal	-8907
▁Health	-8908
▁कंपनियों	-8909
▁कार्यवाही	-8910
लिया	-8911
▁द्विप	-8912
ika	-8913
▁Khan	-8914
▁died	-8915
▁ख्वाह	-8916
▁department	-8917
ERS	-8918
▁fine	-8919
▁कामना	-8920
▁prefer	-8921
ंतरण	-8922
▁Sir	-8923
▁यूसु	-8924
▁घटनाओं	-8925
▁Mahatma	-8926
▁द्वितीय	-8927
▁मस्तिष्क	-8928
Mu	-8929
imal	-8930
▁sleep	-8931
▁नुकसान	-8932
▁context	-8933
▁सुदृढ़	-8934
▁throughout	-8935
रत	-8936
नाश	-8937
▁टिक	-8938
▁धारण	-8939
▁honour	-8940
▁कोशिका	-8941
ij	-8942
▁घाटे	-8943
ivered	-8944
▁perfect	-8945
▁station	-8946
▁चेतावनी	-8947
▁surround	-8948
gen	-8949
▁Ext	-8950
▁empty	-8951
▁truthful	-8952
ole	-8953
▁देय	-8954
▁लगते	-8955
▁सागर	-8956
▁Social	-8957
▁settle	-8958
▁Default	-8959
संगत	-8960
▁सन्तान	-8961
▁settings	-8962
▁July	-8963
▁ढांचे	-8964
▁cattle	-8965
▁संसदीय	-8966
ड़ते	-8967
▁Did	-8968
▁borrow	-8969
▁प्रतिनिधि	-8970
▁dry	-8971
भाविक	-8972
▁fert	-8973
▁gain	-8974
▁इसने	-8975
▁River	-8976
▁संतुल	-8977
▁संदेह	-8978
▁initiatives	-8979
▁ज़ाह	-8980
▁साझे	-8981
▁संविदा	-8982
▁उपस्थिति	-8983
डि	-8984
▁मृ	-8985
aign	-8986
▁नस्	-8987
▁refuge	-8988
▁authent	-8989
▁प्राधिकारी	-8990
▁Men	-8991
▁Data	-8992
▁कमजोर	-8993
▁mutual	-8994
▁organisation	-8995
▁जड़	-8996
▁Prom	-8997
▁आवाज	-8998
▁भेंट	-8999
▁विनिमय	-9000
▁मं	-9001
epend	-9002
▁door	-9003
▁sale	-9004
▁unity	-9005
▁बढ़ती	-9006
una	-9007
▁नद	-9008
ॉल्ट	-9009
▁देखे	-9010
▁मुकद	-9011
▁dialog	-9012
▁messenger	-9013
For	-9014
oms	-9015
ज़ल	-9016
टेन	-9017
नाह	-9018
ूंकि	-9019
▁vast	-9020
▁District	-9021
▁marriage	-9022
बीह	-9023
▁gets	-9024
▁forget	-9025
▁defined	-9026
▁equip	-9027
▁परमाण	-9028
▁History	-9029
▁desires	-9030
▁diss	-9031
▁dust	-9032
▁profession	-9033
CE	-9034
▁आज़	-9035
▁सौर	-9036
▁Both	-9037
▁maximum	-9038
र्रर	-9039
▁Ter	-9040
▁opt	-9041
aling	-9042
▁disob	-9043
▁व्यावसायिक	-9044
ux	-9045
ading	-9046
elines	-9047
▁फरवरी	-9048
▁बस्ती	-9049
▁easily	-9050
▁February	-9051
▁innovation	-9052
खो	-9053
ixt	-9054
सोस	-9055
क़रीब	-9056
▁इसरा	-9057
▁कराया	-9058
▁GN	-9059
teen	-9060
▁yield	-9061
▁moving	-9062
▁राजनीति	-9063
▁Rajasthan	-9064
▁Ant	-9065
verty	-9066
▁Akbar	-9067
▁rapid	-9068
osh	-9069
▁आरम्भ	-9070
▁संयंत्र	-9071
▁प्रभुत्वशाली	-9072
▁मक	-9073
▁hel	-9074
alted	-9075
▁mort	-9076
▁दुखद	-9077
▁calls	-9078
▁उत्तरी	-9079
▁initial	-9080
▁ज़्यादा	-9081
तृ	-9082
ाइन	-9083
▁चीनी	-9084
heduled	-9085
▁listen	-9086
▁इकट्ठा	-9087
▁गांवों	-9088
कुछ	-9089
▁मिट	-9090
chand	-9091
पेक्ष	-9092
▁अन्यथा	-9093
▁poverty	-9094
▁greatest	-9095
अत	-9096
वर्त	-9097
▁interp	-9098
ाये	-9099
enior	-9100
▁taught	-9101
▁अन्ततः	-9102
▁नियंत्रित	-9103
▁चो	-9104
ेंसी	-9105
अज़ाब	-9106
▁हत्या	-9107
▁studies	-9108
ysis	-9109
▁महल	-9110
▁soil	-9111
▁birds	-9112
▁खोलने	-9113
▁fellow	-9114
▁Special	-9115
▁ourselves	-9116
▁पसन्द	-9117
▁रोकने	-9118
▁५	-9119
▁impact	-9120
▁assigned	-9121
▁communication	-9122
▁MS	-9123
info	-9124
▁Nob	-9125
uties	-9126
▁नंबर	-9127
▁fresh	-9128
▁brings	-9129
▁challenges	-9130
omy	-9131
nded	-9132
▁Key	-9133
icense	-9134
▁Colle	-9135
▁सभ्यता	-9136
abilities	-9137
▁युवाओं	-9138
Muhammad	-9139
▁contained	-9140
▁आह	-9141
घटना	-9142
▁See	-9143
▁flag	-9144
mat	-9145
▁काला	-9146
▁परिचय	-9147
▁बहुते	-9148
▁Programme	-9149
▁दोहरा	-9150
▁namely	-9151
▁तयशुदा	-9152
▁Himalay	-9153
▁confidence	-9154
▁org	-9155
▁इंच	-9156
▁offered	-9157
▁प्रान्त	-9158
ेय	-9159
▁bed	-9160
▁मुद्	-9161
▁wisdom	-9162
▁exercise	-9163
Sh	-9164
ese	-9165
▁रवी	-9166
ार्थी	-9167
version	-9168
▁deemed	-9169
▁hidden	-9170
▁राजधानी	-9171
▁विद्यालय	-9172
▁Lab	-9173
ronic	-9174
▁नेअमत	-9175
▁परिसर	-9176
▁संग्र	-9177
▁कम्पनी	-9178
▁deliver	-9179
uta	-9180
ifice	-9181
▁Type	-9182
▁army	-9183
▁पट्ट	-9184
▁चूंकि	-9185
▁string	-9186
▁Besides	-9187
▁shr	-9188
▁तस्वीर	-9189
▁प्रतिबद्ध	-9190
नाटक	-9191
▁लंबी	-9192
▁delivered	-9193
▁Water	-9194
▁daily	-9195
▁Knowing	-9196
▁Germ	-9197
▁submit	-9198
ox	-9199
जिट	-9200
▁वंश	-9201
rated	-9202
ricts	-9203
oph	-9204
▁lad	-9205
ought	-9206
▁देखना	-9207
▁संबद्ध	-9208
▁affairs	-9209
लक	-9210
arati	-9211
मियान	-9212
▁शुरु	-9213
▁season	-9214
▁मिलेगी	-9215
▁विरासत	-9216
स्पर्	-9217
▁बाबत	-9218
▁frequ	-9219
▁संग्रहालय	-9220
तरी	-9221
▁dang	-9222
▁पारि	-9223
खन	-9224
▁आफ	-9225
▁क़ुरान	-9226
▁वीर	-9227
lfare	-9228
▁trou	-9229
▁चरित्र	-9230
▁welfare	-9231
ira	-9232
बेस	-9233
▁कड़ी	-9234
▁minimum	-9235
▁Environment	-9236
ेरत	-9237
▁सलाम	-9238
▁समझने	-9239
▁regions	-9240
iar	-9241
rant	-9242
▁Bad	-9243
▁dim	-9244
enses	-9245
▁Though	-9246
▁associate	-9247
▁determined	-9248
▁दिखाता	-9249
▁schools	-9250
▁association	-9251
aces	-9252
आख़िर	-9253
▁लिखे	-9254
▁griev	-9255
▁European	-9256
घर	-9257
क्रो	-9258
▁प्रबंधक	-9259
iring	-9260
▁goal	-9261
aneous	-9262
▁mainly	-9263
टो	-9264
UL	-9265
ंडा	-9266
▁returns	-9267
मै	-9268
vis	-9269
▁heed	-9270
▁लेखन	-9271
▁rupees	-9272
बरा	-9273
ंचित	-9274
▁नबी	-9275
▁cook	-9276
▁रिक्त	-9277
▁Bengali	-9278
▁कॉल	-9279
venue	-9280
▁अभाव	-9281
▁ड्राइ	-9282
▁अपेक्षित	-9283
▁nut	-9284
▁ball	-9285
र्ती	-9286
लैंड	-9287
▁याच	-9288
▁nine	-9289
▁आहार	-9290
▁अपमान	-9291
स्थापित	-9292
▁charges	-9293
▁फ़ाइलें	-9294
▁generations	-9295
▁शौ	-9296
▁Date	-9297
▁Since	-9298
▁majority	-9299
enth	-9300
▁प्री	-9301
▁बहुम	-9302
▁sustain	-9303
▁क्षमाशील	-9304
rone	-9305
▁Bel	-9306
▁निः	-9307
▁habit	-9308
▁festival	-9309
ाइड	-9310
चार्य	-9311
▁Arch	-9312
▁अभिक	-9313
रात	-9314
▁gas	-9315
▁सतह	-9316
anged	-9317
▁नारा	-9318
▁divide	-9319
▁articles	-9320
▁कच	-9321
▁फैल	-9322
achal	-9323
▁धातु	-9324
▁library	-9325
▁resource	-9326
्मण	-9327
ataka	-9328
▁बारगाह	-9329
▁दरमियान	-9330
▁सम्बन्धी	-9331
aped	-9332
▁विरोधी	-9333
▁अस्थायी	-9334
▁तत्वदर्शी	-9335
त्स	-9336
▁नु	-9337
)...	-9338
▁Mail	-9339
▁grand	-9340
▁feeling	-9341
▁मुसी	-9342
▁email	-9343
▁payable	-9344
ष्प	-9345
▁Lim	-9346
▁happen	-9347
▁sister	-9348
▁Certificate	-9349
▁बाकी	-9350
▁IM	-9351
सारिक	-9352
▁urban	-9353
▁दोबारा	-9354
▁विविधता	-9355
▁practices	-9356
▁prosperity	-9357
oly	-9358
थान	-9359
▁उन्न	-9360
▁जर्म	-9361
▁शिक्षक	-9362
▁Financial	-9363
चरण	-9364
▁Ste	-9365
▁Commun	-9366
▁highly	-9367
▁happened	-9368
▁appointment	-9369
As	-9370
पत	-9371
▁Each	-9372
▁तोड़	-9373
▁रोगी	-9374
▁हटकर	-9375
▁सुनने	-9376
▁Language	-9377
▁पुस्तकालय	-9378
▁हँ	-9379
▁lat	-9380
arant	-9381
नात्मक	-9382
osphere	-9383
▁breast	-9384
▁संध्या	-9385
▁affected	-9386
▁खि	-9387
aram	-9388
ught	-9389
▁tab	-9390
rency	-9391
▁regional	-9392
▁suffer	-9393
▁unc	-9394
▁ऑडियो	-9395
▁बाह्य	-9396
▁colour	-9397
▁एकमात्र	-9398
▁संपादित	-9399
▁hospital	-9400
▁सम्पूर्ण	-9401
▁Dem	-9402
▁जानने	-9403
▁enterpr	-9404
▁buy	-9405
▁mal	-9406
कृष्ण	-9407
▁औलाद	-9408
▁रिया	-9409
▁मिसाल	-9410
▁primary	-9411
▁सुविधाएं	-9412
▁Excellency	-9413
▁मस्	-9414
▁कैसा	-9415
▁points	-9416
SS	-9417
▁distingu	-9418
▁plat	-9419
▁views	-9420
▁अदालत	-9421
▁भेजने	-9422
▁branch	-9423
▁वर्गों	-9424
▁diseases	-9425
▁नवान्वेषण	-9426
ghan	-9427
▁टैब	-9428
▁सफेद	-9429
▁Among	-9430
▁spent	-9431
▁निवास	-9432
▁joined	-9433
▁Members	-9434
▁creating	-9435
▁recompense	-9436
ja	-9437
▁ic	-9438
▁slow	-9439
▁सांसारिक	-9440
asi	-9441
माल	-9442
▁पत	-9443
▁“”	-9444
▁military	-9445
▁निरीक्षण	-9446
मिटेड	-9447
▁अभिन	-9448
▁Ganga	-9449
▁थोड़े	-9450
▁सराहना	-9451
▁हार्दिक	-9452
▁खड़ी	-9453
▁तारा	-9454
ancing	-9455
▁प्रथा	-9456
▁वाक़िफ	-9457
दायी	-9458
Our	-9459
▁Kov	-9460
▁Two	-9461
▁सब्र	-9462
▁prepar	-9463
▁बख्शने	-9464
▁प्रतियोग	-9465
▁सर्वोत्तम	-9466
OC	-9467
▁भरा	-9468
▁theme	-9469
iciency	-9470
▁Second	-9471
▁merely	-9472
▁अवज्ञा	-9473
स्फ	-9474
▁अय	-9475
▁रण	-9476
▁ast	-9477
▁मोदी	-9478
▁kinds	-9479
▁संपादन	-9480
▁confident	-9481
▁installed	-9482
▁Cap	-9483
वलोकन	-9484
▁sand	-9485
vention	-9486
गमन	-9487
▁रहेगी	-9488
conomic	-9489
▁नियुक्ति	-9490
▁household	-9491
pan	-9492
संबर	-9493
▁चली	-9494
▁cance	-9495
▁बनाता	-9496
▁conver	-9497
▁ज़िन्दा	-9498
▁completely	-9499
ीकृत	-9500
▁mir	-9501
▁कश्मीर	-9502
▁encoura	-9503
▁follows	-9504
▁अनक़रीब	-9505
▁sections	-9506
जाम	-9507
▁वरि	-9508
▁huge	-9509
▁इमार	-9510
gin	-9511
dule	-9512
▁vital	-9513
▁सिविल	-9514
▁filled	-9515
फ़ि	-9516
▁Had	-9517
valid	-9518
▁क्ला	-9519
▁लकड़ी	-9520
▁मिलियन	-9521
▁वस्त्र	-9522
▁शक्तियों	-9523
▁greetings	-9524
ura	-9525
▁सप	-9526
raft	-9527
रचना	-9528
▁cold	-9529
▁दर्श	-9530
▁चेहरे	-9531
▁holding	-9532
▁लिमिटेड	-9533
▁समुद्री	-9534
▁Mer	-9535
▁syn	-9536
▁मृत	-9537
phone	-9538
▁चौड़ाई	-9539
▁positive	-9540
▁ship	-9541
▁डिजा	-9542
▁स्वस्थ	-9543
▁whosoever	-9544
▁दादा	-9545
▁wonder	-9546
▁kingdom	-9547
▁background	-9548
▁जिम्मेदारी	-9549
तरित	-9550
▁arm	-9551
▁पार्	-9552
enture	-9553
▁sought	-9554
▁पुष्टि	-9555
▁Speaking	-9556
ेन	-9557
▁Bu	-9558
BI	-9559
सेट	-9560
▁Aust	-9561
▁दैनिक	-9562
▁परमाणु	-9563
▁प्लगइन	-9564
▁Assam	-9565
▁क़ियामत	-9566
▁समृद्धि	-9567
▁excellent	-9568
▁bab	-9569
▁तुरंत	-9570
▁requirements	-9571
सीसी	-9572
▁replied	-9573
▁Aff	-9574
▁DVD	-9575
▁ठोस	-9576
▁विभाजित	-9577
▁ईमानवालों	-9578
्ता	-9579
uris	-9580
▁ende	-9581
▁प्ला	-9582
▁Rules	-9583
▁Non	-9584
▁wherein	-9585
/-	-9586
CO	-9587
ंध्र	-9588
नीति	-9589
ुरान	-9590
▁भावी	-9591
▁करोगे	-9592
▁visible	-9593
▁द्विपक्षीय	-9594
्रेट	-9595
▁tub	-9596
ख्यात	-9597
▁girl	-9598
▁killed	-9599
een	-9600
▁डिफ़	-9601
▁तलाश	-9602
▁keeping	-9603
स्कट	-9604
▁जाल	-9605
ayana	-9606
▁ताकत	-9607
▁Company	-9608
▁carrying	-9609
▁आवश्यकताओं	-9610
निष्ठ	-9611
▁Hour	-9612
▁approved	-9613
▁selection	-9614
▁चुप	-9615
▁drawn	-9616
▁reforms	-9617
▁communities	-9618
icient	-9619
▁Benef	-9620
▁utter	-9621
tenance	-9622
gy	-9623
ander	-9624
▁खत्म	-9625
▁मानवीय	-9626
निंग	-9627
▁Est	-9628
▁Russ	-9629
▁neck	-9630
▁पैके	-9631
▁शरीक	-9632
▁विनष्ट	-9633
▁स्वचालित	-9634
▁गै	-9635
▁गौ	-9636
▁लाइस	-9637
▁चिप	-9638
udget	-9639
▁स्वाम	-9640
▁editor	-9641
▁shared	-9642
▁दिखाने	-9643
▁blessings	-9644
mi	-9645
ोष	-9646
▁संगम	-9647
▁plugin	-9648
▁aspects	-9649
▁delivery	-9650
▁मुक़र्रर	-9651
▁acts	-9652
▁अपरि	-9653
▁minor	-9654
▁wild	-9655
▁खराब	-9656
▁excess	-9657
Do	-9658
अल	-9659
मति	-9660
ुति	-9661
ayan	-9662
▁tiss	-9663
▁थोड़ी	-9664
▁pleased	-9665
ients	-9666
▁hide	-9667
▁मछली	-9668
▁Click	-9669
▁सुनता	-9670
▁सकेंगे	-9671
▁collabor	-9672
गन	-9673
rome	-9674
▁hair	-9675
▁सोचा	-9676
▁garden	-9677
rees	-9678
▁जम्	-9679
▁जला	-9680
▁Subs	-9681
▁impl	-9682
izations	-9683
पह	-9684
▁अफ़	-9685
▁मुश	-9686
▁thank	-9687
▁समझौते	-9688
▁folders	-9689
▁अनुसूचित	-9690
IP	-9691
▁Park	-9692
vision	-9693
ores	-9694
्यूल	-9695
▁फ़िल	-9696
▁Panch	-9697
▁adequ	-9698
▁ब्राउ	-9699
▁battle	-9700
▁partner	-9701
▁प्रचलित	-9702
▁intellig	-9703
▁petitioner	-9704
▁moral	-9705
▁अन्तर	-9706
respond	-9707
▁ज़ाहिर	-9708
▁wrongdo	-9709
▁चिह्नित	-9710
▁submitted	-9711
साइ	-9712
▁साध	-9713
▁द्वि	-9714
▁altern	-9715
▁भारतीयों	-9716
)?	-9717
नीन	-9718
्यास	-9719
▁हरि	-9720
▁मिलते	-9721
Comment	-9722
▁prices	-9723
▁options	-9724
▁passing	-9725
▁ult	-9726
▁रेश	-9727
▁degree	-9728
▁mission	-9729
▁pressure	-9730
क्क	-9731
▁ठहर	-9732
▁उन्नत	-9733
▁बच्चा	-9734
▁Config	-9735
▁अवतरित	-9736
▁गिरफ्त	-9737
▁reminder	-9738
यिक	-9739
▁कही	-9740
▁east	-9741
▁हड्ड	-9742
▁Library	-9743
▁appreci	-9744
▁अनुग्रह	-9745
▁Official	-9746
ped	-9747
▁HTML	-9748
▁fill	-9749
▁आदान	-9750
▁title	-9751
▁planning	-9752
▁governance	-9753
▁authorities	-9754
साम	-9755
athi	-9756
▁iron	-9757
▁वार्	-9758
▁विपणन	-9759
atabase	-9760
▁College	-9761
र्ज	-9762
हाल	-9763
▁सन्द	-9764
▁Trust	-9765
▁bodies	-9766
▁प्रवाह	-9767
▁समूहों	-9768
▁सितंबर	-9769
▁Current	-9770
▁picture	-9771
▁उपबंधों	-9772
▁destination	-9773
काब	-9774
▁pi	-9775
▁Send	-9776
▁ऊपरी	-9777
▁meant	-9778
▁जुड़ा	-9779
▁क़िस्म	-9780
▁गुनाहों	-9781
▁description	-9782
ग्ध	-9783
साफ़	-9784
▁relief	-9785
▁मंदिरों	-9786
▁rej	-9787
▁kill	-9788
▁बिंदु	-9789
▁गुमराह	-9790
▁स्वीकृति	-9791
▁tal	-9792
▁cand	-9793
tion	-9794
▁राहत	-9795
▁board	-9796
मंड	-9797
ilty	-9798
▁संक्रमण	-9799
▁features	-9800
▁materials	-9801
,%	-9802
▁Disc	-9803
▁अस्वी	-9804
▁जहन्नम	-9805
▁organization	-9806
odes	-9807
▁आयी	-9808
▁कैं	-9809
कार्य	-9810
▁बिगा	-9811
▁learned	-9812
▁reality	-9813
▁encourage	-9814
▁foundation	-9815
▁छि	-9816
▁दह	-9817
▁cru	-9818
▁critic	-9819
▁प्रतिष्ठित	-9820
▁sett	-9821
▁बोली	-9822
▁आजादी	-9823
▁prison	-9824
▁कुफ़्र	-9825
▁darkness	-9826
▁performed	-9827
▁Governments	-9828
बूल	-9829
ache	-9830
कर्ष	-9831
धर्म	-9832
श्वास	-9833
▁बनाये	-9834
▁शत्रु	-9835
▁सुनते	-9836
▁Invalid	-9837
संप	-9838
▁lik	-9839
▁audio	-9840
▁दिसंबर	-9841
▁Gardens	-9842
▁प्रतिभूति	-9843
▁entreprene	-9844
टका	-9845
▁डो	-9846
▁वकी	-9847
acter	-9848
▁सबके	-9849
▁पर्वत	-9850
▁पालने	-9851
▁teaching	-9852
▁Authority	-9853
▁principles	-9854
▁individuals	-9855
स्को	-9856
▁late	-9857
▁मॉडल	-9858
▁ऊंचाई	-9859
▁नेपाल	-9860
▁facility	-9861
▁demon	-9862
▁moved	-9863
▁wants	-9864
▁agreed	-9865
▁everyone	-9866
▁भरे	-9867
▁वाक	-9868
▁crim	-9869
▁इजरा	-9870
▁turns	-9871
▁delete	-9872
▁reduced	-9873
विन	-9874
▁चतु	-9875
ester	-9876
▁खण्ड	-9877
▁Color	-9878
imately	-9879
क्रिप्ट	-9880
▁Number	-9881
▁मोबाइल	-9882
▁Comment	-9883
▁channel	-9884
▁dispute	-9885
▁daughter	-9886
▁स्वाभाविक	-9887
दल	-9888
ॉलर	-9889
aman	-9890
▁Play	-9891
▁disk	-9892
▁डेस्कट	-9893
▁दबाव	-9894
▁Autom	-9895
▁duties	-9896
▁निकाला	-9897
▁methods	-9898
▁campaign	-9899
▁participation	-9900
▁अँ	-9901
ertain	-9902
▁Foreign	-9903
▁कर्नाटक	-9904
▁subjects	-9905
िने	-9906
cean	-9907
रीबी	-9908
▁अली	-9909
▁उल्ल	-9910
▁Custom	-9911
▁अग्रणी	-9912
oti	-9913
▁Sk	-9914
▁Kar	-9915
force	-9916
▁संवर्धन	-9917
▁Internet	-9918
▁टॉ	-9919
ottom	-9920
▁छाया	-9921
▁मारे	-9922
igible	-9923
▁reply	-9924
▁Andhra	-9925
▁endeav	-9926
▁उन्होने	-9927
ifications	-9928
▁Turk	-9929
▁चैनल	-9930
▁दोनो	-9931
▁नेकी	-9932
▁बारी	-9933
▁रौशन	-9934
orth	-9935
ेंद्र	-9936
▁अर्ध	-9937
▁ईमानदार	-9938
ka	-9939
रु	-9940
itt	-9941
▁बोस	-9942
inger	-9943
▁grass	-9944
▁Buddha	-9945
▁internal	-9946
ुरा	-9947
▁गू	-9948
▁drop	-9949
▁प्रदूषण	-9950
▁suitable	-9951
▁कुमार	-9952
▁receipt	-9953
▁लाइसेंस	-9954
▁division	-9955
hu	-9956
asm	-9957
▁मुर्	-9958
▁souls	-9959
▁वर्गी	-9960
▁Joh	-9961
▁fab	-9962
▁compr	-9963
ocol	-9964
writ	-9965
▁क्व	-9966
venant	-9967
▁estim	-9968
▁plays	-9969
▁भक्ति	-9970
▁defence	-9971
▁अनुमोदन	-9972
उंड	-9973
seen	-9974
▁उगा	-9975
▁हिक	-9976
▁अक्षर	-9977
▁volunt	-9978
▁प्रविष्टि	-9979
दरा	-9980
▁सन	-9981
▁ट्रे	-9982
▁मकान	-9983
▁Jew	-9984
▁उतना	-9985
▁गर्म	-9986
▁Kovind	-9987
▁attached	-9988
ज़िर	-9989
रेखा	-9990
▁Met	-9991
धियों	-9992
▁hero	-9993
▁latter	-9994
▁अमेरिकी	-9995
▁bilateral	-9996
▁साहित्यिक	-9997
▁Docu	-9998
▁About	-9999
▁click	-10000
▁क़ुरआन	-10001
▁climate	-10002
▁डिफ़ॉल्ट	-10003
▁दुर्घटना	-10004
▁leadership	-10005
र्त	-10006
धारी	-10007
ार्ट	-10008
▁jinn	-10009
▁बन्दे	-10010
▁Report	-10011
▁सावधान	-10012
▁reasons	-10013
▁नीतियों	-10014
ट्	-10015
पिता	-10016
▁Tour	-10017
▁अवसरों	-10018
▁enabled	-10019
▁कर्तव्य	-10020
▁critical	-10021
▁घटक	-10022
▁जवा	-10023
astic	-10024
▁बाधा	-10025
नेवालो	-10026
▁सत्यापन	-10027
▁disbelieved	-10028
हो	-10029
▁(.	-10030
▁Life	-10031
▁ahead	-10032
▁जोड़ा	-10033
▁beings	-10034
▁insects	-10035
▁manager	-10036
rical	-10037
▁Proper	-10038
▁burden	-10039
▁letters	-10040
▁machinery	-10041
ख्ते	-10042
मेरे	-10043
सागर	-10044
▁देवता	-10045
▁टिप्पणी	-10046
▁brothers	-10047
▁substant	-10048
▁transform	-10049
▁notification	-10050
ायर	-10051
▁AD	-10052
मर्श	-10053
▁दान	-10054
भावना	-10055
▁सीडी	-10056
▁Class	-10057
▁यूनिट	-10058
▁England	-10059
▁Independ	-10060
▁insurance	-10061
▁उत्साह	-10062
ams	-10063
हिता	-10064
▁बैक	-10065
▁west	-10066
ंची	-10067
िकेट	-10068
▁Ash	-10069
▁ang	-10070
▁assum	-10071
▁त्वचा	-10072
▁शर्तों	-10073
▁पासवर्ड	-10074
▁incident	-10075
▁inspired	-10076
▁Nag	-10077
▁एक्	-10078
▁दुः	-10079
▁इल्म	-10080
▁Print	-10081
▁centres	-10082
▁platform	-10083
▁yourself	-10084
orial	-10085
शिष्ट	-10086
▁Word	-10087
▁minutes	-10088
▁डेस्कटॉप	-10089
▁promotion	-10090
▁URI	-10091
▁भले	-10092
▁लूत	-10093
▁star	-10094
▁सचेत	-10095
▁upper	-10096
▁डिजिट	-10097
▁प्रतिस्पर्	-10098
कोश	-10099
▁Nat	-10100
▁Yoga	-10101
▁oath	-10102
▁actual	-10103
▁guilty	-10104
▁myself	-10105
▁धन्यवाद	-10106
▁registration	-10107
▁.	-10108
sych	-10109
▁ख़ुश	-10110
नेवाली	-10111
▁विद्या	-10112
▁released	-10113
▁कुफ्फ़ार	-10114
वश	-10115
iber	-10116
▁Maj	-10117
arian	-10118
▁बुरे	-10119
प्रदान	-10120
▁homes	-10121
▁challenge	-10122
isms	-10123
▁debt	-10124
▁Assistant	-10125
▁ax	-10126
hand	-10127
ष्णु	-10128
वस्तु	-10129
ishing	-10130
क्षिप्त	-10131
▁परिभाषित	-10132
बाल	-10133
मूल	-10134
▁हुक	-10135
▁Make	-10136
▁पाँच	-10137
▁Nepal	-10138
▁inner	-10139
▁Control	-10140
▁चिकित्स	-10141
▁consists	-10142
▁examination	-10143
जैसे	-10144
▁aid	-10145
▁टूट	-10146
oseph	-10147
क्तूबर	-10148
▁वरिष्ठ	-10149
▁achieved	-10150
जाल	-10151
▁>>	-10152
idge	-10153
▁अन्	-10154
rible	-10155
▁changing	-10156
▁correspond	-10157
aul	-10158
ूहिक	-10159
▁गार	-10160
▁tong	-10161
▁hypoc	-10162
▁आकृति	-10163
▁जन्नत	-10164
▁समानता	-10165
▁entitled	-10166
▁universal	-10167
▁resolution	-10168
bal	-10169
ithm	-10170
▁हिकमत	-10171
▁शिक्षण	-10172
▁चाहेंगे	-10173
▁priority	-10174
▁flu	-10175
▁गिन	-10176
▁दुर	-10177
inated	-10178
▁Mount	-10179
▁Mighty	-10180
▁Modi	-10181
▁देखी	-10182
▁exact	-10183
दर्शिता	-10184
▁deduction	-10185
▁intellectual	-10186
▁Tru	-10187
▁नाते	-10188
ributed	-10189
▁warner	-10190
ensation	-10191
TH	-10192
ण्य	-10193
▁Enc	-10194
▁रवि	-10195
▁सदी	-10196
▁गहरी	-10197
▁Belie	-10198
IF	-10199
▁Bah	-10200
▁ऑंख	-10201
▁forever	-10202
▁historical	-10203
दूरी	-10204
ार्ज	-10205
ेश्वर	-10206
▁lest	-10207
▁disch	-10208
▁गिरा	-10209
▁नौकरी	-10210
▁seeking	-10211
फ़ी	-10212
▁खिस	-10213
▁पक्षों	-10214
▁फ़िल्म	-10215
▁स्वर्ण	-10216
▁inaugur	-10217
जान	-10218
▁गें	-10219
▁glor	-10220
▁छुपा	-10221
▁दाख़	-10222
▁Micro	-10223
▁caste	-10224
▁उल्लेखनीय	-10225
mn	-10226
न्थ	-10227
ूदी	-10228
▁Ib	-10229
ांचा	-10230
▁FOR	-10231
तियां	-10232
▁seized	-10233
▁although	-10234
▁contacts	-10235
▁dear	-10236
▁leaf	-10237
atience	-10238
▁volume	-10239
▁sources	-10240
▁अंतरिक्ष	-10241
वती	-10242
▁परे	-10243
▁liqu	-10244
▁बांग	-10245
▁लगाए	-10246
urb	-10247
oose	-10248
द्दी	-10249
▁कोय	-10250
▁साइट	-10251
▁phase	-10252
▁समझता	-10253
▁awareness	-10254
▁manufacturing	-10255
▁यूरोपीय	-10256
▁अन्तर्गत	-10257
▁containing	-10258
imb	-10259
mar	-10260
▁हक	-10261
dess	-10262
▁भरी	-10263
▁ज्या	-10264
▁Civil	-10265
▁stood	-10266
▁wronged	-10267
▁register	-10268
▁पूर्वावलोकन	-10269
fts	-10270
तिश	-10271
▁चेक	-10272
▁Writ	-10273
▁mist	-10274
▁उद्ध	-10275
▁Press	-10276
ossible	-10277
▁Society	-10278
▁agencies	-10279
▁atm	-10280
▁असर	-10281
▁obst	-10282
▁कार्	-10283
▁मस्जि	-10284
▁कृतज्ञ	-10285
▁पैमाने	-10286
▁सदस्यता	-10287
▁establishment	-10288
▁marked	-10289
▁delight	-10290
▁पैग़म्बरों	-10291
तौर	-10292
रेख	-10293
pass	-10294
काता	-10295
▁आँख	-10296
oning	-10297
▁double	-10298
उप	-10299
▁hind	-10300
▁नहरें	-10301
▁scholar	-10302
iy	-10303
सीन	-10304
▁‘‘	-10305
rench	-10306
▁आएगा	-10307
▁पहलू	-10308
▁juris	-10309
▁मजदूर	-10310
▁फ़िरऔन	-10311
▁मिलाकर	-10312
bell	-10313
plate	-10314
▁भेजी	-10315
▁साथियों	-10316
▁विनिर्माण	-10317
▁undertaking	-10318
iant	-10319
look	-10320
▁अवधार	-10321
▁disput	-10322
▁interesting	-10323
▁६	-10324
▁BC	-10325
▁fell	-10326
▁कुरान	-10327
▁arrest	-10328
▁squared	-10329
कल्प	-10330
▁Cult	-10331
▁Const	-10332
▁Found	-10333
▁सरकशी	-10334
ubs	-10335
▁eleph	-10336
▁याचिका	-10337
▁recently	-10338
▁extension	-10339
▁suffering	-10340
्रोल	-10341
▁menu	-10342
▁visited	-10343
▁ji	-10344
▁Pet	-10345
hance	-10346
▁जम्मू	-10347
▁फ़रमा	-10348
urities	-10349
▁डिजाइन	-10350
▁प्रेषित	-10351
▁धु	-10352
▁बादशाह	-10353
▁सामूहिक	-10354
▁happiness	-10355
▁Log	-10356
▁sacred	-10357
▁त्रुटिः	-10358
▁successfully	-10359
▁universities	-10360
▁आब	-10361
hern	-10362
▁हरे	-10363
▁हिमा	-10364
▁हितों	-10365
▁अपनाया	-10366
▁chemical	-10367
▁sanction	-10368
ंख्य	-10369
▁Gov	-10370
ोत्तर	-10371
▁Code	-10372
▁Prem	-10373
▁trave	-10374
▁reduce	-10375
▁पत्रिका	-10376
aut	-10377
▁करु	-10378
▁चाय	-10379
▁रिज	-10380
aying	-10381
stitu	-10382
using	-10383
▁inher	-10384
▁दाख़िल	-10385
▁शोक	-10386
▁situated	-10387
▁Mun	-10388
▁surv	-10389
▁बाबू	-10390
▁मानना	-10391
▁proved	-10392
▁covenant	-10393
▁बांध	-10394
▁Training	-10395
▁Page	-10396
othing	-10397
▁admon	-10398
▁मुसीबत	-10399
▁distinct	-10400
▁Karnataka	-10401
▁गहन	-10402
▁साँ	-10403
▁poem	-10404
▁Associ	-10405
▁Another	-10406
▁courage	-10407
otic	-10408
▁Sun	-10409
▁Like	-10410
▁Self	-10411
▁Year	-10412
▁अंतः	-10413
▁piece	-10414
▁proport	-10415
▁treated	-10416
▁ज़ालिमों	-10417
ंडित	-10418
▁Find	-10419
▁पीढ़ी	-10420
▁Reserve	-10421
▁failure	-10422
▁monitor	-10423
▁असाधारण	-10424
▁instance	-10425
pta	-10426
▁फु	-10427
▁प्रसंग	-10428
▁अक्तूबर	-10429
▁पुस्तकों	-10430
जनन	-10431
ैया	-10432
back	-10433
plit	-10434
thern	-10435
▁लेती	-10436
▁recorded	-10437
IM	-10438
क़ा	-10439
्मा	-10440
▁Va	-10441
▁उभ	-10442
▁पाद	-10443
▁Next	-10444
▁उतारा	-10445
▁प्रतियोगिता	-10446
दीक	-10447
▁दास	-10448
▁Once	-10449
▁क़ाय	-10450
▁दौड़	-10451
overed	-10452
▁कपड़े	-10453
▁नेशनल	-10454
▁विक्र	-10455
▁विद्र	-10456
▁इंडियन	-10457
,—	-10458
▁Party	-10459
▁users	-10460
▁स्ट्र	-10461
▁हिंसा	-10462
oration	-10463
▁मैत्री	-10464
▁deposit	-10465
▁mountain	-10466
पूर	-10467
▁उड़ा	-10468
enance	-10469
▁चंद्र	-10470
▁स्कीम	-10471
▁commitment	-10472
ondon	-10473
▁Stud	-10474
▁कष्ट	-10475
▁orders	-10476
▁actions	-10477
▁figures	-10478
ब्ब	-10479
निवेश	-10480
स्ट्र	-10481
▁रोज़	-10482
▁wives	-10483
▁bright	-10484
▁healthy	-10485
टि	-10486
▁Prote	-10487
▁औरतों	-10488
▁पैकेज	-10489
rehensive	-10490
▁advantage	-10491
▁Application	-10492
RAN	-10493
▁यौ	-10494
▁Mand	-10495
▁dign	-10496
▁समाय	-10497
▁fabric	-10498
▁पूर्ति	-10499
यंती	-10500
▁lock	-10501
▁सांस	-10502
▁गरीबी	-10503
▁पौधों	-10504
▁प्रतिबंध	-10505
▁यथ	-10506
▁Don	-10507
▁sick	-10508
▁घाटी	-10509
▁Creat	-10510
otional	-10511
▁अस्पताल	-10512
▁ren	-10513
▁tend	-10514
▁आंध्र	-10515
AV	-10516
rel	-10517
ड़ित	-10518
▁उद्यान	-10519
▁Unknown	-10520
▁burning	-10521
▁उपकरणों	-10522
▁बौद्धिक	-10523
शांत	-10524
▁बजट	-10525
▁पैरा	-10526
▁grown	-10527
▁offline	-10528
कू	-10529
▁ब्य	-10530
▁राजस्व	-10531
▁Tribunal	-10532
▁अग्	-10533
▁पाइ	-10534
▁फर्म	-10535
▁बचाव	-10536
▁Vishn	-10537
▁फ़िल्टर	-10538
▁bestowed	-10539
▁scientists	-10540
▁Pen	-10541
▁तेरी	-10542
▁Brahm	-10543
▁ability	-10544
▁कोविन्द	-10545
▁पंजीकृत	-10546
Is	-10547
▁चू	-10548
ammu	-10549
▁रूस	-10550
▁Down	-10551
▁सीधी	-10552
▁requires	-10553
IME	-10554
▁कू	-10555
▁plot	-10556
▁दिव्य	-10557
ंटा	-10558
▁bran	-10559
▁उक्त	-10560
▁adopt	-10561
▁कारणों	-10562
▁records	-10563
▁रिस	-10564
प्रभु	-10565
▁Sind	-10566
▁heat	-10567
▁waiting	-10568
▁केंद्रित	-10569
bon	-10570
▁Help	-10571
▁doctor	-10572
▁signed	-10573
▁student	-10574
ses	-10575
▁चोट	-10576
▁absolute	-10577
▁constituted	-10578
▁Rajya	-10579
▁जवाहर	-10580
▁तीसरे	-10581
▁Before	-10582
▁Nan	-10583
▁Nare	-10584
▁served	-10585
▁tonnes	-10586
▁कॉन्फ़ि	-10587
ॉनिक	-10588
▁नार	-10589
▁infl	-10590
▁काली	-10591
▁gains	-10592
▁nearly	-10593
▁professional	-10594
lal	-10595
सेस	-10596
raid	-10597
▁coord	-10598
▁ढांचा	-10599
▁प्रेस	-10600
▁reports	-10601
श्री	-10602
सनीय	-10603
▁Bose	-10604
▁सहमत	-10605
▁कनेक्ट	-10606
▁तत्काल	-10607
▁परिवारों	-10608
▁sacrifice	-10609
▁uns	-10610
▁Task	-10611
▁तत्वों	-10612
▁victory	-10613
▁purchase	-10614
▁terrorism	-10615
▁CON	-10616
▁सकाः	-10617
ittees	-10618
▁मुकाब	-10619
▁मूलभूत	-10620
▁accident	-10621
▁districts	-10622
▁efficient	-10623
▁engineering	-10624
मगर	-10625
▁AS	-10626
▁eth	-10627
▁ज़रा	-10628
▁sugar	-10629
athered	-10630
▁relative	-10631
ica	-10632
mod	-10633
ेरे	-10634
▁Id	-10635
anya	-10636
वंबर	-10637
▁सरकश	-10638
▁incor	-10639
▁Process	-10640
▁counter	-10641
▁showing	-10642
ho	-10643
यो	-10644
apur	-10645
oral	-10646
iders	-10647
▁helps	-10648
holders	-10649
orthern	-10650
▁Invest	-10651
▁seeing	-10652
▁वाणिज्यिक	-10653
मों	-10654
▁Server	-10655
▁forbidden	-10656
rief	-10657
ियाई	-10658
▁veh	-10659
▁doub	-10660
▁rank	-10661
▁प्रोज	-10662
▁orient	-10663
▁assured	-10664
▁बैंकिंग	-10665
▁बुल	-10666
▁Fort	-10667
▁मुगल	-10668
▁क्रांति	-10669
▁प्रारम्भ	-10670
”,	-10671
▁वस	-10672
othe	-10673
▁www	-10674
ormal	-10675
▁rice	-10676
astern	-10677
▁Clear	-10678
▁delay	-10679
▁newsp	-10680
▁manufacture	-10681
▁band	-10682
▁weeks	-10683
▁रूपांत	-10684
▁smaller	-10685
▁चुनौतियों	-10686
grim	-10687
▁hop	-10688
▁डरो	-10689
▁लाना	-10690
▁looks	-10691
▁profits	-10692
▁friendship	-10693
▁implemented	-10694
RE	-10695
▁बाध्य	-10696
▁Export	-10697
▁अग्रिम	-10698
▁प्रणाल	-10699
▁negative	-10700
▁Administr	-10701
aded	-10702
issa	-10703
▁hill	-10704
▁बैठा	-10705
▁जितनी	-10706
▁कागज	-10707
▁विरू	-10708
▁Human	-10709
▁micro	-10710
▁महीनों	-10711
▁thereby	-10712
▁dia	-10713
ifies	-10714
▁Count	-10715
▁जोड़े	-10716
iration	-10717
▁sending	-10718
▁Business	-10719
शः	-10720
▁CH	-10721
▁नेत्र	-10722
▁श्रमिक	-10723
▁सीमाओं	-10724
▁principle	-10725
wa	-10726
िली	-10727
esty	-10728
▁irr	-10729
▁Jammu	-10730
▁Mahab	-10731
▁बिगाड़	-10732
ibilities	-10733
▁Security	-10734
▁संहिता	-10735
iversary	-10736
ंकित	-10737
▁परस	-10738
▁exec	-10739
▁abode	-10740
▁London	-10741
▁thanks	-10742
▁writer	-10743
▁factors	-10744
▁privile	-10745
▁व्यक्तित्व	-10746
last	-10747
ानिक	-10748
pected	-10749
▁चीजों	-10750
▁समन्वय	-10751
▁nuclear	-10752
▁warning	-10753
▁ग्री	-10754
▁चाहा	-10755
धिकारी	-10756
▁deleg	-10757
▁discussion	-10758
▁Sl	-10759
oken	-10760
▁मक्	-10761
claim	-10762
▁चाहें	-10763
▁संवेदन	-10764
▁approval	-10765
▁प्रौद्योगिक	-10766
ila	-10767
माना	-10768
▁गवर्	-10769
▁जयंती	-10770
ulating	-10771
▁वार्ता	-10772
शाही	-10773
▁लाओ	-10774
ड़िया	-10775
abinet	-10776
▁adult	-10777
▁न्यास	-10778
isations	-10779
▁descend	-10780
▁scholars	-10781
▁instruments	-10782
▁घु	-10783
▁एयर	-10784
▁Call	-10785
▁डॉलर	-10786
▁skills	-10787
▁archive	-10788
▁sitting	-10789
redit	-10790
▁अकाद	-10791
▁currently	-10792
है	-10793
दायक	-10794
▁फ्र	-10795
erves	-10796
▁कहला	-10797
▁ध्वज	-10798
श्‍	-10799
्यु	-10800
▁शिशु	-10801
▁Knower	-10802
▁defend	-10803
▁तमिलना	-10804
ढ़े	-10805
ूली	-10806
▁मरा	-10807
▁ग़ौर	-10808
▁कठिनाई	-10809
anging	-10810
▁कार्ब	-10811
▁लगाना	-10812
ployment	-10813
▁निशानियों	-10814
erted	-10815
मिनीन	-10816
▁कॉलेज	-10817
▁प्रभाग	-10818
▁banking	-10819
▁objects	-10820
▁bringing	-10821
▁administrative	-10822
oples	-10823
▁Load	-10824
ga	-10825
omic	-10826
▁Hon	-10827
▁Kan	-10828
diction	-10829
▁proposed	-10830
osit	-10831
going	-10832
▁Nadu	-10833
▁वकील	-10834
▁नवंबर	-10835
▁पड़ती	-10836
▁choice	-10837
▁ब्रह्म	-10838
▁हिमालय	-10839
▁charged	-10840
▁औपचारिक	-10841
▁लानेवालो	-10842
LE	-10843
ैत	-10844
▁साव	-10845
▁Mugh	-10846
▁indig	-10847
▁अंतराल	-10848
▁replace	-10849
▁download	-10850
▁Legislative	-10851
▁Ent	-10852
icious	-10853
▁तुम्हे	-10854
▁technologies	-10855
▁अम्	-10856
▁हला	-10857
▁साहस	-10858
▁explo	-10859
▁swear	-10860
▁कारोबार	-10861
▁बहुतेरे	-10862
▁multiple	-10863
▁तंत्रिका	-10864
▁फ़रिश्ते	-10865
▁fundamental	-10866
▁crow	-10867
▁गठित	-10868
▁herit	-10869
▁जायें	-10870
▁प्यार	-10871
lets	-10872
rier	-10873
▁Max	-10874
▁बेल	-10875
▁वेद	-10876
▁अरबी	-10877
▁हाथी	-10878
▁drugs	-10879
▁concent	-10880
▁officials	-10881
▁संक्षिप्त	-10882
izon	-10883
लीफ़	-10884
▁reck	-10885
▁sell	-10886
▁दावे	-10887
▁कक्षा	-10888
▁सैनिक	-10889
▁decades	-10890
▁unknown	-10891
▁currency	-10892
▁objectives	-10893
▁recognised	-10894
अनु	-10895
▁जम	-10896
▁Gra	-10897
▁Rad	-10898
▁bes	-10899
▁फेंक	-10900
▁हमको	-10901
▁Women	-10902
▁fat	-10903
▁sus	-10904
▁कब्	-10905
inese	-10906
हमारे	-10907
▁uses	-10908
▁Justice	-10909
▁विद्वान	-10910
▁becoming	-10911
▁जिम्मेदार	-10912
ंघन	-10913
त्ती	-10914
▁eld	-10915
▁sym	-10916
▁fault	-10917
▁कामों	-10918
▁रहस्य	-10919
▁elected	-10920
▁election	-10921
▁निष्पादन	-10922
िमा	-10923
▁इक	-10924
ग़ैर	-10925
िश्र	-10926
▁तैय	-10927
▁Mary	-10928
▁valu	-10929
▁Kumar	-10930
▁courts	-10931
▁विरूद्ध	-10932
काय	-10933
▁doesn	-10934
▁patience	-10935
▁decisions	-10936
▁forgiving	-10937
राव	-10938
oser	-10939
▁समझे	-10940
▁तंग	-10941
▁निर्मा	-10942
▁classes	-10943
नान	-10944
anas	-10945
म्परा	-10946
▁Mother	-10947
▁अधिकरण	-10948
▁मुक्ति	-10949
▁-.	-10950
▁kil	-10951
inity	-10952
▁Noah	-10953
▁अभिय	-10954
▁प्रवृत्ति	-10955
्द	-10956
ल्‍	-10957
▁IC	-10958
जीवन	-10959
▁Das	-10960
▁enhan	-10961
▁दर्दनाक	-10962
▁adequate	-10963
▁heritage	-10964
▁Ministers	-10965
▁democratic	-10966
▁टू	-10967
▁Tel	-10968
ankar	-10969
▁coal	-10970
▁चिंत	-10971
▁ताला	-10972
▁factor	-10973
▁supreme	-10974
▁obtained	-10975
▁equipment	-10976
▁sole	-10977
▁recip	-10978
▁surpr	-10979
▁decide	-10980
▁hasten	-10981
▁शिक्षकों	-10982
No	-10983
Re	-10984
खु	-10985
काने	-10986
ुसार	-10987
▁मादा	-10988
▁abund	-10989
▁falsehood	-10990
▁followers	-10991
▁Mult	-10992
▁escape	-10993
▁organised	-10994
,'	-10995
rat	-10996
eless	-10997
▁अगली	-10998
▁फोटो	-10999
स्ट्रे	-11000
▁इंग्ल	-11001
▁बढ़ने	-11002
▁सहमति	-11003
▁बस्तियों	-11004
odh	-11005
umer	-11006
▁समाह	-11007
▁Vishnu	-11008
mendment	-11009
▁applied	-11010
▁organized	-11011
▁कॉन्फ़िगर	-11012
ंभव	-11013
▁Ref	-11014
▁पेशे	-11015
▁मौजि	-11016
▁Files	-11017
▁effects	-11018
▁whereas	-11019
▁initiative	-11020
अन	-11021
ादिर	-11022
▁skill	-11023
व्यवहार	-11024
▁preced	-11025
▁playing	-11026
िरी	-11027
▁गर	-11028
त्ते	-11029
्वान	-11030
▁fee	-11031
pective	-11032
▁appears	-11033
▁maintenance	-11034
ब्रे	-11035
▁prose	-11036
▁showed	-11037
▁पहुंचे	-11038
▁proceedings	-11039
▁सफलतापूर्वक	-11040
▁आल	-11041
धानिक	-11042
▁rates	-11043
▁कोलकाता	-11044
▁addressed	-11045
▁commanded	-11046
▁conducted	-11047
▁marketing	-11048
▁operating	-11049
US	-11050
▁cow	-11051
▁छोड़ा	-11052
▁damage	-11053
▁संचालित	-11054
▁नो	-11055
ouch	-11056
▁Soft	-11057
▁आबादी	-11058
▁जानवरों	-11059
▁प्रसंस्	-11060
▁faithful	-11061
▁agg	-11062
place	-11063
▁Would	-11064
▁धारणा	-11065
▁रहमान	-11066
▁Friend	-11067
▁उपयोगकर्ता	-11068
पंथ	-11069
वानी	-11070
स्थल	-11071
▁Flag	-11072
▁टर्म	-11073
▁पोषण	-11074
▁ब्रि	-11075
▁struct	-11076
▁unable	-11077
▁parliament	-11078
▁रवीन्द्रनाथ	-11079
EC	-11080
PC	-11081
▁ग्राफ	-11082
▁Command	-11083
▁gathered	-11084
▁ordinary	-11085
▁मनुष्यों	-11086
alt	-11087
▁Kab	-11088
▁hall	-11089
▁पैसे	-11090
▁मुंह	-11091
▁पिछली	-11092
▁उपलब्धि	-11093
फू	-11094
डकर	-11095
▁Fo	-11096
दिरा	-11097
antic	-11098
▁font	-11099
▁अब्द	-11100
ध्यक्ष	-11101
स्तानी	-11102
▁arrog	-11103
▁spoke	-11104
▁आलोचना	-11105
▁Affairs	-11106
▁प्रत्या	-11107
▁स्वीकृत	-11108
▁compared	-11109
▁devotion	-11110
▁suddenly	-11111
▁Industrial	-11112
St	-11113
▁Tri	-11114
▁Yes	-11115
▁tom	-11116
itual	-11117
▁rent	-11118
▁minds	-11119
▁notes	-11120
▁उर्वर	-11121
▁obvious	-11122
▁weather	-11123
▁welcome	-11124
▁दक्षिणी	-11125
▁constant	-11126
▁आमंत्रित	-11127
्मी	-11128
धीरे	-11129
▁मनोर	-11130
▁medicine	-11131
▁पदार्थों	-11132
▁Scripture	-11133
▁यो	-11134
स्तर	-11135
▁User	-11136
▁दिलच	-11137
क्ताओं	-11138
▁फार्म	-11139
▁western	-11140
▁announced	-11141
▁compassion	-11142
AND	-11143
▁LD	-11144
arya	-11145
atre	-11146
बानी	-11147
▁rob	-11148
▁जीवा	-11149
दराबाद	-11150
▁inval	-11151
▁मौलिक	-11152
▁comfort	-11153
▁married	-11154
▁प्रोटोक	-11155
▁शक्तिशाली	-11156
▁maintained	-11157
pel	-11158
▁Jag	-11159
▁didn	-11160
▁बेटा	-11161
▁जायेगी	-11162
सीय	-11163
▁गौरव	-11164
▁रानी	-11165
▁लिंग	-11166
ricket	-11167
▁Swami	-11168
▁overt	-11169
▁कर्ता	-11170
▁recall	-11171
▁branches	-11172
▁merciful	-11173
▁identified	-11174
ipl	-11175
दती	-11176
▁Jaw	-11177
▁गहराई	-11178
तू	-11179
लभ	-11180
ona	-11181
▁Dec	-11182
▁Rest	-11183
▁compar	-11184
▁परसतिश	-11185
▁Regional	-11186
पेट	-11187
▁bul	-11188
▁खिल	-11189
ग्रहण	-11190
▁फ्रे	-11191
▁चाहती	-11192
▁behold	-11193
▁Princip	-11194
▁Sard	-11195
▁aims	-11196
▁ईसाई	-11197
▁देशी	-11198
▁आयुर्	-11199
▁covering	-11200
▁permanent	-11201
शंकर	-11202
▁hrs	-11203
▁दिमा	-11204
क्षणिक	-11205
▁abide	-11206
▁वंचित	-11207
▁candid	-11208
▁इसराईल	-11209
▁निकलने	-11210
▁properly	-11211
▁SP	-11212
aced	-11213
▁vir	-11214
▁घूम	-11215
isition	-11216
▁Orissa	-11217
▁पड़ेगा	-11218
▁संभावित	-11219
▁contents	-11220
्यूब	-11221
▁memo	-11222
▁dedicated	-11223
▁आनु	-11224
▁ears	-11225
▁मर्द	-11226
▁Engine	-11227
▁enhance	-11228
▁संरक्षक	-11229
▁विद्यार्थी	-11230
▁Close	-11231
▁facts	-11232
▁स्मरण	-11233
▁afraid	-11234
▁फ़रिश्तों	-11235
ni	-11236
ैम	-11237
▁evol	-11238
▁इलाज	-11239
▁बनकर	-11240
▁लगती	-11241
▁launch	-11242
▁स्टेशन	-11243
▁flowers	-11244
▁thoughts	-11245
▁छत	-11246
rites	-11247
▁Hyder	-11248
▁brain	-11249
▁विष्णु	-11250
▁Austral	-11251
▁felicit	-11252
anj	-11253
aud	-11254
णिक	-11255
amin	-11256
वारी	-11257
▁स्थाना	-11258
▁subsequ	-11259
पल	-11260
▁नान	-11261
ested	-11262
▁Good	-11263
▁noted	-11264
▁समुचित	-11265
▁attitude	-11266
▁centuries	-11267
▁conference	-11268
▁electricity	-11269
बै	-11270
rad	-11271
▁खतरा	-11272
▁घुमा	-11273
▁पंडित	-11274
▁डिजिटल	-11275
▁feature	-11276
▁किलोमीटर	-11277
rd	-11278
▁बचत	-11279
▁width	-11280
▁Arabic	-11281
▁Choose	-11282
▁छू	-11283
▁Ben	-11284
▁जीन	-11285
कांक्षा	-11286
▁आरंभिक	-11287
▁examples	-11288
▁Anj	-11289
ammed	-11290
▁प्रास	-11291
▁आउटपुट	-11292
▁willing	-11293
▁बांग्ला	-11294
▁मोमिनीन	-11295
ghanistan	-11296
▁संस्थापित	-11297
▁respective	-11298
▁configuration	-11299
▁bene	-11300
▁stars	-11301
▁माध्य	-11302
▁finance	-11303
▁योग्यता	-11304
UM	-11305
▁चढ़ा	-11306
▁ट्रैक	-11307
▁fertil	-11308
▁Remember	-11309
▁निष्कर्ष	-11310
▁Agriculture	-11311
▁कहे	-11312
▁यूसुफ	-11313
ensions	-11314
▁सम्पर्क	-11315
▁whatsoever	-11316
▁टो	-11317
कीर्ण	-11318
▁City	-11319
▁आपसे	-11320
▁agency	-11321
▁citizen	-11322
▁politics	-11323
▁solution	-11324
▁लिप	-11325
▁क़दम	-11326
▁गेंद	-11327
▁solar	-11328
▁appeared	-11329
▁Ha	-11330
ुबूल	-11331
▁cave	-11332
▁कमरे	-11333
▁पौधे	-11334
ansion	-11335
▁match	-11336
▁पार्क	-11337
▁Similar	-11338
ड़ना	-11339
▁tasks	-11340
▁रसायन	-11341
▁closed	-11342
▁motion	-11343
▁रिकार्ड	-11344
ंशिक	-11345
▁rid	-11346
▁सवार	-11347
▁अकेले	-11348
▁पहाड़ी	-11349
▁designed	-11350
▁atmosphere	-11351
▁corruption	-11352
▁प्रयोगशाला	-11353
FC	-11354
anta	-11355
umin	-11356
▁reb	-11357
▁भटक	-11358
▁पांड	-11359
brance	-11360
▁simpl	-11361
▁काफिरों	-11362
▁सामान्यतः	-11363
ूष	-11364
marks	-11365
▁Joseph	-11366
▁guarant	-11367
▁settled	-11368
▁जातियों	-11369
▁advanced	-11370
▁Exe	-11371
▁उपर	-11372
▁काउ	-11373
▁पहन	-11374
▁पूर	-11375
acific	-11376
▁डराने	-11377
▁limits	-11378
▁रेडियो	-11379
▁पहुंचने	-11380
▁integral	-11381
pet	-11382
▁ec	-11383
▁Alm	-11384
▁Bin	-11385
पट्टी	-11386
▁recon	-11387
▁Windows	-11388
▁मित्रों	-11389
▁thousands	-11390
चिक	-11391
▁AP	-11392
▁नक	-11393
दस्त	-11394
▁Pay	-11395
ially	-11396
▁लेगा	-11397
▁जानकर	-11398
unction	-11399
▁ritual	-11400
▁peoples	-11401
IG	-11402
TER	-11403
लियों	-11404
▁Sikh	-11405
▁blue	-11406
▁अहले	-11407
▁इनसे	-11408
ranath	-11409
▁withdraw	-11410
▁चित	-11411
▁spot	-11412
▁गर्भ	-11413
▁रुचि	-11414
▁admit	-11415
▁कराना	-11416
ym	-11417
▁बारह	-11418
▁train	-11419
राष्ट्र	-11420
▁अर्जित	-11421
▁इसीलिए	-11422
खाव	-11423
▁wr	-11424
▁ble	-11425
▁John	-11426
▁gate	-11427
▁sweet	-11428
▁मासिक	-11429
▁Chinese	-11430
God	-11431
isis	-11432
▁tim	-11433
▁मातृ	-11434
▁क़ायम	-11435
▁pollution	-11436
▁स्वामित्व	-11437
▁सिद्धांतों	-11438
डो	-11439
ल्य	-11440
roll	-11441
▁Ele	-11442
▁खाओ	-11443
▁सद्	-11444
▁Link	-11445
▁इनपुट	-11446
▁Forest	-11447
▁senior	-11448
▁उद्देश्यों	-11449
सूची	-11450
▁माने	-11451
▁Produ	-11452
वादियों	-11453
▁desert	-11454
▁filter	-11455
▁समाहित	-11456
▁सिंचाई	-11457
-#-#-#-#	-11458
▁offices	-11459
▁terrible	-11460
शित	-11461
▁नज़	-11462
▁मिथ	-11463
पूर्ति	-11464
▁costs	-11465
▁क़ुबूल	-11466
▁निवासी	-11467
▁jurisdiction	-11468
xx	-11469
िनल	-11470
fast	-11471
iced	-11472
oles	-11473
▁नाप	-11474
▁lose	-11475
▁आचरण	-11476
▁दुश्	-11477
▁सोने	-11478
iments	-11479
▁Small	-11480
▁छुटकारा	-11481
▁argument	-11482
▁category	-11483
▁#-#-#-#-#	-11484
▁substance	-11485
▁destruction	-11486
किसी	-11487
▁शेय	-11488
luding	-11489
▁holds	-11490
▁लिखें	-11491
▁latest	-11492
▁confirm	-11493
▁इंजीनिय	-11494
▁हैदराबाद	-11495
OT	-11496
ौफ	-11497
▁UT	-11498
▁उभर	-11499
▁जहाज	-11500
▁pages	-11501
▁Independence	-11502
tes	-11503
तोष	-11504
प्न	-11505
▁El	-11506
onds	-11507
ladesh	-11508
▁coast	-11509
▁afford	-11510
▁attain	-11511
▁चमक	-11512
plete	-11513
▁chance	-11514
▁तमिलनाडु	-11515
▁प्रोजेक्ट	-11516
yr	-11517
alle	-11518
▁Adam	-11519
▁काले	-11520
▁Rural	-11521
▁एकीकृत	-11522
▁markets	-11523
▁परम्परा	-11524
▁अत्याचार	-11525
▁प्राधिकार	-11526
van	-11527
▁नै	-11528
▁amb	-11529
▁नती	-11530
▁फ्लै	-11531
▁throw	-11532
izes	-11533
▁बढा	-11534
▁Iran	-11535
▁Univers	-11536
▁desktop	-11537
▁सल	-11538
▁अमल	-11539
▁ज़ोर	-11540
▁रोका	-11541
▁links	-11542
▁शान्त	-11543
▁सम्भव	-11544
▁adjust	-11545
▁resist	-11546
▁जादूगर	-11547
▁occurred	-11548
EP	-11549
▁</	-11550
cont	-11551
ster	-11552
र्की	-11553
▁Ali	-11554
▁कथन	-11555
बोर्ड	-11556
▁categ	-11557
▁Settings	-11558
▁eligible	-11559
▁End	-11560
olkata	-11561
▁चीजें	-11562
▁Options	-11563
क्सा	-11564
वेशन	-11565
▁बहाद	-11566
▁psych	-11567
▁जिसपर	-11568
लें	-11569
हाई	-11570
▁यूँ	-11571
▁सहन	-11572
▁फायदा	-11573
▁महाराजा	-11574
’,	-11575
uit	-11576
त्ल	-11577
बेह	-11578
▁il	-11579
लांग	-11580
ुम्ब	-11581
▁upgr	-11582
▁जनरल	-11583
▁मानवता	-11584
atio	-11585
अच्छा	-11586
▁Muse	-11587
▁commod	-11588
▁processes	-11589
श्रे	-11590
▁खतर	-11591
पादित	-11592
▁poets	-11593
▁demonstr	-11594
▁temporary	-11595
ंजा	-11596
गरी	-11597
शोथ	-11598
▁mig	-11599
▁श्व	-11600
▁पीने	-11601
▁सिंध	-11602
▁निवार	-11603
▁सावधानी	-11604
▁reported	-11605
ien	-11606
ishes	-11607
दृश्य	-11608
▁ment	-11609
▁अग्नि	-11610
▁theory	-11611
▁tomorrow	-11612
▁पच	-11613
डिंग	-11614
▁mad	-11615
▁परिवेश	-11616
▁आसमानों	-11617
▁displayed	-11618
▁properties	-11619
बाज	-11620
mary	-11621
▁खनि	-11622
ख़बरी	-11623
▁mock	-11624
▁zero	-11625
▁त्रि	-11626
निर्भर	-11627
yl	-11628
NAME	-11629
▁lif	-11630
▁नवा	-11631
▁जुड़ी	-11632
▁समितियों	-11633
▁हिंदुस्तान	-11634
gor	-11635
सलों	-11636
▁dispos	-11637
▁acquired	-11638
▁undertaken	-11639
ping	-11640
▁Read	-11641
▁आश्व	-11642
rowser	-11643
▁बढ़ते	-11644
▁लड़की	-11645
▁हटाएँ	-11646
▁Nature	-11647
▁टुकड़े	-11648
▁दीक्षा	-11649
▁committee	-11650
▁functioning	-11651
apa	-11652
प्ट	-11653
िफ़	-11654
▁सकी	-11655
▁wage	-11656
▁परिक	-11657
▁pride	-11658
▁stands	-11659
▁अभिदाता	-11660
▁न्यायिक	-11661
▁creative	-11662
▁principal	-11663
eal	-11664
wan	-11665
▁संतु	-11666
▁brief	-11667
▁Although	-11668
रक	-11669
क्‍	-11670
ंसिल	-11671
राशि	-11672
▁sad	-11673
ename	-11674
▁अनाज	-11675
▁वरीय	-11676
▁sends	-11677
▁पंचाय	-11678
▁ढूंढें	-11679
▁उल्लंघन	-11680
▁territory	-11681
agh	-11682
गों	-11683
टाई	-11684
▁Ka	-11685
▁SC	-11686
urved	-11687
हारिक	-11688
▁इसपर	-11689
▁multi	-11690
▁दरबार	-11691
▁Subhas	-11692
▁दूरस्थ	-11693
▁१५	-11694
osure	-11695
▁Best	-11696
▁मुख़	-11697
▁कहेगा	-11698
▁सम्मानित	-11699
स्ट्री	-11700
▁Force	-11701
De	-11702
▁पान	-11703
▁Requ	-11704
▁sequ	-11705
▁narrow	-11706
▁मंडल	-11707
▁sanct	-11708
▁संशोधित	-11709
क्की	-11710
▁शरण	-11711
osers	-11712
▁Vice	-11713
▁चीज़े	-11714
क्योंकि	-11715
▁bottom	-11716
▁बाग़ों	-11717
▁वैज्ञानिकों	-11718
▁कोष	-11719
aints	-11720
▁Tool	-11721
▁loans	-11722
▁जापान	-11723
▁बचाने	-11724
▁भर्ती	-11725
▁broken	-11726
▁deleted	-11727
▁Password	-11728
▁"{	-11729
िन्त	-11730
▁Oper	-11731
▁Awards	-11732
▁forgot	-11733
▁mostly	-11734
ola	-11735
▁Ham	-11736
ख्तेयार	-11737
▁महाभारत	-11738
▁movements	-11739
▁sculpture	-11740
MP	-11741
pto	-11742
▁pu	-11743
▁आबंट	-11744
कलापों	-11745
▁deity	-11746
▁लंबाई	-11747
▁सम्रा	-11748
▁Compan	-11749
▁liquid	-11750
▁university	-11751
osa	-11752
▁अख	-11753
▁फि	-11754
▁suit	-11755
▁weap	-11756
▁Allow	-11757
▁विहित	-11758
मुसलमान	-11759
▁Article	-11760
▁finally	-11761
nov	-11762
sha	-11763
▁Az	-11764
▁जीत	-11765
otton	-11766
▁Line	-11767
▁चट्ट	-11768
विमर्श	-11769
▁Whoever	-11770
▁Hyderabad	-11771
▁तिल	-11772
▁roof	-11773
▁उपास	-11774
criber	-11775
▁immense	-11776
▁Institut	-11777
▁Narendra	-11778
▁identity	-11779
▁इंजीनियर	-11780
▁mel	-11781
▁श्वे	-11782
▁तापमान	-11783
▁स्वभाव	-11784
धक	-11785
बो	-11786
ोपण	-11787
▁rout	-11788
▁backs	-11789
▁इन्सान	-11790
▁रिजर्व	-11791
▁expenses	-11792
▁transaction	-11793
iger	-11794
ज़ोर	-11795
ंतरित	-11796
cutive	-11797
ndered	-11798
▁bounty	-11799
▁seemed	-11800
▁arrived	-11801
किम	-11802
▁१८	-11803
ंतिक	-11804
क़ुरान	-11805
▁union	-11806
▁guides	-11807
▁thirty	-11808
▁प्रकाशना	-11809
hus	-11810
▁Ban	-11811
▁इस्	-11812
▁बंदर	-11813
active	-11814
▁decor	-11815
▁License	-11816
▁blessed	-11817
▁अनुपालन	-11818
▁इलेक्ट्रॉनिक	-11819
संघ	-11820
akti	-11821
▁alt	-11822
देशों	-11823
▁shad	-11824
▁बोलते	-11825
▁mobile	-11826
▁toward	-11827
▁तैयारी	-11828
ोनें	-11829
▁Gan	-11830
▁सतत	-11831
▁कायम	-11832
▁गुजर	-11833
▁रामा	-11834
aviour	-11835
जलि	-11836
▁पाप	-11837
▁मानी	-11838
▁exhib	-11839
raction	-11840
▁मददगार	-11841
▁Support	-11842
▁गिरफ्तार	-11843
▁temperature	-11844
▁झि	-11845
▁पट	-11846
book	-11847
ette	-11848
ंदगी	-11849
▁Lal	-11850
▁walls	-11851
▁accompan	-11852
डन	-11853
col	-11854
क़त	-11855
रीन	-11856
▁Perm	-11857
▁याची	-11858
▁Judge	-11859
▁expert	-11860
je	-11861
ORS	-11862
ena	-11863
ट्स	-11864
▁जू	-11865
▁उन्म	-11866
▁गहरे	-11867
्रोतों	-11868
▁शानदार	-11869
▁पुरुषों	-11870
▁extremely	-11871
लास	-11872
▁अट	-11873
▁पड	-11874
गारी	-11875
▁Signs	-11876
▁conflict	-11877
▁Foundation	-11878
कर्म	-11879
▁कारक	-11880
संरचना	-11881
▁उपखंड	-11882
▁संतोष	-11883
▁billion	-11884
केल	-11885
▁Sud	-11886
▁एल्	-11887
isher	-11888
oring	-11889
▁Access	-11890
▁नामः	-11891
▁flower	-11892
▁तकलीफ़	-11893
▁automatically	-11894
iti	-11895
ंधन	-11896
alam	-11897
lude	-11898
पीएस	-11899
▁वैसा	-11900
▁अर्ज़	-11901
▁नवम्बर	-11902
▁Kolkata	-11903
▁accused	-11904
▁capable	-11905
▁prayers	-11906
▁प्रक्रियाओं	-11907
▁architecture	-11908
▁environmental	-11909
▁तह	-11910
चन्द	-11911
▁चाँ	-11912
▁परत	-11913
▁वास	-11914
luded	-11915
▁anti	-11916
▁मानता	-11917
▁formal	-11918
▁Eastern	-11919
▁journal	-11920
▁composed	-11921
शनी	-11922
▁Tab	-11923
▁उपे	-11924
anish	-11925
▁Musa	-11926
▁Tele	-11927
▁कॉपी	-11928
▁Pacific	-11929
स्ट्रेलिया	-11930
▁transferred	-11931
ART	-11932
पोषण	-11933
रखाव	-11934
वीडी	-11935
सेना	-11936
▁Food	-11937
▁अमरीकी	-11938
▁Limited	-11939
▁sustenance	-11940
▁खून	-11941
▁bind	-11942
▁heads	-11943
▁अभिगम	-11944
▁रूपों	-11945
▁Mughal	-11946
▁Museum	-11947
▁transp	-11948
▁tourism	-11949
▁analysis	-11950
च्चे	-11951
iform	-11952
▁inhab	-11953
▁निकालने	-11954
▁judgment	-11955
zz	-11956
ेड	-11957
तरे	-11958
oked	-11959
▁cat	-11960
▁अवय	-11961
▁अकेला	-11962
▁संतुलन	-11963
▁humanity	-11964
▁whenever	-11965
▁कोशिकाओं	-11966
▁प्रतिदिन	-11967
निस	-11968
पानी	-11969
▁फीस	-11970
enous	-11971
stood	-11972
▁Plug	-11973
▁आमाल	-11974
▁पदों	-11975
▁विनय	-11976
▁एजेंस	-11977
▁प्रसाद	-11978
स्‍त	-11979
▁देगी	-11980
▁निकले	-11981
▁Status	-11982
▁worlds	-11983
▁पुकारा	-11984
तापूर्वक	-11985
▁equally	-11986
▁गांधीजी	-11987
तन्य	-11988
quiry	-11989
▁Circ	-11990
▁चिन्ह	-11991
▁center	-11992
▁deeply	-11993
▁Speaker	-11994
▁grateful	-11995
सो	-11996
ourse	-11997
▁disg	-11998
▁fuel	-11999
▁sorrow	-12000
▁तरीकों	-12001
▁informed	-12002
▁Ye	-12003
avid	-12004
▁Award	-12005
▁illust	-12006
▁sevent	-12007
▁digital	-12008
xic	-12009
▁अंकित	-12010
▁सीखने	-12011
▁turning	-12012
▁अनुसूची	-12013
▁ग्राहकों	-12014
▁समुदायों	-12015
▁उत्तरदायी	-12016
ग्न	-12017
्‍या	-12018
ceeds	-12019
▁idol	-12020
▁plans	-12021
▁simply	-12022
▁strike	-12023
▁व्यवस्थित	-12024
pers	-12025
ंबित	-12026
▁mur	-12027
▁काश	-12028
▁तना	-12029
द्दीन	-12030
▁लोकता	-12031
▁दाहिने	-12032
▁मुद्दे	-12033
▁दर्शाता	-12034
▁शैक्षणिक	-12035
▁interpret	-12036
▁sustainable	-12037
ोजक	-12038
abet	-12039
▁Urdu	-12040
▁क्षण	-12041
▁कीजिए	-12042
▁दरिया	-12043
▁अन्तिम	-12044
▁pilgrim	-12045
▁प्रसंस्करण	-12046
uity	-12047
▁बीस	-12048
asant	-12049
▁arms	-12050
▁curs	-12051
▁Video	-12052
▁steel	-12053
▁impart	-12054
▁मिश्रण	-12055
▁absence	-12056
oned	-12057
▁फज़ल	-12058
▁towns	-12059
▁प्रको	-12060
▁निष्ठा	-12061
▁वस्तुत	-12062
▁Chapter	-12063
▁Judgment	-12064
▁transactions	-12065
▁LDAP	-12066
▁pane	-12067
▁इच्छ	-12068
▁सरपर	-12069
▁fifty	-12070
▁surre	-12071
▁Something	-12072
▁represents	-12073
▁Association	-12074
yal	-12075
▁Dar	-12076
▁sor	-12077
▁झुका	-12078
asters	-12079
▁देगें	-12080
▁पोस्ट	-12081
▁Certain	-12082
▁customer	-12083
▁differences	-12084
alg	-12085
पाई	-12086
ibly	-12087
oding	-12088
▁horse	-12089
▁व्यस्त	-12090
▁president	-12091
▁दुर्भाग्य	-12092
▁विश्वसनीय	-12093
षद्	-12094
ौरन	-12095
▁Bur	-12096
▁जमी	-12097
▁औजार	-12098
▁यानी	-12099
▁आँखों	-12100
▁क्रमा	-12101
ourable	-12102
▁losers	-12103
▁मस्जिद	-12104
▁Scheduled	-12105
▁अत्याचारी	-12106
OME	-12107
मुझे	-12108
सिंह	-12109
गोलिक	-12110
च्छिक	-12111
▁bone	-12112
▁गर्व	-12113
दाताओं	-12114
▁व्यापारी	-12115
ानत	-12116
▁Pras	-12117
▁गुणा	-12118
▁गुरू	-12119
▁arbit	-12120
▁aspir	-12121
▁tools	-12122
▁डालें	-12123
▁confer	-12124
▁entirely	-12125
▁creatures	-12126
▁सकारात्मक	-12127
▁Bangladesh	-12128
while	-12129
▁Chen	-12130
▁actor	-12131
▁वापसी	-12132
▁Sardar	-12133
▁grieve	-12134
DU	-12135
देशी	-12136
ग़रज़	-12137
▁मधुम	-12138
▁शिल्प	-12139
▁owners	-12140
ैंक	-12141
edia	-12142
▁Editor	-12143
▁survey	-12144
▁comment	-12145
▁admitted	-12146
▁formation	-12147
▁improvement	-12148
▁outstanding	-12149
डीई	-12150
फाई	-12151
बारी	-12152
▁Tar	-12153
▁जाह	-12154
▁नरे	-12155
स्पति	-12156
▁रखकर	-12157
▁साहब	-12158
▁Build	-12159
▁absor	-12160
▁रोगों	-12161
▁Jawahar	-12162
▁Industry	-12163
▁Insurance	-12164
OM	-12165
oman	-12166
बूती	-12167
▁Mac	-12168
orthy	-12169
osite	-12170
▁solid	-12171
▁आह्वान	-12172
▁कलाकार	-12173
▁बुलाया	-12174
▁railway	-12175
▁organizations	-12176
▁गंत	-12177
orter	-12178
विचार	-12179
remony	-12180
▁dynam	-12181
▁prime	-12182
▁घनिष्ठ	-12183
▁व्युत्	-12184
▁क्रिकेट	-12185
▁विभागों	-12186
▁Christian	-12187
▁believing	-12188
्टा	-12189
▁fed	-12190
▁sho	-12191
▁फिट	-12192
▁Babu	-12193
कल्पिक	-12194
▁Trade	-12195
▁प्रांत	-12196
▁Province	-12197
▁employee	-12198
▁initiated	-12199
esus	-12200
िकता	-12201
▁Mat	-12202
clause	-12203
▁pregn	-12204
▁पथभ्र	-12205
▁डिग्री	-12206
▁Through	-12207
▁refused	-12208
▁prostrate	-12209
ोंक	-12210
ूकता	-12211
▁आँक	-12212
▁भंग	-12213
सम्बर	-12214
▁Further	-12215
▁प्रश्नों	-12216
▁contributions	-12217
)!	-12218
LS	-12219
टेल	-12220
बूर	-12221
णियों	-12222
▁आकलन	-12223
▁incur	-12224
▁पुष्प	-12225
▁stones	-12226
▁tribal	-12227
▁इजरायल	-12228
▁प्रजनन	-12229
▁मंजूरी	-12230
▁विद्रोह	-12231
tic	-12232
▁tur	-12233
▁सेल	-12234
agers	-12235
othes	-12236
वाहित	-12237
▁गाँव	-12238
▁colon	-12239
▁पैरवी	-12240
▁Economic	-12241
▁starting	-12242
▁belonging	-12243
मुच	-12244
प्रद	-12245
▁अमर	-12246
ांजलि	-12247
▁Full	-12248
▁cool	-12249
▁निधन	-12250
omever	-12251
▁girls	-12252
▁Common	-12253
▁career	-12254
▁परिचित	-12255
▁Mahabhar	-12256
▁प्रयोक्ता	-12257
▁thereafter	-12258
चु	-12259
▁,	-12260
▁Hand	-12261
▁Keep	-12262
▁runs	-12263
▁बिता	-12264
▁breed	-12265
▁discl	-12266
▁leads	-12267
▁oblig	-12268
▁scope	-12269
▁हार्ड	-12270
▁exports	-12271
जिन	-12272
▁Fr	-12273
ज़ख़	-12274
▁औषध	-12275
▁तीर्थ	-12276
▁संभाल	-12277
▁चैतन्य	-12278
▁स्तरों	-12279
▁proposal	-12280
▁promoting	-12281
had	-12282
gent	-12283
▁Shiva	-12284
▁renew	-12285
▁गुणों	-12286
▁tissue	-12287
▁क्रमशः	-12288
▁यथार्थ	-12289
▁संभवतः	-12290
▁Disable	-12291
▁फार	-12292
▁लार	-12293
▁Rece	-12294
▁कहां	-12295
▁विनाश	-12296
▁Chrome	-12297
▁ब्रिटेन	-12298
▁श्रीमती	-12299
▁काफ़िरों	-12300
ks	-12301
नन	-12302
▁झुक	-12303
▁पोत	-12304
▁राजक	-12305
▁Persian	-12306
▁जायेंगे	-12307
▁प्रशांत	-12308
अब	-12309
कै	-12310
ख्य	-12311
समें	-12312
▁शोर	-12313
▁core	-12314
▁चावल	-12315
coming	-12316
्रेडिट	-12317
▁अनुया	-12318
▁दर्जे	-12319
▁सकेगी	-12320
▁स्वप्न	-12321
▁instructions	-12322
लै	-12323
कलाप	-12324
निया	-12325
itors	-12326
▁Unit	-12327
▁चन्द	-12328
▁Document	-12329
EG	-12330
hel	-12331
swe	-12332
काएँ	-12333
▁उठे	-12334
▁नवी	-12335
▁बहा	-12336
▁भरें	-12337
▁उच्चतर	-12338
▁Nations	-12339
▁directed	-12340
▁contribute	-12341
▁proportion	-12342
ोजी	-12343
इयां	-12344
▁vig	-12345
▁बहस	-12346
▁गोया	-12347
▁श्रद्ध	-12348
▁writers	-12349
▁भौगोलिक	-12350
▁प्रवृत्त	-12351
▁हस्तक्षेप	-12352
▁tea	-12353
▁drama	-12354
▁क़त्ल	-12355
▁council	-12356
▁overall	-12357
▁अंग्रेज	-12358
▁पुस्तकें	-12359
▁क्रियान्व	-12360
▁sam	-12361
▁pled	-12362
▁Later	-12363
▁Palest	-12364
▁अर्पित	-12365
▁Software	-12366
▁जवाहरलाल	-12367
▁प्रासंगिक	-12368
▁respectively	-12369
बूझ	-12370
ूनों	-12371
▁flat	-12372
uality	-12373
theists	-12374
▁conven	-12375
▁rising	-12376
▁अमरीका	-12377
▁राजभाषा	-12378
▁रिकॉर्ड	-12379
▁संलग्नक	-12380
▁contemporary	-12381
AGE	-12382
बों	-12383
▁adj	-12384
▁जंगल	-12385
fortun	-12386
▁index	-12387
▁सच्ची	-12388
▁Divine	-12389
▁quickly	-12390
▁अवधारणा	-12391
क्कर	-12392
▁hom	-12393
▁नास	-12394
▁Coop	-12395
▁स्वि	-12396
ananda	-12397
▁concl	-12398
▁संपदा	-12399
▁wicked	-12400
▁वरीयता	-12401
▁apostle	-12402
▁neighbour	-12403
ris	-12404
केंड	-12405
▁hur	-12406
▁सहारा	-12407
▁fourth	-12408
▁publication	-12409
कन	-12410
षे	-12411
▁dog	-12412
▁ves	-12413
▁Term	-12414
▁cere	-12415
▁जुड़	-12416
▁Never	-12417
▁asking	-12418
▁happens	-12419
▁speaking	-12420
iya	-12421
oll	-12422
आरए	-12423
▁bones	-12424
▁radio	-12425
▁कामया	-12426
▁वर्मा	-12427
▁dealing	-12428
चेंज	-12429
▁NAME	-12430
▁उर्दू	-12431
▁border	-12432
▁अभिलाभ	-12433
▁revenue	-12434
▁elections	-12435
▁commission	-12436
▁wrongdoers	-12437
देशक	-12438
पक्ष	-12439
▁डूब	-12440
▁एकदम	-12441
ब्रेरी	-12442
▁Joint	-12443
▁depth	-12444
▁glory	-12445
▁सचमुच	-12446
▁invalid	-12447
▁facilitate	-12448
▁नाइ	-12449
▁पाब	-12450
▁हमे	-12451
inder	-12452
▁icon	-12453
▁रखती	-12454
▁सूचित	-12455
▁Garden	-12456
▁संपन्न	-12457
▁सरपरस्त	-12458
▁framework	-12459
जीवी	-12460
दादा	-12461
▁गाँ	-12462
ख़ेरत	-12463
▁प्लस	-12464
▁Local	-12465
▁prove	-12466
▁मान्य	-12467
▁उपायों	-12468
▁प्रतिल	-12469
▁फ्रांस	-12470
▁ईमानवाले	-12471
aved	-12472
▁lic	-12473
पोर्ट	-12474
▁shop	-12475
▁शराब	-12476
▁French	-12477
▁component	-12478
ीदा	-12479
▁BAR	-12480
▁Upd	-12481
▁इजा	-12482
pring	-12483
▁बोला	-12484
▁दुकान	-12485
▁हाज़िर	-12486
▁witnesses	-12487
pes	-12488
care	-12489
▁KDE	-12490
▁hyd	-12491
inter	-12492
▁Main	-12493
▁आखिर	-12494
▁favor	-12495
▁availability	-12496
OV	-12497
▁POP	-12498
▁gall	-12499
▁उतनी	-12500
▁टेक्	-12501
▁Apost	-12502
▁perce	-12503
तुम्हारे	-12504
▁detailed	-12505
▁fulfilled	-12506
▁न्यायालयों	-12507
▁व्यावहारिक	-12508
स्टी	-12509
धारित	-12510
▁किले	-12511
▁दार्	-12512
▁Aware	-12513
▁fulfil	-12514
▁वर्णित	-12515
▁hypocrites	-12516
▁धम	-12517
riya	-12518
हारी	-12519
▁जैन	-12520
▁Madhya	-12521
▁आंकड़ा	-12522
▁प्रशास	-12523
▁साक्ष्य	-12524
▁evolution	-12525
▁celebrated	-12526
गान	-12527
▁पढ	-12528
king	-12529
▁hen	-12530
▁रेड	-12531
▁chain	-12532
ोक्ताओं	-12533
▁Member	-12534
▁नदियों	-12535
▁distinguished	-12536
cts	-12537
roc	-12538
ming	-12539
न्तर	-12540
▁टाइप	-12541
▁equity	-12542
▁obtain	-12543
▁लेखकों	-12544
▁apostles	-12545
▁behaviour	-12546
▁applicable	-12547
नेह	-12548
room	-12549
▁भूत	-12550
▁Anjuta	-12551
▁depends	-12552
▁database	-12553
▁solutions	-12554
▁recognition	-12555
छो	-12556
garh	-12557
gypt	-12558
▁spr	-12559
▁औरत	-12560
▁पोल	-12561
▁वसू	-12562
▁eggs	-12563
▁Malay	-12564
▁spect	-12565
▁आज़मा	-12566
▁चलाया	-12567
▁लिखना	-12568
▁Comput	-12569
▁pieces	-12570
▁हिमाचल	-12571
▁preview	-12572
▁explained	-12573
▁personality	-12574
शै	-12575
jan	-12576
फेसर	-12577
लेखन	-12578
▁aside	-12579
▁करेंः	-12580
▁तसबीह	-12581
▁calling	-12582
▁pension	-12583
▁परिभाषा	-12584
▁सम्बन्धित	-12585
▁opposition	-12586
मौ	-12587
नें	-12588
▁रॉ	-12589
▁कैसी	-12590
▁पाता	-12591
▁सर्वि	-12592
▁reveal	-12593
▁विद्वानों	-12594
DR	-12595
lo	-12596
▁map	-12597
▁clay	-12598
▁आश्र	-12599
▁शांत	-12600
aration	-12601
▁इकाइयों	-12602
▁क्रेडिट	-12603
▁देशवासियों	-12604
aly	-12605
लित	-12606
ंगों	-12607
▁वां	-12608
▁race	-12609
▁भक्त	-12610
▁लिपि	-12611
▁होगे	-12612
▁alarm	-12613
▁stick	-12614
▁दीजिए	-12615
▁लिखते	-12616
▁रामायण	-12617
aughters	-12618
▁दिखायें	-12619
▁Buddhist	-12620
▁Rab	-12621
▁Run	-12622
▁Top	-12623
▁डिब	-12624
▁Priv	-12625
▁सेंट	-12626
▁तकलीफ	-12627
▁वैदिक	-12628
▁waters	-12629
▁हजारों	-12630
▁drinking	-12631
▁soldiers	-12632
▁जागरूकता	-12633
▁विज्ञप्ति	-12634
याल	-12635
anka	-12636
▁बडी	-12637
▁span	-12638
▁आपसी	-12639
▁दलील	-12640
▁दुःख	-12641
▁stake	-12642
दायित्व	-12643
▁crisis	-12644
▁फोल्डर	-12645
▁invited	-12646
▁trading	-12647
▁Ra	-12648
▁Vir	-12649
▁अहि	-12650
▁गईं	-12651
ensity	-12652
▁जितने	-12653
▁स्टेट	-12654
▁appell	-12655
▁ग्रस्त	-12656
▁explain	-12657
▁trouble	-12658
▁communal	-12659
ector	-12660
▁Liter	-12661
▁layer	-12662
▁phone	-12663
▁Deputy	-12664
▁Friends	-12665
▁convers	-12666
▁sincere	-12667
▁immediate	-12668
▁possession	-12669
▁शर्त	-12670
▁Table	-12671
▁labor	-12672
▁फसलों	-12673
▁crores	-12674
▁render	-12675
▁specify	-12676
▁consumer	-12677
▁remaining	-12678
▁translated	-12679
On	-12680
▁फौ	-12681
ords	-12682
नहीं	-12683
▁Deb	-12684
▁अहं	-12685
▁ढेर	-12686
▁Card	-12687
▁rect	-12688
▁अद्व	-12689
▁ग्रे	-12690
urally	-12691
▁क़ादिर	-12692
▁सिद्धान्त	-12693
▁traditions	-12694
Ad	-12695
समा	-12696
भाषण	-12697
▁अतीत	-12698
▁Innov	-12699
▁flood	-12700
▁आंशिक	-12701
क्तियों	-12702
▁Window	-12703
▁पुराना	-12704
▁revelation	-12705
time	-12706
▁ISO	-12707
▁unp	-12708
▁दाम	-12709
▁Laksh	-12710
▁offers	-12711
▁एजेंसी	-12712
▁गतिविधि	-12713
▁'.	-12714
illa	-12715
ulty	-12716
काया	-12717
▁उपज	-12718
hetic	-12719
▁pert	-12720
▁मक्का	-12721
▁enemies	-12722
▁फलस्वरूप	-12723
▁efficiency	-12724
rer	-12725
याद	-12726
▁Due	-12727
क्राम	-12728
▁Note	-12729
▁पूछो	-12730
▁Email	-12731
▁ज़कात	-12732
issions	-12733
▁couple	-12734
▁slight	-12735
▁अपराधी	-12736
▁अभ्यास	-12737
▁मशीनरी	-12738
▁पुकारते	-12739
▁daughters	-12740
▁comprehensive	-12741
NA	-12742
पेश	-12743
▁kn	-12744
elve	-12745
▁bag	-12746
▁झूठे	-12747
▁लाएँ	-12748
▁lying	-12749
▁split	-12750
▁tongue	-12751
▁सेक्टर	-12752
▁उत्पादक	-12753
▁अनुज्ञात	-12754
▁governments	-12755
गीय	-12756
ooth	-12757
ज़ाम	-12758
▁Lot	-12759
ंक्शन	-12760
▁अक्ट	-12761
▁कुफ्र	-12762
▁ज़रिए	-12763
▁diverse	-12764
▁servant	-12765
▁equality	-12766
▁judgement	-12767
arh	-12768
▁Fa	-12769
▁खबर	-12770
▁झील	-12771
▁परो	-12772
▁गद्य	-12773
▁Green	-12774
▁पक्षी	-12775
▁Except	-12776
▁योजनाएं	-12777
▁Ja	-12778
▁era	-12779
▁लानत	-12780
▁thick	-12781
▁गर्मी	-12782
▁चुकता	-12783
▁दक्षता	-12784
ार्थियों	-12785
▁harvest	-12786
▁पसंदीदा	-12787
▁कम्प्यूटर	-12788
▁understood	-12789
ruit	-12790
▁हां	-12791
▁Size	-12792
▁sees	-12793
▁अखिल	-12794
father	-12795
▁गंतव्य	-12796
▁religions	-12797
HT	-12798
▁समू	-12799
owing	-12800
▁busy	-12801
▁hurt	-12802
▁कर्ण	-12803
▁कृति	-12804
▁तात्	-12805
▁Light	-12806
▁Apostle	-12807
▁believes	-12808
▁employed	-12809
▁improving	-12810
ेस	-12811
ायें	-12812
▁सरी	-12813
▁exch	-12814
▁hills	-12815
▁counsel	-12816
▁forests	-12817
▁आधारभूत	-12818
▁उपलब्धता	-12819
mic	-12820
▁Take	-12821
▁gift	-12822
▁onto	-12823
▁wear	-12824
▁floor	-12825
▁प्लेट	-12826
▁प्रतिमा	-12827
पद	-12828
END	-12829
सास	-12830
▁नज	-12831
ोपित	-12832
inces	-12833
▁eval	-12834
▁मोटर	-12835
स्परिक	-12836
▁roads	-12837
▁shaped	-12838
▁strive	-12839
▁thread	-12840
▁पहलुओं	-12841
▁customers	-12842
▁अंग्रेजों	-12843
▁compensation	-12844
एमई	-12845
ण्ट	-12846
▁Jain	-12847
▁रिज़	-12848
▁प्राप	-12849
▁Credit	-12850
▁whomever	-12851
▁हॉ	-12852
▁rub	-12853
ishment	-12854
▁collected	-12855
▁expansion	-12856
▁guidelines	-12857
▁प्रस्तावित	-12858
▁Lt	-12859
▁मण	-12860
oval	-12861
जनों	-12862
शोधन	-12863
▁इंत	-12864
▁ज्व	-12865
▁मेह	-12866
▁पैसा	-12867
▁grain	-12868
▁क़रीब	-12869
▁जिहाद	-12870
▁तीनों	-12871
▁willed	-12872
▁desired	-12873
▁प्रोटोकॉल	-12874
ded	-12875
▁सिक	-12876
▁pull	-12877
▁लगाते	-12878
▁विवेक	-12879
▁accompl	-12880
▁definite	-12881
▁fighting	-12882
▁judicial	-12883
▁प्रतिष्ठा	-12884
▁arrangement	-12885
“”	-12886
ota	-12887
▁Pad	-12888
व्यों	-12889
▁Look	-12890
▁असली	-12891
▁यहीं	-12892
▁भरपूर	-12893
▁Pandit	-12894
▁आरक्षित	-12895
▁felicitations	-12896
ाफ	-12897
ेंड	-12898
▁Has	-12899
▁भरने	-12900
▁वन्य	-12901
▁शासक	-12902
▁owner	-12903
▁Annual	-12904
पैग़म्बर	-12905
▁recited	-12906
▁regarded	-12907
▁प्रोफेसर	-12908
▁buildings	-12909
▁disbelief	-12910
AYS	-12911
mun	-12912
och	-12913
emic	-12914
ष्कार	-12915
▁ends	-12916
▁आएगी	-12917
▁खतरे	-12918
lement	-12919
▁penalty	-12920
▁कार्यरत	-12921
▁interested	-12922
कना	-12923
▁Lat	-12924
▁अरु	-12925
▁Spec	-12926
▁Chait	-12927
▁तत्त्व	-12928
▁leaving	-12929
मुसलमानों	-12930
▁estimated	-12931
▁Vol	-12932
▁bug	-12933
▁पूज	-12934
▁Land	-12935
▁shar	-12936
earing	-12937
▁hardly	-12938
▁strategy	-12939
▁Believers	-12940
ECT	-12941
ums	-12942
swered	-12943
▁निकाले	-12944
▁पीड़ित	-12945
▁साक्षी	-12946
▁fram	-12947
▁palm	-12948
▁डालते	-12949
▁befall	-12950
▁अपनाने	-12951
▁persist	-12952
▁suggested	-12953
▁communications	-12954
ads	-12955
opal	-12956
बाजी	-12957
▁mos	-12958
▁row	-12959
▁lect	-12960
icipal	-12961
▁seeds	-12962
▁Commer	-12963
▁beneath	-12964
▁दिसम्बर	-12965
▁integrated	-12966
▁तृ	-12967
▁fet	-12968
▁अजी	-12969
▁ज्यो	-12970
▁बनना	-12971
▁twice	-12972
▁सैन्य	-12973
▁Assess	-12974
▁गारंटी	-12975
▁Profess	-12976
▁wherever	-12977
▁discussed	-12978
▁highlight	-12979
▁achievement	-12980
▁distributed	-12981
▁considerable	-12982
▁खज	-12983
izer	-12984
list	-12985
▁टाल	-12986
▁Egypt	-12987
▁प्रतिबि	-12988
▁worshipped	-12989
uru	-12990
▁अर्ज	-12991
▁advised	-12992
▁शास्त्र	-12993
▁पथभ्रष्ट	-12994
▁consumption	-12995
आउट	-12996
▁raw	-12997
▁डिप	-12998
▁Army	-12999
▁detail	-13000
▁अक्टूबर	-13001
▁overcome	-13002
क़्	-13003
भूषण	-13004
▁Dig	-13005
▁घेर	-13006
▁buff	-13007
▁surg	-13008
▁कचरा	-13009
▁सुन्दर	-13010
▁वैकल्पिक	-13011
utt	-13012
▁इम	-13013
anga	-13014
▁holy	-13015
▁कीटों	-13016
▁जीवों	-13017
▁theirs	-13018
▁संगठित	-13019
esterday	-13020
▁Tourism	-13021
▁excellence	-13022
▁लोकतांत्रिक	-13023
▁Gaz	-13024
▁tro	-13025
▁सड़	-13026
्रेता	-13027
▁Schedule	-13028
▁allowance	-13029
▁कार्यालयों	-13030
▁प्रभावशाली	-13031
हु	-13032
▁Ce	-13033
▁आं	-13034
श्ता	-13035
्रीम	-13036
▁Dal	-13037
▁Saty	-13038
▁पृथक	-13039
▁दिमाग	-13040
▁Academ	-13041
▁सम्बंध	-13042
वत्	-13043
▁असल	-13044
न्याय	-13045
न्हीं	-13046
▁allot	-13047
▁बहादुर	-13048
▁evident	-13049
▁वाक़िफ़	-13050
▁Similarly	-13051
ds	-13052
¥	-13053
ेरा	-13054
▁pick	-13055
▁alive	-13056
▁masses	-13057
▁Accounts	-13058
▁Calendar	-13059
▁repeated	-13060
▁signature	-13061
▁settlement	-13062
▁investments	-13063
▁तद	-13064
ब्लिक	-13065
▁पनाह	-13066
▁Gupta	-13067
▁दशकों	-13068
▁भांति	-13069
▁farmer	-13070
▁साधनों	-13071
▁शीर्षिका	-13072
▁impossible	-13073
eer	-13074
▁Get	-13075
▁Road	-13076
▁Test	-13077
▁अंततः	-13078
▁उठाना	-13079
▁budget	-13080
▁stages	-13081
▁Mohammed	-13082
ua	-13083
दनी	-13084
▁कस	-13085
▁Phot	-13086
▁symp	-13087
▁विक्रय	-13088
▁टर्मिनल	-13089
▁meetings	-13090
▁continues	-13091
ज़ि	-13092
▁wa	-13093
बाही	-13094
▁fix	-13095
▁पेर	-13096
Moses	-13097
ushed	-13098
▁Geor	-13099
▁चलती	-13100
▁हलाक	-13101
▁Noble	-13102
▁acknow	-13103
▁भगवान्	-13104
▁imperial	-13105
▁राष्ट्रों	-13106
pat	-13107
प्ल	-13108
▁Jay	-13109
▁बाहम	-13110
▁वाहन	-13111
▁शल्य	-13112
▁सिरे	-13113
▁spite	-13114
▁साझेदारी	-13115
लाइ	-13116
life	-13117
पसंद	-13118
▁अलब	-13119
▁सूच	-13120
▁deed	-13121
▁Being	-13122
▁Level	-13123
▁linked	-13124
▁recognized	-13125
¤	-13126
asw	-13127
oli	-13128
राय	-13129
साई	-13130
▁AN	-13131
▁अमान	-13132
▁विजे	-13133
▁शंकर	-13134
▁filed	-13135
▁हटाने	-13136
▁क्रांतिक	-13137
▁ब्राह्मण	-13138
▁पारस्परिक	-13139
▁conservation	-13140
▁organisations	-13141
ITY	-13142
▁du	-13143
that	-13144
what	-13145
▁grew	-13146
▁ईंधन	-13147
▁तेरा	-13148
▁वसूली	-13149
ributes	-13150
▁Global	-13151
▁डीवीडी	-13152
▁सम्राट	-13153
▁प्रतिकूल	-13154
▁Committees	-13155
▁irrigation	-13156
appe	-13157
▁ease	-13158
▁sets	-13159
▁Ambed	-13160
compass	-13161
▁Energy	-13162
▁Online	-13163
.–	-13164
▁खर	-13165
्यूम	-13166
▁doll	-13167
ounded	-13168
▁clust	-13169
▁curse	-13170
▁दार्शन	-13171
▁मज़बूत	-13172
▁empower	-13173
▁आकांक्षा	-13174
▁preferred	-13175
▁—	-13176
otes	-13177
▁Bet	-13178
त्रिम	-13179
▁कृपा	-13180
▁बनता	-13181
estion	-13182
▁संवेद	-13183
▁बिन्दु	-13184
▁Ambedkar	-13185
▁emphasis	-13186
▁उन्होनें	-13187
▁attachment	-13188
▁घास	-13189
icent	-13190
कियों	-13191
▁प्रॉ	-13192
▁स्तन	-13193
▁बताता	-13194
▁लड़का	-13195
▁श्वेत	-13196
▁sexual	-13197
▁vessel	-13198
▁talking	-13199
▁फ़ाइलों	-13200
▁identify	-13201
▁Jawaharlal	-13202
yas	-13203
ड़ीसा	-13204
सूत्र	-13205
▁Gold	-13206
▁आईडी	-13207
▁Asian	-13208
▁outer	-13209
▁breath	-13210
▁facing	-13211
▁flight	-13212
▁शेयरों	-13213
▁स्तरीय	-13214
▁प्रतिफल	-13215
▁millions	-13216
▁अनुमोदित	-13217
▁interface	-13218
tr	-13219
वही	-13220
ोरि	-13221
odal	-13222
▁fle	-13223
▁बेर	-13224
क्तिक	-13225
▁आपदा	-13226
▁गणित	-13227
▁डालने	-13228
▁प्रशंस	-13229
▁incorpor	-13230
▁numerous	-13231
▁केंद्रों	-13232
ny	-13233
phe	-13234
टें	-13235
बिल	-13236
ocks	-13237
rary	-13238
उसके	-13239
बहुत	-13240
ामिन	-13241
▁acid	-13242
▁गीता	-13243
▁जाया	-13244
▁भाष्	-13245
ब्ल्यू	-13246
▁रोकते	-13247
▁Follow	-13248
▁housing	-13249
▁reprodu	-13250
▁inspiration	-13251
टिक	-13252
▁रहित	-13253
▁ratio	-13254
ानिस्तान	-13255
▁answered	-13256
▁improved	-13257
▁quantity	-13258
▁continuous	-13259
▁परिवर्तनों	-13260
atar	-13261
pens	-13262
umes	-13263
ल्लम	-13264
▁unw	-13265
▁ढूँ	-13266
ected	-13267
▁lamp	-13268
Indeed	-13269
edient	-13270
▁encry	-13271
▁निगाह	-13272
▁सुसंगत	-13273
▁harmony	-13274
▁paramet	-13275
▁deposits	-13276
▁लक्ष्यों	-13277
▁व्यापारिक	-13278
आत	-13279
iri	-13280
इंड	-13281
रुप	-13282
▁पश	-13283
ayer	-13284
itya	-13285
▁ties	-13286
▁अपार	-13287
▁डाली	-13288
▁समूद	-13289
▁पिछला	-13290
▁firmly	-13291
ellation	-13292
▁Manager	-13293
▁अध्यक्षता	-13294
▁कार्यान्वित	-13295
CS	-13296
▁ईंट	-13297
▁फुट	-13298
ranch	-13299
▁edge	-13300
▁vacc	-13301
▁अस्थि	-13302
welling	-13303
▁देखोगे	-13304
▁Cabinet	-13305
▁deliber	-13306
▁पेट्रोल	-13307
▁proclaim	-13308
▁प्रतिबद्धता	-13309
Be	-13310
aks	-13311
▁मेघ	-13312
orous	-13313
वास्त	-13314
▁लेबल	-13315
▁प्रमाणित	-13316
दूत	-13317
mits	-13318
anath	-13319
erate	-13320
▁TRAN	-13321
▁भाग्य	-13322
विश्वास	-13323
▁Integr	-13324
▁begins	-13325
▁Bharati	-13326
ographical	-13327
▁Principal	-13328
▁productivity	-13329
asty	-13330
otal	-13331
▁गढ़	-13332
▁Left	-13333
▁अंशदान	-13334
▁apparent	-13335
▁restrict	-13336
▁difficulty	-13337
ॉग	-13338
▁भव	-13339
▁Equ	-13340
▁Rev	-13341
▁पेय	-13342
▁पड़ो	-13343
▁agent	-13344
▁चेन्न	-13345
edience	-13346
▁Source	-13347
▁अभिभाषण	-13348
▁स्वाधीन	-13349
▁Himachal	-13350
▁departments	-13351
आईटी	-13352
▁अवल	-13353
inating	-13354
▁किराये	-13355
▁सारांश	-13356
ईं	-13357
udi	-13358
किस	-13359
▁pit	-13360
entle	-13361
▁thor	-13362
▁noble	-13363
▁theatre	-13364
▁complaint	-13365
▁प्रावधानों	-13366
,–	-13367
▁Oft	-13368
ureau	-13369
▁Jews	-13370
▁Tham	-13371
▁गुज़	-13372
▁टीका	-13373
izontal	-13374
▁Temple	-13375
▁अधिकारिता	-13376
िरण	-13377
ador	-13378
aren	-13379
uddin	-13380
▁shel	-13381
▁उग्र	-13382
वृद्धि	-13383
▁GNOME	-13384
▁mixed	-13385
▁मतभेद	-13386
▁spoken	-13387
▁stored	-13388
▁regulations	-13389
▁transmission	-13390
)]	-13391
anc	-13392
वाँ	-13393
▁Ask	-13394
▁hun	-13395
▁mov	-13396
ानिर्	-13397
▁जानना	-13398
▁recite	-13399
▁सम्पन्न	-13400
▁External	-13401
▁satisfied	-13402
▁प्रतिवादी	-13403
▁remarkable	-13404
▁ष	-13405
▁Jh	-13406
ार्इ	-13407
▁क़ाबू	-13408
▁yellow	-13409
▁Capital	-13410
▁Connect	-13411
▁college	-13412
▁प्रवासी	-13413
▁सुधारों	-13414
▁रचनात्मक	-13415
▁संक्रिया	-13416
’.	-13417
nan	-13418
▁bh	-13419
र्जन	-13420
▁Bra	-13421
▁silk	-13422
▁भड़क	-13423
▁लंदन	-13424
▁toler	-13425
▁जिलों	-13426
jection	-13427
▁ऑफ़लाइन	-13428
▁लाइब्रेरी	-13429
▁completion	-13430
SA	-13431
कंप	-13432
थित	-13433
▁Gree	-13434
▁नस्ल	-13435
▁clouds	-13436
▁observ	-13437
▁मनपसंद	-13438
.“	-13439
rum	-13440
पीसी	-13441
▁तुझ	-13442
▁दिश	-13443
▁बडे	-13444
▁सकल	-13445
▁baby	-13446
▁older	-13447
▁लाखों	-13448
▁Filter	-13449
▁rulers	-13450
▁आकर्षण	-13451
▁afflict	-13452
▁वस्तुएं	-13453
▁स्वच्छता	-13454
▁Agricultural	-13455
▁उत्तरदायित्व	-13456
GP	-13457
▁वय	-13458
ब्बा	-13459
र्ता	-13460
▁बलि	-13461
बेडकर	-13462
▁पाना	-13463
▁तीसरा	-13464
justice	-13465
▁Police	-13466
▁उत्तेज	-13467
▁सलाहकार	-13468
▁अधिसूचित	-13469
▁Od	-13470
▁तम	-13471
भक्त	-13472
▁rou	-13473
etary	-13474
▁पीछा	-13475
▁Earth	-13476
▁बताते	-13477
ificial	-13478
▁propag	-13479
▁कानूनों	-13480
▁शिक्षित	-13481
▁स्रोतों	-13482
▁intended	-13483
▁सम्पत्ति	-13484
▁नकारात्मक	-13485
':%	-13486
▁रहम	-13487
पत्ति	-13488
▁इष्ट	-13489
▁हमला	-13490
▁valley	-13491
▁describ	-13492
▁enjoyment	-13493
▁requested	-13494
डू	-13495
बीन	-13496
▁Tog	-13497
शुल्क	-13498
▁IMAP	-13499
कारिता	-13500
▁starts	-13501
्राव	-13502
▁hit	-13503
erior	-13504
पुरुष	-13505
▁Tell	-13506
▁अंडे	-13507
▁ज़बर	-13508
▁दूँगा	-13509
▁समापन	-13510
▁respite	-13511
▁प्रतिदान	-13512
▁anniversary	-13513
०००	-13514
▁""	-13515
▁Amb	-13516
▁vit	-13517
▁१९९	-13518
▁orph	-13519
▁Vedic	-13520
▁कैंसर	-13521
▁होगें	-13522
▁Master	-13523
▁helper	-13524
▁street	-13525
▁warned	-13526
▁derived	-13527
▁अनुक्रम	-13528
▁remembrance	-13529
षी	-13530
लामी	-13531
▁Kor	-13532
▁माय	-13533
तायात	-13534
▁Farm	-13535
▁मेमो	-13536
जीविका	-13537
▁marks	-13538
▁लगाकर	-13539
▁जर्मनी	-13540
▁तथ्यों	-13541
▁सौभाग्य	-13542
▁electronic	-13543
▁constructed	-13544
ims	-13545
▁बट	-13546
▁Fed	-13547
▁मचा	-13548
विष्ट	-13549
▁मेहन	-13550
▁pious	-13551
▁Screen	-13552
▁acting	-13553
▁Kingdom	-13554
▁देवताओं	-13555
▁दीक्षांत	-13556
▁diversity	-13557
▁infection	-13558
▁hat	-13559
▁जाग	-13560
ships	-13561
▁बचने	-13562
▁कुशलता	-13563
▁स्मारक	-13564
▁Subject	-13565
▁प्रसारण	-13566
▁appearance	-13567
thi	-13568
▁ढल	-13569
▁phen	-13570
▁आईटी	-13571
▁श्रो	-13572
▁सौंद	-13573
▁Chenn	-13574
▁mirac	-13575
▁ships	-13576
▁उन्हे	-13577
▁पुरूष	-13578
▁विफलः	-13579
▁संदाय	-13580
▁naught	-13581
▁Whatever	-13582
▁telephone	-13583
▁Christians	-13584
▁वास्तविकता	-13585
गुण	-13586
▁Job	-13587
▁blame	-13588
▁फ्रेम	-13589
▁नारायण	-13590
▁disabled	-13591
▁personnel	-13592
▁steadfast	-13593
Why	-13594
ambo	-13595
▁Ang	-13596
▁Fac	-13597
▁Sem	-13598
▁Mode	-13599
▁आवरण	-13600
▁आवेद	-13601
▁उभार	-13602
▁भव्य	-13603
▁प्लगिन	-13604
▁मानकों	-13605
▁सन्देह	-13606
▁pointed	-13607
▁windows	-13608
▁ensuring	-13609
▁categories	-13610
▁intelligence	-13611
▁strengthening	-13612
र्ज़	-13613
ल्ले	-13614
▁coc	-13615
साइटी	-13616
▁मौका	-13617
▁stayed	-13618
▁twelve	-13619
▁ड्राइव	-13620
▁जरूरतों	-13621
▁बोध	-13622
▁jobs	-13623
▁aband	-13624
▁पंजाबी	-13625
▁chapter	-13626
▁criminal	-13627
▁duration	-13628
▁mechanism	-13629
ikh	-13630
लीन	-13631
mail	-13632
िकीय	-13633
▁भूख	-13634
▁zone	-13635
▁किस्	-13636
▁बर्फ	-13637
▁sympt	-13638
▁नमूना	-13639
weather	-13640
▁Prasad	-13641
▁palace	-13642
▁silver	-13643
▁spring	-13644
▁दोज़ख़	-13645
▁सोसाइटी	-13646
▁Ramayana	-13647
▁corporate	-13648
▁discharge	-13649
णे	-13650
ताअत	-13651
▁आदर	-13652
संचार	-13653
▁पिला	-13654
inance	-13655
▁Banks	-13656
▁कमज़ोर	-13657
▁कृत्रिम	-13658
▁यातायात	-13659
▁दस्तावेजों	-13660
▁competition	-13661
▁discussions	-13662
▁Ek	-13663
ापरी	-13664
ुमान	-13665
▁Dom	-13666
▁Wid	-13667
ether	-13668
शिक्ष	-13669
▁upto	-13670
▁ब्रे	-13671
▁वांछ	-13672
iciary	-13673
vation	-13674
▁socio	-13675
▁verse	-13676
▁प्रबल	-13677
▁फायदे	-13678
▁Territ	-13679
▁occurs	-13680
▁Ayurved	-13681
▁इस्लामी	-13682
▁माइक्रो	-13683
▁satisfaction	-13684
▁फट	-13685
उनके	-13686
पीआई	-13687
▁घात	-13688
▁बहि	-13689
▁लोह	-13690
▁सीता	-13691
▁सूरज	-13692
▁अपनाई	-13693
▁अकादमी	-13694
▁involve	-13695
▁writings	-13696
▁कृतज्ञता	-13697
▁addresses	-13698
चाप	-13699
▁CS	-13700
काना	-13701
▁सोल	-13702
▁pair	-13703
▁आयकर	-13704
▁मोड़	-13705
▁enact	-13706
▁metal	-13707
▁gradually	-13708
▁participate	-13709
▁Parliamentary	-13710
CD	-13711
----	-13712
हवीं	-13713
▁via	-13714
chron	-13715
▁Cell	-13716
▁Raja	-13717
▁impr	-13718
▁David	-13719
▁saving	-13720
▁दुर्लभ	-13721
▁हिस्सों	-13722
▁vegetables	-13723
▁आत्मनिर्भर	-13724
▁Eff	-13725
▁कुम	-13726
▁हाइ	-13727
संबंध	-13728
▁अकार	-13729
▁समझना	-13730
▁चीज़ें	-13731
▁Panchay	-13732
▁भावनाओं	-13733
▁elephant	-13734
▁संकल्पना	-13735
थन	-13736
मस	-13737
ued	-13738
tical	-13739
व्यापी	-13740
▁camel	-13741
▁उत्सव	-13742
▁वारिस	-13743
▁Houses	-13744
▁अधिकृत	-13745
▁eastern	-13746
▁चाहूंगा	-13747
▁देखेंगे	-13748
▁परिश्रम	-13749
▁उल्लिखित	-13750
▁एजेंसियों	-13751
bre	-13752
▁Var	-13753
▁tot	-13754
द्रास	-13755
▁scen	-13756
▁idols	-13757
▁pound	-13758
▁usual	-13759
▁Madras	-13760
▁divers	-13761
▁driven	-13762
▁tender	-13763
▁पेशेवर	-13764
▁फरमाया	-13765
▁उत्कृष्टता	-13766
AO	-13767
Pe	-13768
▁टि	-13769
▁तस्	-13770
▁नकद	-13771
▁None	-13772
▁पाकी	-13773
▁तबाही	-13774
▁बालों	-13775
▁मुल्क	-13776
▁छुट्टी	-13777
▁परोक्ष	-13778
▁charity	-13779
▁prepare	-13780
▁trained	-13781
▁असामान्य	-13782
▁पूर्ववर्ती	-13783
▁difficulties	-13784
बाई	-13785
डीएफ	-13786
पंथी	-13787
ालों	-13788
▁Mos	-13789
▁Vij	-13790
▁अटल	-13791
▁कारा	-13792
▁समेक	-13793
▁Apart	-13794
▁Super	-13795
▁शाखाओं	-13796
▁courses	-13797
▁Afghanistan	-13798
UG	-13799
how	-13800
irs	-13801
▁पन	-13802
हरों	-13803
▁Cop	-13804
▁tag	-13805
▁नर्म	-13806
▁भुला	-13807
▁cried	-13808
▁निचले	-13809
▁बेटों	-13810
ulatory	-13811
श्रेष्ठ	-13812
▁corner	-13813
▁इंदिरा	-13814
▁ज्योति	-13815
▁स्कूलों	-13816
▁recognize	-13817
▁स्थितियों	-13818
ima	-13819
बली	-13820
ॉक्स	-13821
▁आशय	-13822
▁नाय	-13823
bered	-13824
▁axis	-13825
▁मानदंड	-13826
▁entrust	-13827
▁मुहम्मद	-13828
▁विदेशों	-13829
▁प्रणालियों	-13830
DP	-13831
जत	-13832
िद	-13833
ख़बर	-13834
▁rot	-13835
▁बरस	-13836
▁वें	-13837
house	-13838
▁टिकट	-13839
▁नामा	-13840
▁पचास	-13841
▁depic	-13842
▁केडीई	-13843
▁सहयोगी	-13844
▁affection	-13845
DF	-13846
cul	-13847
क्ल	-13848
▁Kam	-13849
▁rhy	-13850
lines	-13851
▁meat	-13852
तन्त्र	-13853
▁Peace	-13854
▁liars	-13855
cession	-13856
▁ट्रांस	-13857
▁Details	-13858
▁वनस्पति	-13859
bind	-13860
प्रा	-13861
▁Sab	-13862
▁doom	-13863
▁कहें	-13864
▁ocean	-13865
▁पुनरा	-13866
▁मिलना	-13867
▁rebell	-13868
▁उड़ीसा	-13869
ATE	-13870
▁sed	-13871
organ	-13872
▁Appe	-13873
▁खनिज	-13874
▁stamp	-13875
▁टेलीफ	-13876
▁Action	-13877
▁fought	-13878
▁plaint	-13879
▁planned	-13880
▁उद्यमों	-13881
▁संदेशों	-13882
▁superior	-13883
▁चिकित्सक	-13884
▁अपेक्षाकृत	-13885
▁determination	-13886
पय	-13887
मंच	-13888
▁शेर	-13889
▁हरा	-13890
▁झूठा	-13891
▁वैष्ण	-13892
istries	-13893
▁degrees	-13894
▁encompass	-13895
Who	-13896
ध्व	-13897
▁(*	-13898
▁NPS	-13899
▁पडे	-13900
rease	-13901
▁पूछे	-13902
ronics	-13903
▁sites	-13904
▁निवारण	-13905
▁demands	-13906
▁printed	-13907
घन	-13908
lin	-13909
obe	-13910
▁eve	-13911
▁करम	-13912
▁Cond	-13913
▁कमाई	-13914
▁Audio	-13915
▁सच्चाई	-13916
▁devoted	-13917
▁achievements	-13918
AIL	-13919
▁१०	-13920
olic	-13921
▁हड़	-13922
rowned	-13923
▁armed	-13924
▁struck	-13925
▁गवर्नर	-13926
▁realize	-13927
▁programs	-13928
da	-13929
परा	-13930
▁EV	-13931
aked	-13932
उनकी	-13933
▁Lah	-13934
▁धान	-13935
▁पुल	-13936
▁बिग	-13937
▁legs	-13938
▁परेशान	-13939
▁प्राणी	-13940
▁conceal	-13941
▁greatly	-13942
▁observe	-13943
▁injustice	-13944
Se	-13945
▁घुट	-13946
पोरेट	-13947
▁park	-13948
▁एमएस	-13949
▁फिली	-13950
▁Ahmed	-13951
▁क्रोध	-13952
▁क्लिप	-13953
▁दुश्मन	-13954
▁मरम्मत	-13955
▁Download	-13956
▁Location	-13957
▁investors	-13958
▁permitted	-13959
ज़न	-13960
▁घन	-13961
उसकी	-13962
टकों	-13963
▁Mir	-13964
iques	-13965
ख्वाह	-13966
▁Four	-13967
चन्द्र	-13968
▁falls	-13969
gorithm	-13970
▁आंकड़े	-13971
▁awarded	-13972
▁liberal	-13973
▁pillars	-13974
▁worldly	-13975
▁साझीदार	-13976
▁उत्पादकता	-13977
down	-13978
aching	-13979
▁goals	-13980
▁ऊँचाई	-13981
▁पीड़ा	-13982
▁हकदार	-13983
▁कवियों	-13984
▁खिलाड़ी	-13985
▁आयुर्वेद	-13986
▁voluntary	-13987
▁representative	-13988
▁CP	-13989
नीतिक	-13990
सूचना	-13991
▁मारा	-13992
▁Binoy	-13993
▁adorn	-13994
▁इन्हीं	-13995
▁मुकदमा	-13996
कने	-13997
bles	-13998
▁Luc	-13999
▁van	-14000
▁myth	-14001
▁मंडप	-14002
▁संगत	-14003
▁राज़ी	-14004
▁aggreg	-14005
▁approx	-14006
▁मंत्रि	-14007
▁cricket	-14008
▁संतुष्ट	-14009
▁Chaitanya	-14010
▁practical	-14011
▁व्याख्यान	-14012
ंसी	-14013
भोग	-14014
▁कड़	-14015
▁ताज	-14016
हाबाद	-14017
▁Guid	-14018
▁accur	-14019
▁खोजें	-14020
reement	-14021
▁domain	-14022
▁समर्पण	-14023
▁accommod	-14024
▁Companies	-14025
▁arrangements	-14026
भास	-14027
ATORS	-14028
▁Bhut	-14029
▁उतारी	-14030
▁खातों	-14031
▁सारणी	-14032
▁invent	-14033
▁papers	-14034
▁मद्रास	-14035
inations	-14036
▁देनेवाला	-14037
▁Knowledge	-14038
yn	-14039
जक	-14040
ग्स	-14041
will	-14042
▁घाट	-14043
rahim	-14044
▁dawn	-14045
▁मोहन	-14046
▁होटल	-14047
▁Guard	-14048
▁इमारत	-14049
▁पड़ने	-14050
▁लाभों	-14051
▁bacter	-14052
▁क़समें	-14053
▁devices	-14054
▁faculty	-14055
▁package	-14056
▁व्यष्टि	-14057
alo	-14058
▁आवि	-14059
▁उदय	-14060
azing	-14061
iplom	-14062
▁nurs	-14063
▁Lanka	-14064
▁panel	-14065
▁पढ़ते	-14066
▁बताने	-14067
▁पत्रों	-14068
▁आजीविका	-14069
▁universe	-14070
▁directions	-14071
▁contributed	-14072
}'	-14073
एव	-14074
ुदरत	-14075
▁viz	-14076
▁सना	-14077
जहन्न	-14078
▁offs	-14079
▁गर्भा	-14080
attered	-14081
▁cotton	-14082
▁permiss	-14083
▁stopped	-14084
▁attended	-14085
▁Australia	-14086
▁specially	-14087
▁significance	-14088
ँग	-14089
API	-14090
IST	-14091
खार	-14092
मरा	-14093
ेयर	-14094
वश्य	-14095
▁ऊतक	-14096
▁दूँ	-14097
atell	-14098
peror	-14099
▁News	-14100
▁bell	-14101
▁चलना	-14102
▁पैनल	-14103
▁बगैर	-14104
▁cloth	-14105
▁TRANSL	-14106
▁affair	-14107
▁decree	-14108
▁judges	-14109
▁partition	-14110
▁Universities	-14111
त्रि	-14112
▁acce	-14113
▁node	-14114
▁Exalted	-14115
▁परंपरागत	-14116
▁executive	-14117
▁इंजीनियरी	-14118
१९	-14119
▁८	-14120
PRO	-14121
DUCT	-14122
विदा	-14123
▁Wik	-14124
▁सहे	-14125
संख्य	-14126
▁पाये	-14127
ounter	-14128
▁बाक़ी	-14129
▁लम्बी	-14130
▁arising	-14131
▁भागीदार	-14132
गानिस्तान	-14133
▁suffered	-14134
▁nom	-14135
▁बचे	-14136
▁गोरा	-14137
▁बादल	-14138
▁हँसी	-14139
▁Jesus	-14140
▁quiet	-14141
▁निरूप	-14142
▁संयोजन	-14143
▁reasonable	-14144
▁recommendations	-14145
oz	-14146
part	-14147
ocate	-14148
▁jail	-14149
▁संधि	-14150
▁scene	-14151
▁कोर्ट	-14152
amation	-14153
▁widely	-14154
▁Install	-14155
▁producing	-14156
▁*.	-14157
▁cos	-14158
▁ओपन	-14159
▁नाक	-14160
▁औज़ार	-14161
▁कालेज	-14162
▁पशुओं	-14163
▁संजाल	-14164
▁allows	-14165
▁southern	-14166
▁अवसंरचना	-14167
▁विकासशील	-14168
▁structures	-14169
शक	-14170
सम्	-14171
ारक	-14172
च्ची	-14173
विंद	-14174
▁Tir	-14175
▁असी	-14176
lihood	-14177
▁महानि	-14178
▁यहूदी	-14179
▁Russia	-14180
▁धनराशि	-14181
▁Meeting	-14182
▁ceremony	-14183
▁educated	-14184
▁repentance	-14185
CP	-14186
▁खेत	-14187
▁Burn	-14188
▁White	-14189
▁बल्ले	-14190
ailable	-14191
▁equals	-14192
▁shrine	-14193
▁musical	-14194
▁मुख्यतः	-14195
▁समकालीन	-14196
▁सैनिकों	-14197
▁distress	-14198
▁recovery	-14199
▁increases	-14200
EF	-14201
ताप	-14202
म्पा	-14203
▁धूम	-14204
▁उत्‍	-14205
▁कंपन	-14206
▁गलती	-14207
▁audit	-14208
▁owned	-14209
▁Person	-14210
▁prohib	-14211
▁Himself	-14212
▁convert	-14213
▁offence	-14214
▁विकलांग	-14215
▁TRANSLATORS	-14216
▁...	-14217
▁जगत	-14218
बार्ड	-14219
▁boys	-14220
▁जरुर	-14221
▁पाठक	-14222
▁Major	-14223
▁defin	-14224
▁टैगोर	-14225
▁माननीय	-14226
▁रखरखाव	-14227
▁Germany	-14228
▁founded	-14229
▁herself	-14230
▁computing	-14231
▁effectively	-14232
oram	-14233
ूल्य	-14234
▁MSME	-14235
▁subt	-14236
orders	-14237
ाधिकार	-14238
▁Short	-14239
▁crime	-14240
▁पार्ट	-14241
▁minute	-14242
▁eternal	-14243
▁strange	-14244
▁अलबत्ता	-14245
ictionary	-14246
▁classical	-14247
enn	-14248
aron	-14249
▁Way	-14250
▁नकदी	-14251
सायनिक	-14252
▁Hence	-14253
▁chrom	-14254
▁bridge	-14255
▁निपटान	-14256
▁सौंदर्य	-14257
▁innovative	-14258
क़े	-14259
uted	-14260
▁SSL	-14261
▁मला	-14262
▁वाइ	-14263
र्कों	-14264
▁राज़	-14265
▁delic	-14266
▁resolve	-14267
▁किन्हीं	-14268
▁guardian	-14269
▁securities	-14270
पक्व	-14271
▁pix	-14272
▁वाम	-14273
▁टेली	-14274
▁मणिप	-14275
▁राहे	-14276
▁fluid	-14277
▁इताअत	-14278
▁इस्पात	-14279
▁ज़िक्र	-14280
▁दिखाना	-14281
▁रचनाओं	-14282
▁शर्तें	-14283
▁Forward	-14284
▁touched	-14285
▁assembly	-14286
▁स्ट्रिंग	-14287
▁Amendment	-14288
aze	-14289
unc	-14290
लोक	-14291
पश्च	-14292
▁HTTP	-14293
▁Shiv	-14294
▁अड्ड	-14295
pelled	-14296
▁गाड़ी	-14297
ository	-14298
▁Sector	-14299
▁eminent	-14300
▁सत्यापित	-14301
▁faithless	-14302
▁monitoring	-14303
ham	-14304
key	-14305
lock	-14306
खुदा	-14307
ण्डल	-14308
र्फ़	-14309
▁ख़ा	-14310
▁माध	-14311
▁कराई	-14312
▁दांत	-14313
▁Value	-14314
▁Medical	-14315
▁sharing	-14316
▁tremend	-14317
▁notified	-14318
▁विचारधारा	-14319
HER	-14320
कक्ष	-14321
▁Orig	-14322
▁lege	-14323
▁मंगल	-14324
▁conqu	-14325
▁मुताब	-14326
▁रूपये	-14327
▁संगणक	-14328
▁Executive	-14329
▁Selection	-14330
▁components	-14331
▁respondent	-14332
EX	-14333
हद	-14334
▁नम	-14335
▁Mor	-14336
▁Sin	-14337
▁डरता	-14338
▁usage	-14339
▁इरादा	-14340
▁वितरित	-14341
▁inhabit	-14342
▁पूर्णता	-14343
▁prominent	-14344
▁acceptance	-14345
तिज	-14346
ष्म	-14347
सेल	-14348
्रु	-14349
▁कंध	-14350
योग्य	-14351
वित्त	-14352
▁Vers	-14353
▁तीसरी	-14354
▁covers	-14355
▁प्रातः	-14356
Laughter	-14357
▁पहाड़ों	-14358
लाप	-14359
आईसी	-14360
▁lev	-14361
▁आएँ	-14362
▁मत्	-14363
▁शादी	-14364
▁सुनी	-14365
▁उत्पा	-14366
▁वृत्त	-14367
▁Perhaps	-14368
▁familiar	-14369
DA	-14370
दाह	-14371
हान	-14372
ोन्	-14373
▁दम	-14374
खाना	-14375
ग्रा	-14376
▁Cle	-14377
▁Exp	-14378
pping	-14379
▁घटित	-14380
▁Rights	-14381
▁retrie	-14382
▁भाइयों	-14383
▁व्यर्थ	-14384
▁discipline	-14385
Al	-14386
कोर	-14387
▁La	-14388
▁नक्	-14389
▁शब्	-14390
श्चित	-14391
akrish	-14392
▁draft	-14393
▁विभेद	-14394
▁ordered	-14395
▁encouraged	-14396
▁प्रशिक्षित	-14397
▁acquisition	-14398
▁presentation	-14399
fl	-14400
शास	-14401
urse	-14402
▁Ira	-14403
▁cup	-14404
▁गले	-14405
▁alle	-14406
▁myst	-14407
▁Somet	-14408
▁कुबूल	-14409
▁Object	-14410
▁beside	-14411
▁removal	-14412
▁employer	-14413
▁दिशानिर्	-14414
▁collaboration	-14415
acc	-14416
▁gn	-14417
▁Lad	-14418
▁Taj	-14419
▁कोण	-14420
▁दीं	-14421
▁देह	-14422
▁cart	-14423
▁grat	-14424
▁salt	-14425
▁कट्ट	-14426
▁बंबई	-14427
▁आस्था	-14428
▁NATION	-14429
▁resort	-14430
▁deities	-14431
▁परिपक्व	-14432
▁प्रचालन	-14433
▁प्रोटीन	-14434
▁सामान्यतया	-14435
▁ड़	-14436
anth	-14437
▁NAB	-14438
▁nav	-14439
▁कोर	-14440
▁फाइ	-14441
▁urge	-14442
▁जुटा	-14443
्टवेयर	-14444
▁forty	-14445
▁अवरोध	-14446
▁कोयला	-14447
▁मतदान	-14448
▁नवाचार	-14449
▁लोकसभा	-14450
▁drawing	-14451
▁offering	-14452
▁दार्शनिक	-14453
▁यथास्थिति	-14454
हक़	-14455
▁नल	-14456
name	-14457
▁deaf	-14458
▁vain	-14459
asures	-14460
▁कार्मिक	-14461
▁receiving	-14462
▁accompanied	-14463
समझ	-14464
ेंच	-14465
itra	-14466
leum	-14467
arest	-14468
▁Hide	-14469
▁diam	-14470
▁elim	-14471
▁resc	-14472
▁snow	-14473
▁tear	-14474
▁माउस	-14475
त्मकता	-14476
▁incom	-14477
▁आँखें	-14478
▁कराता	-14479
▁मजबूर	-14480
▁सृजित	-14481
▁Plugin	-14482
▁biggest	-14483
▁relatives	-14484
IB	-14485
App	-14486
पीठ	-14487
प्रण	-14488
मोहन	-14489
ष्‍ट	-14490
िकरण	-14491
▁कुट	-14492
angle	-14493
न्नों	-14494
▁बांट	-14495
क्षरता	-14496
▁Nagar	-14497
▁नाट्य	-14498
▁dreams	-14499
▁त्वरित	-14500
artments	-14501
▁कविताओं	-14502
▁Template	-14503
▁प्रतिरोध	-14504
ऊँगा	-14505
▁IIT	-14506
▁लीग	-14507
alore	-14508
▁नौकर	-14509
▁यूआर	-14510
▁marry	-14511
▁हरिया	-14512
त्रियों	-14513
ानुभूति	-14514
▁रिश्ते	-14515
▁mandapa	-14516
▁टेलीफोन	-14517
▁वस्तुतः	-14518
▁terminal	-14519
▁रखनेवालों	-14520
▁enterprise	-14521
▁उपलब्धियों	-14522
▁congratulate	-14523
ृंग	-14524
▁कव	-14525
▁Ary	-14526
▁Far	-14527
▁mun	-14528
▁फूँ	-14529
▁रिट	-14530
प्रथम	-14531
स्टिक	-14532
हमारी	-14533
▁Vidy	-14534
▁bull	-14535
▁किला	-14536
▁Mercy	-14537
expected	-14538
▁disappe	-14539
▁realise	-14540
▁दीवारों	-14541
▁arranged	-14542
▁painting	-14543
▁इंग्लैंड	-14544
▁अंग्रेज़ी	-14545
?'	-14546
▁रै	-14547
▁Kir	-14548
▁mak	-14549
▁नौका	-14550
▁मुहा	-14551
▁innoc	-14552
▁डोमेन	-14553
▁संकलन	-14554
▁आख़ेरत	-14555
▁एशियाई	-14556
▁रूपरेखा	-14557
off	-14558
ठीक	-14559
भाई	-14560
▁fly	-14561
▁आदत	-14562
▁वजन	-14563
▁abst	-14564
▁narr	-14565
▁ऊंची	-14566
▁गूगल	-14567
▁वाणी	-14568
▁पड़ते	-14569
▁differ	-14570
▁इलाकों	-14571
▁commence	-14572
▁cultivation	-14573
ugu	-14574
भुत	-14575
ान्	-14576
wing	-14577
▁बिन	-14578
liest	-14579
▁करूँ	-14580
......	-14581
ानुसार	-14582
▁seeks	-14583
▁client	-14584
▁virtue	-14585
▁subjected	-14586
ोद	-14587
णता	-14588
जाने	-14589
तिपय	-14590
▁dro	-14591
▁Font	-14592
▁घाटा	-14593
▁दौरा	-14594
▁बालक	-14595
▁gradu	-14596
▁proxy	-14597
▁फूलों	-14598
▁मराठी	-14599
▁होस्ट	-14600
entation	-14601
▁Manipur	-14602
▁profile	-14603
▁पूर्णतः	-14604
▁submission	-14605
मुना	-14606
▁बिट	-14607
acing	-14608
▁solve	-14609
pection	-14610
▁stress	-14611
▁inherit	-14612
▁normally	-14613
▁प्रतिलिपि	-14614
▁controlled	-14615
िणी	-14616
long	-14617
▁नमक	-14618
▁वैय	-14619
endra	-14620
▁accum	-14621
▁जंगली	-14622
▁संचित	-14623
▁कर्मों	-14624
▁streams	-14625
▁मध्यस्थ	-14626
▁companions	-14627
▁representatives	-14628
KS	-14629
iche	-14630
umph	-14631
▁Ach	-14632
▁पित	-14633
▁glass	-14634
▁sovere	-14635
▁update	-14636
▁अन्याय	-14637
▁मेमोरी	-14638
▁goddess	-14639
▁publish	-14640
▁प्रिंटर	-14641
▁मित्रता	-14642
▁dwelling	-14643
▁कार्यकारी	-14644
▁परिस्थिति	-14645
▁combination	-14646
TS	-14647
डल	-14648
ato	-14649
तत्व	-14650
▁पते	-14651
▁प्य	-14652
▁सेक	-14653
▁अन्ध	-14654
▁क्रय	-14655
ipping	-14656
▁पढ़ाई	-14657
▁सोचते	-14658
▁poetic	-14659
▁imagine	-14660
▁प्रतिस्पर्धा	-14661
}"	-14662
चाह	-14663
नेस	-14664
अपना	-14665
स्कर	-14666
▁CRA	-14667
▁pig	-14668
▁विट	-14669
▁वेश	-14670
▁tick	-14671
▁आजाद	-14672
▁सेंटर	-14673
▁कार्बन	-14674
▁रंगमंच	-14675
▁साक्षा	-14676
▁testing	-14677
▁प्रदत्त	-14678
▁constitu	-14679
▁emerging	-14680
▁qualities	-14681
▁संवेदनशील	-14682
▁admonition	-14683
▁'{	-14684
▁तदन	-14685
▁मील	-14686
amber	-14687
▁hast	-14688
▁बाढ़	-14689
▁हिला	-14690
ashion	-14691
▁shell	-14692
▁wrath	-14693
▁आमदनी	-14694
▁बढ़ता	-14695
▁बहुमत	-14696
▁missing	-14697
▁ignorant	-14698
▁प्राधिकृत	-14699
▁substantial	-14700
▁authentication	-14701
पर्य	-14702
▁चश्	-14703
allel	-14704
chief	-14705
▁कबीर	-14706
▁किमी	-14707
▁दलों	-14708
▁मोती	-14709
▁वादी	-14710
▁haply	-14711
▁humble	-14712
▁अनुचित	-14713
▁तुर्की	-14714
▁शुरूआत	-14715
▁prevail	-14716
▁Maharaja	-14717
▁sentence	-14718
वेल	-14719
र्थी	-14720
icode	-14721
▁Durg	-14722
▁bath	-14723
▁diet	-14724
▁sake	-14725
▁cycle	-14726
▁sales	-14727
▁दिखाए	-14728
▁League	-14729
▁quarter	-14730
▁northern	-14731
▁प्रॉक्सी	-14732
▁विज्ञापन	-14733
▁resulting	-14734
▁परिकल्पना	-14735
Go	-14736
Os	-14737
ding	-14738
खाने	-14739
गांठ	-14740
स्सी	-14741
▁Rah	-14742
▁Tor	-14743
▁जता	-14744
▁नाह	-14745
▁मंग	-14746
▁मेज	-14747
▁keen	-14748
▁faced	-14749
▁patri	-14750
▁अवकाश	-14751
▁बेकार	-14752
▁आकर्षक	-14753
▁Working	-14754
▁राजमार्ग	-14755
%)	-14756
uv	-14757
गृह	-14758
▁Fe	-14759
achi	-14760
alaya	-14761
स्फोट	-14762
▁अखबार	-14763
▁एहसान	-14764
▁सुनकर	-14765
▁Spirit	-14766
▁reader	-14767
▁Ibrahim	-14768
▁उपेक्षा	-14769
▁एक्सचेंज	-14770
राष्ट्रपति	-14771
▁reckoning	-14772
)-	-14773
ूण	-14774
म्मा	-14775
▁आवृ	-14776
▁संदेय	-14777
▁सहभाग	-14778
▁सुनाई	-14779
▁आदमियों	-14780
▁नाबार्ड	-14781
▁पार्श्व	-14782
▁बेहिश्त	-14783
▁Japanese	-14784
▁technique	-14785
▁technological	-14786
▁transformation	-14787
फु	-14788
गंध	-14789
ूमत	-14790
▁Da	-14791
araj	-14792
rers	-14793
ॉर्ट	-14794
▁धूप	-14795
▁बडा	-14796
▁हैस	-14797
▁vary	-14798
▁ख़ौफ	-14799
▁नर्स	-14800
▁kings	-14801
▁हज़ार	-14802
▁क़्यों	-14803
▁ठहराया	-14804
प्रदायिक	-14805
▁Certainly	-14806
▁strategic	-14807
▁Properties	-14808
▁entrepreneur	-14809
▁पठ	-14810
▁वसा	-14811
▁Iraq	-14812
▁विधा	-14813
▁सकने	-14814
▁हाउस	-14815
roleum	-14816
▁रद्दी	-14817
iculture	-14818
▁despite	-14819
▁exactly	-14820
▁वर्गीकरण	-14821
▁carefully	-14822
▁इंजीनियरिंग	-14823
asy	-14824
र्भ	-14825
▁चट	-14826
gage	-14827
ोत्स	-14828
▁rom	-14829
▁नोडल	-14830
▁claims	-14831
▁negoti	-14832
▁मिटाना	-14833
▁closely	-14834
▁vehicle	-14835
▁Officers	-14836
▁valuable	-14837
▁कहानियों	-14838
▁शक्तियां	-14839
▁legislation	-14840
▁सर्वश्रेष्ठ	-14841
वीर	-14842
▁ego	-14843
▁kid	-14844
▁खाल	-14845
▁संब	-14846
▁फौरन	-14847
▁बचपन	-14848
▁लगने	-14849
▁Democ	-14850
▁finds	-14851
▁roots	-14852
▁शासित	-14853
ष्टाचार	-14854
▁Courts	-14855
▁finger	-14856
▁incurred	-14857
▁internet	-14858
▁phenomen	-14859
pent	-14860
ैतिज	-14861
▁मुआ	-14862
India	-14863
▁क्यू	-14864
▁फलों	-14865
▁रहीं	-14866
▁राधा	-14867
वैधानिक	-14868
▁unseen	-14869
▁traffic	-14870
▁महासागर	-14871
▁ignorance	-14872
▁sensitive	-14873
▁बांग्लादेश	-14874
▁righteousness	-14875
xts	-14876
िट्	-14877
ashi	-14878
▁कंट	-14879
tched	-14880
▁fasc	-14881
▁ring	-14882
▁वैसी	-14883
▁Order	-14884
▁deriv	-14885
▁गिनती	-14886
▁लम्बे	-14887
▁claimed	-14888
▁निवेशकों	-14889
▁determine	-14890
▁indigenous	-14891
▁requirement	-14892
pad	-14893
husi	-14894
वाणी	-14895
▁आधा	-14896
▁PRAN	-14897
▁बरकत	-14898
▁मेगा	-14899
orship	-14900
▁yours	-14901
▁browser	-14902
▁शास्त्रीय	-14903
बस	-14904
reet	-14905
▁गेह	-14906
arita	-14907
being	-14908
▁Resp	-14909
▁कथित	-14910
▁नायक	-14911
▁बेटी	-14912
▁मौज़	-14913
स्मृति	-14914
▁wings	-14915
▁worst	-14916
▁Vaishn	-14917
▁निपटने	-14918
▁livelihood	-14919
कोष	-14920
खिक	-14921
When	-14922
ड़कर	-14923
▁Yoj	-14924
their	-14925
▁Does	-14926
▁Sund	-14927
▁exem	-14928
▁कतिपय	-14929
▁बैकअप	-14930
▁पाकीज़ा	-14931
▁infinite	-14932
ंचल	-14933
▁१२	-14934
लेखा	-14935
▁इबर	-14936
▁एन्	-14937
▁घुस	-14938
▁inev	-14939
▁ungr	-14940
▁स्वै	-14941
▁हमपर	-14942
▁मानने	-14943
▁माहौल	-14944
त्तियों	-14945
▁गरीबों	-14946
▁Railway	-14947
▁lessons	-14948
▁tourist	-14949
▁inserted	-14950
▁liability	-14951
▁distinction	-14952
▁preparation	-14953
पटा	-14954
ूलन	-14955
▁-,	-14956
▁इंस	-14957
▁ढाँ	-14958
▁ह्र	-14959
▁Chat	-14960
▁ऊंचे	-14961
▁Again	-14962
▁flour	-14963
▁illeg	-14964
▁भत्ता	-14965
▁मनाया	-14966
▁convent	-14967
▁रिज़र्व	-14968
▁pictures	-14969
▁Industries	-14970
▁परियोजनाएं	-14971
सद	-14972
)."	-14973
रीद	-14974
िपी	-14975
▁Br	-14976
cles	-14977
eper	-14978
टिंग	-14979
▁माउ	-14980
▁Auto	-14981
▁hence	-14982
▁NABARD	-14983
▁visual	-14984
▁निवेदन	-14985
▁farming	-14986
ema	-14987
olt	-14988
adur	-14989
कहीं	-14990
न्धन	-14991
▁Ltd	-14992
▁anx	-14993
▁किल	-14994
▁भूट	-14995
There	-14996
▁Exam	-14997
▁चोरी	-14998
▁तनाव	-14999
▁wheat	-15000
▁अर्जन	-15001
▁क़रार	-15002
▁अज्ञान	-15003
▁sinners	-15004
▁आस्तियों	-15005
▁proposals	-15006
mal	-15007
vir	-15008
▁शपथ	-15009
दृष्टि	-15010
▁deals	-15011
▁midst	-15012
▁motor	-15013
▁condem	-15014
▁विवरणी	-15015
▁सृष्टि	-15016
▁enthusi	-15017
▁एकत्रित	-15018
▁ब्रह्मा	-15019
▁Messages	-15020
▁generated	-15021
▁constantly	-15022
OU	-15023
महा	-15024
▁नं	-15025
टीएम	-15026
लंका	-15027
वर्ग	-15028
हासन	-15029
िएशन	-15030
▁Ara	-15031
▁तरल	-15032
▁सोम	-15033
▁अजीब	-15034
▁गयीं	-15035
▁प्या	-15036
▁ended	-15037
▁सार्थ	-15038
▁इन्द्र	-15039
▁निर्गम	-15040
▁सर्वथा	-15041
▁Interest	-15042
▁प्रवर्तन	-15043
▁रासायनिक	-15044
▁Sometimes	-15045
▁alternative	-15046
Pro	-15047
शोर	-15048
ियॉ	-15049
▁तप	-15050
They	-15051
▁आवं	-15052
▁फॉर	-15053
▁Prot	-15054
▁Supp	-15055
▁advis	-15056
▁लौटने	-15057
▁signal	-15058
▁discrim	-15059
▁पहुँचने	-15060
▁tremendous	-15061
▁whomsoever	-15062
▁experiences	-15063
dev	-15064
lor	-15065
ूरो	-15066
ogen	-15067
rors	-15068
▁Nic	-15069
▁ben	-15070
▁आधे	-15071
▁इनको	-15072
▁chair	-15073
▁route	-15074
▁lesson	-15075
▁nutrit	-15076
▁prince	-15077
▁breasts	-15078
▁regularly	-15079
▁represented	-15080
▁SM	-15081
▁Sen	-15082
▁बेट	-15083
▁scar	-15084
▁त्यो	-15085
▁admin	-15086
▁बढ़ाना	-15087
▁raising	-15088
▁‘%	-15089
▁Hor	-15090
▁अपर	-15091
दाबाद	-15092
▁Sita	-15093
▁wages	-15094
▁permit	-15095
▁दिखाते	-15096
▁हथियार	-15097
▁seconds	-15098
▁स्वाधीनता	-15099
▁consisting	-15100
चंद	-15101
ंगें	-15102
▁sixt	-15103
▁cards	-15104
▁teeth	-15105
▁पहुँची	-15106
▁विनियमन	-15107
▁historic	-15108
▁indirect	-15109
▁oriented	-15110
▁arguments	-15111
▁व्युत्पन्न	-15112
▁interpretation	-15113
Ch	-15114
▁९	-15115
wal	-15116
upon	-15117
▁DAY	-15118
▁abn	-15119
▁woe	-15120
▁Game	-15121
▁York	-15122
▁सफाई	-15123
▁मेहनत	-15124
भूतियों	-15125
▁Marathi	-15126
▁violent	-15127
कीर	-15128
नाइ	-15129
▁od	-15130
▁२०	-15131
▁Kol	-15132
शिल्प	-15133
▁Five	-15134
▁अतएव	-15135
▁सूजन	-15136
▁त्रिप	-15137
▁वाक्य	-15138
connect	-15139
lasting	-15140
▁carved	-15141
▁strict	-15142
▁छोड़ें	-15143
▁uniform	-15144
▁अधिवेशन	-15145
▁गणतंत्र	-15146
▁सम्बद्ध	-15147
▁अस्वीकार	-15148
हृ	-15149
heb	-15150
ुरु	-15151
प्पा	-15152
▁तरा	-15153
▁दंत	-15154
power	-15155
▁Ever	-15156
▁आलेख	-15157
▁मानस	-15158
त्यक्ष	-15159
▁learnt	-15160
▁sports	-15161
▁वैष्णव	-15162
▁अनुशासन	-15163
criptions	-15164
▁finished	-15165
▁Configure	-15166
▁Governance	-15167
▁instruction	-15168
▁representation	-15169
नत	-15170
य्य	-15171
▁Aj	-15172
▁py	-15173
▁टक	-15174
ogue	-15175
उसका	-15176
▁सीन	-15177
▁Gita	-15178
▁pron	-15179
▁rose	-15180
▁बढ़ो	-15181
▁ट्रेड	-15182
▁प्रभु	-15183
▁फॉर्म	-15184
▁विधिक	-15185
▁वास्तु	-15186
▁creates	-15187
▁weakness	-15188
▁इलाहाबाद	-15189
▁पहुंचाने	-15190
▁healthcare	-15191
▁”“	-15192
▁बसव	-15193
▁लाह	-15194
amboo	-15195
▁Gora	-15196
▁Viet	-15197
▁clar	-15198
▁synt	-15199
▁शाही	-15200
▁grief	-15201
▁बनाती	-15202
▁नज़दीक	-15203
▁अनिवासी	-15204
▁Resource	-15205
▁पेट्रोलियम	-15206
▁essentially	-15207
▁introduction	-15208
महल	-15209
▁AM	-15210
▁hi	-15211
ित्य	-15212
▁lakhs	-15213
निर्माण	-15214
▁Middle	-15215
▁advert	-15216
▁उन्नयन	-15217
▁टुकड़ा	-15218
▁Minimum	-15219
▁finding	-15220
▁reaction	-15221
▁तत्कालीन	-15222
ोश	-15223
गित	-15224
ilal	-15225
▁Fam	-15226
▁गेट	-15227
अच्छे	-15228
▁beat	-15229
▁सुगम	-15230
▁dress	-15231
▁royal	-15232
▁sheet	-15233
▁अभिने	-15234
▁संप्र	-15235
▁चित्रण	-15236
▁जिन्ना	-15237
▁सिर्फ़	-15238
▁enforce	-15239
▁managed	-15240
▁passion	-15241
▁imprison	-15242
usp	-15243
हीत	-15244
▁je	-15245
ाधिक	-15246
▁Vive	-15247
▁tube	-15248
▁मन्द	-15249
▁सबका	-15250
▁aimed	-15251
▁अनन्त	-15252
▁खोजने	-15253
▁पूछते	-15254
त्याशित	-15255
▁eating	-15256
▁listed	-15257
▁manage	-15258
▁खतरनाक	-15259
▁सचिवाल	-15260
▁मिश्रित	-15261
▁Mahabharata	-15262
rut	-15263
टीय	-15264
पटल	-15265
▁उज	-15266
itud	-15267
roat	-15268
ताकि	-15269
भांश	-15270
▁चिर	-15271
▁देन	-15272
▁फूट	-15273
ifted	-15274
▁मोटे	-15275
worthy	-15276
▁loose	-15277
▁react	-15278
▁स्पर्श	-15279
▁Chennai	-15280
▁Hearing	-15281
▁enlight	-15282
▁reserve	-15283
▁venture	-15284
▁जाएँगें	-15285
▁बंदरगाह	-15286
▁arrogant	-15287
▁offspring	-15288
उल	-15289
टकर	-15290
▁/%	-15291
श्ती	-15292
▁flo	-15293
▁wat	-15294
▁एहद	-15295
igned	-15296
▁merg	-15297
▁अमृत	-15298
ashing	-15299
▁साकार	-15300
▁अन्वेष	-15301
▁मजदूरी	-15302
▁राजाओं	-15303
▁Majesty	-15304
▁disobey	-15305
▁prophet	-15306
▁feelings	-15307
▁reaching	-15308
▁प्रदर्शक	-15309
▁intention	-15310
▁क्रांतिकारी	-15311
बेल	-15312
rase	-15313
स्टे	-15314
izers	-15315
▁जज़ा	-15316
elfare	-15317
▁Mohan	-15318
▁आंखों	-15319
▁पूछता	-15320
▁बनायी	-15321
▁Center	-15322
▁danger	-15323
ंबा	-15324
कूट	-15325
क़ूब	-15326
▁नोक	-15327
▁हिल	-15328
काव्य	-15329
▁कोने	-15330
▁बनाओ	-15331
▁dealt	-15332
▁उपहार	-15333
▁परवाह	-15334
▁triumph	-15335
▁Hinduism	-15336
▁entrusted	-15337
▁participants	-15338
ube	-15339
टित	-15340
wood	-15341
▁केश	-15342
ystem	-15343
▁lady	-15344
▁रहकर	-15345
▁needy	-15346
▁सौंपा	-15347
▁wholly	-15348
ordinate	-15349
▁complic	-15350
▁helping	-15351
▁execution	-15352
▁छे	-15353
ille	-15354
▁Money	-15355
▁envis	-15356
▁पाओगे	-15357
▁Empire	-15358
▁Labour	-15359
▁carbon	-15360
▁incent	-15361
▁परिचालन	-15362
▁मुद्रित	-15363
▁competent	-15364
▁Additional	-15365
▁subsequent	-15366
▁Engineering	-15367
atra	-15368
समूह	-15369
▁Cam	-15370
▁बेस	-15371
chant	-15372
ipher	-15373
▁MAPI	-15374
▁monu	-15375
▁धोखा	-15376
▁aught	-15377
▁broke	-15378
▁depri	-15379
▁gland	-15380
▁अवतार	-15381
▁elabor	-15382
▁humili	-15383
▁ideals	-15384
▁Defence	-15385
▁commonly	-15386
▁realised	-15387
▁सहानुभूति	-15388
▁Protection	-15389
▁techniques	-15390
bl	-15391
▁III	-15392
▁छोड	-15393
▁Siva	-15394
▁keys	-15395
▁unaw	-15396
▁vent	-15397
▁बाति	-15398
आर्थिक	-15399
▁Mahal	-15400
▁chest	-15401
▁seats	-15402
▁player	-15403
▁largely	-15404
▁studied	-15405
▁मुकाबले	-15406
▁रजिस्टर	-15407
▁announce	-15408
▁symptoms	-15409
za	-15410
ायल	-15411
ोधी	-15412
▁जुल	-15413
▁पद्	-15414
aming	-15415
eries	-15416
युद्ध	-15417
▁Indo	-15418
▁Phys	-15419
▁quit	-15420
▁Encry	-15421
▁कारगर	-15422
▁मानों	-15423
▁worthy	-15424
▁आनुवंश	-15425
▁Welfare	-15426
▁customs	-15427
▁dignity	-15428
▁फरिश्ते	-15429
▁printing	-15430
▁yesterday	-15431
ba	-15432
▁mob	-15433
ख़्या	-15434
▁Kann	-15435
▁Maur	-15436
िकीकरण	-15437
▁Remote	-15438
▁खरीदने	-15439
▁बढ़ाया	-15440
▁ज्यादातर	-15441
▁प्रतिज्ञा	-15442
▁अफगानिस्तान	-15443
▁चक	-15444
▁ठाक	-15445
▁बड़	-15446
दर्शक	-15447
▁नामों	-15448
▁निभाई	-15449
▁closer	-15450
▁हैसियत	-15451
▁Related	-15452
▁emerged	-15453
▁printer	-15454
▁प्रजाति	-15455
▁earliest	-15456
▁श्रद्धांजलि	-15457
ype	-15458
टरी	-15459
onym	-15460
roph	-15461
▁Init	-15462
▁decade	-15463
▁engage	-15464
▁injury	-15465
▁फिल्टर	-15466
ographic	-15467
▁Punjabi	-15468
▁drowned	-15469
▁extract	-15470
▁Selected	-15471
▁happening	-15472
▁हिन्दुस्तान	-15473
आइ	-15474
फलक	-15475
▁जरा	-15476
▁ढाल	-15477
▁दमन	-15478
▁नील	-15479
फ़ाइल	-15480
▁Said	-15481
▁गोली	-15482
▁पाइप	-15483
▁विलय	-15484
▁Black	-15485
▁fever	-15486
▁अग्रे	-15487
▁अवशेष	-15488
▁असंभव	-15489
▁बॉक्स	-15490
▁cancer	-15491
▁यात्री	-15492
▁समीकरण	-15493
▁Previous	-15494
▁commands	-15495
▁शास्त्री	-15496
▁स्क्रिप्ट	-15497
ड्	-15498
भौ	-15499
िरा	-15500
▁EN	-15501
शिला	-15502
inals	-15503
essions	-15504
▁festiv	-15505
▁अहिंसा	-15506
▁ठहराते	-15507
▁bearing	-15508
▁consumers	-15509
▁constitutional	-15510
ऊद	-15511
जय	-15512
▁ly	-15513
ahoo	-15514
etan	-15515
usuf	-15516
बड़ी	-15517
▁pup	-15518
ariat	-15519
वश्यक	-15520
▁आजकल	-15521
▁Place	-15522
▁bears	-15523
▁पुराण	-15524
▁Attach	-15525
▁atomic	-15526
▁forced	-15527
▁lawful	-15528
▁भड़कती	-15529
▁लेखापरी	-15530
▁modified	-15531
▁endeavour	-15532
HO	-15533
ताज	-15534
onts	-15535
rupt	-15536
▁अद्	-15537
▁चखो	-15538
▁मरी	-15539
ensus	-15540
कार्ड	-15541
प्राय	-15542
▁Hall	-15543
▁encl	-15544
iously	-15545
orters	-15546
▁diagn	-15547
▁dread	-15548
▁अपवाद	-15549
▁भारती	-15550
irement	-15551
▁belied	-15552
▁overse	-15553
▁Nothing	-15554
▁Pension	-15555
▁ungrateful	-15556
▁प्राप्तकर्ता	-15557
ss	-15558
’’	-15559
oso	-15560
ुगु	-15561
▁हज	-15562
▁orn	-15563
▁हरी	-15564
रक्षण	-15565
▁ईरान	-15566
फ्रेंस	-15567
▁Space	-15568
▁Vivek	-15569
▁noise	-15570
▁कट्टर	-15571
▁Bhutan	-15572
▁Scient	-15573
▁invoke	-15574
▁अनुभाग	-15575
▁equival	-15576
▁flowing	-15577
▁झुठलाओगे	-15578
▁Legislature	-15579
ञ्	-15580
▁ठे	-15581
cure	-15582
स्पी	-15583
[...]
